{
  "version": "1.0",
  "truncation": null,
  "padding": null,
  "added_tokens": [
    {
      "id": 0,
      "content": "[UNK]",
      "single_word": false,
      "lstrip": false,
      "rstrip": false,
      "normalized": false,
      "special": true
    },
    {
      "id": 1,
      "content": "[CLS]",
      "single_word": false,
      "lstrip": false,
      "rstrip": false,
      "normalized": false,
      "special": true
    },
    {
      "id": 2,
      "content": "[SEP]",
      "single_word": false,
      "lstrip": false,
      "rstrip": false,
      "normalized": false,
      "special": true
    },
    {
      "id": 3,
      "content": "[PAD]",
      "single_word": false,
      "lstrip": false,
      "rstrip": false,
      "normalized": false,
      "special": true
    },
    {
      "id": 4,
      "content": "[MASK]",
      "single_word": false,
      "lstrip": false,
      "rstrip": false,
      "normalized": false,
      "special": true
    },
    {
      "id": 5,
      "content": "[EOS]",
      "single_word": false,
      "lstrip": false,
      "rstrip": false,
      "normalized": false,
      "special": true
    }
  ],
  "normalizer": null,
  "pre_tokenizer": {
    "type": "Whitespace"
  },
  "post_processor": null,
  "decoder": null,
  "model": {
    "type": "BPE",
    "dropout": null,
    "unk_token": "[UNK]",
    "continuing_subword_prefix": null,
    "end_of_word_suffix": null,
    "fuse_unk": false,
    "byte_fallback": false,
    "ignore_merges": false,
    "vocab": {
      "[UNK]": 0,
      "[CLS]": 1,
      "[SEP]": 2,
      "[PAD]": 3,
      "[MASK]": 4,
      "[EOS]": 5,
      "!": 6,
      "\"": 7,
      "#": 8,
      "$": 9,
      "%": 10,
      "&": 11,
      "'": 12,
      "(": 13,
      ")": 14,
      "*": 15,
      "+": 16,
      ",": 17,
      "-": 18,
      ".": 19,
      "/": 20,
      "0": 21,
      "1": 22,
      "2": 23,
      "3": 24,
      "4": 25,
      "5": 26,
      "6": 27,
      "7": 28,
      "8": 29,
      "9": 30,
      ":": 31,
      ";": 32,
      "<": 33,
      "=": 34,
      ">": 35,
      "?": 36,
      "@": 37,
      "A": 38,
      "B": 39,
      "C": 40,
      "D": 41,
      "E": 42,
      "F": 43,
      "G": 44,
      "H": 45,
      "I": 46,
      "J": 47,
      "K": 48,
      "L": 49,
      "M": 50,
      "N": 51,
      "O": 52,
      "P": 53,
      "Q": 54,
      "R": 55,
      "S": 56,
      "T": 57,
      "U": 58,
      "V": 59,
      "W": 60,
      "X": 61,
      "Y": 62,
      "Z": 63,
      "[": 64,
      "\\": 65,
      "]": 66,
      "^": 67,
      "_": 68,
      "`": 69,
      "a": 70,
      "b": 71,
      "c": 72,
      "d": 73,
      "e": 74,
      "f": 75,
      "g": 76,
      "h": 77,
      "i": 78,
      "j": 79,
      "k": 80,
      "l": 81,
      "m": 82,
      "n": 83,
      "o": 84,
      "p": 85,
      "q": 86,
      "r": 87,
      "s": 88,
      "t": 89,
      "u": 90,
      "v": 91,
      "w": 92,
      "x": 93,
      "y": 94,
      "z": 95,
      "|": 96,
      "}": 97,
      "~": 98,
      "¡": 99,
      "¢": 100,
      "£": 101,
      "¤": 102,
      "¥": 103,
      "¦": 104,
      "§": 105,
      "¨": 106,
      "©": 107,
      "ª": 108,
      "«": 109,
      "¬": 110,
      "®": 111,
      "¯": 112,
      "°": 113,
      "±": 114,
      "²": 115,
      "³": 116,
      "´": 117,
      "µ": 118,
      "¶": 119,
      "·": 120,
      "¸": 121,
      "¹": 122,
      "º": 123,
      "»": 124,
      "¼": 125,
      "½": 126,
      "¾": 127,
      "¿": 128,
      "À": 129,
      "Á": 130,
      "Â": 131,
      "Ã": 132,
      "Ä": 133,
      "Å": 134,
      "Æ": 135,
      "Ç": 136,
      "È": 137,
      "É": 138,
      "Ê": 139,
      "Ë": 140,
      "Ì": 141,
      "Í": 142,
      "Î": 143,
      "Ï": 144,
      "Ð": 145,
      "Ñ": 146,
      "Ò": 147,
      "Ó": 148,
      "Ô": 149,
      "Õ": 150,
      "Ö": 151,
      "×": 152,
      "Ø": 153,
      "Ù": 154,
      "Ú": 155,
      "Û": 156,
      "Ü": 157,
      "Ý": 158,
      "Þ": 159,
      "ß": 160,
      "à": 161,
      "á": 162,
      "â": 163,
      "ã": 164,
      "ä": 165,
      "å": 166,
      "æ": 167,
      "ç": 168,
      "è": 169,
      "é": 170,
      "ê": 171,
      "ë": 172,
      "ì": 173,
      "í": 174,
      "î": 175,
      "ï": 176,
      "ð": 177,
      "ñ": 178,
      "ò": 179,
      "ó": 180,
      "ô": 181,
      "õ": 182,
      "ö": 183,
      "÷": 184,
      "ø": 185,
      "ù": 186,
      "ú": 187,
      "û": 188,
      "ü": 189,
      "ý": 190,
      "þ": 191,
      "ÿ": 192,
      "Ā": 193,
      "ā": 194,
      "Ă": 195,
      "ă": 196,
      "Ą": 197,
      "ą": 198,
      "Ć": 199,
      "ć": 200,
      "ĉ": 201,
      "ċ": 202,
      "Č": 203,
      "č": 204,
      "Ď": 205,
      "ď": 206,
      "Đ": 207,
      "đ": 208,
      "Ē": 209,
      "ē": 210,
      "ĕ": 211,
      "Ė": 212,
      "ė": 213,
      "Ę": 214,
      "ę": 215,
      "Ě": 216,
      "ě": 217,
      "ĝ": 218,
      "Ğ": 219,
      "ğ": 220,
      "Ġ": 221,
      "ġ": 222,
      "ĥ": 223,
      "Ħ": 224,
      "ħ": 225,
      "ĩ": 226,
      "Ī": 227,
      "ī": 228,
      "ĭ": 229,
      "į": 230,
      "İ": 231,
      "ı": 232,
      "ĵ": 233,
      "Ķ": 234,
      "ķ": 235,
      "Ĺ": 236,
      "ĺ": 237,
      "ļ": 238,
      "Ľ": 239,
      "ľ": 240,
      "ŀ": 241,
      "Ł": 242,
      "ł": 243,
      "Ń": 244,
      "ń": 245,
      "ņ": 246,
      "ň": 247,
      "ŉ": 248,
      "Ŋ": 249,
      "ŋ": 250,
      "Ō": 251,
      "ō": 252,
      "ŏ": 253,
      "Ő": 254,
      "ő": 255,
      "Œ": 256,
      "œ": 257,
      "Ŕ": 258,
      "ŕ": 259,
      "ŗ": 260,
      "Ř": 261,
      "ř": 262,
      "Ś": 263,
      "ś": 264,
      "ŝ": 265,
      "Ş": 266,
      "ş": 267,
      "Š": 268,
      "š": 269,
      "Ţ": 270,
      "ţ": 271,
      "Ť": 272,
      "ť": 273,
      "ũ": 274,
      "Ū": 275,
      "ū": 276,
      "Ŭ": 277,
      "ŭ": 278,
      "Ů": 279,
      "ů": 280,
      "ű": 281,
      "ų": 282,
      "ŵ": 283,
      "ŷ": 284,
      "Ÿ": 285,
      "Ź": 286,
      "ź": 287,
      "Ż": 288,
      "ż": 289,
      "Ž": 290,
      "ž": 291,
      "ſ": 292,
      "ƈ": 293,
      "Ɖ": 294,
      "Ǝ": 295,
      "ƒ": 296,
      "ƕ": 297,
      "ƛ": 298,
      "ơ": 299,
      "Ƥ": 300,
      "ƥ": 301,
      "Ư": 302,
      "ư": 303,
      "ƴ": 304,
      "ǀ": 305,
      "ǁ": 306,
      "ǂ": 307,
      "ǃ": 308,
      "ǎ": 309,
      "ǐ": 310,
      "ǒ": 311,
      "ǔ": 312,
      "ǖ": 313,
      "ǜ": 314,
      "ǝ": 315,
      "ǣ": 316,
      "Ǧ": 317,
      "ǧ": 318,
      "ǫ": 319,
      "ǰ": 320,
      "ǵ": 321,
      "ǽ": 322,
      "ǿ": 323,
      "ȇ": 324,
      "ȋ": 325,
      "Ș": 326,
      "ș": 327,
      "ț": 328,
      "Ȝ": 329,
      "ȝ": 330,
      "ȟ": 331,
      "Ȣ": 332,
      "ȧ": 333,
      "ȯ": 334,
      "ȳ": 335,
      "ȶ": 336,
      "ɐ": 337,
      "ɑ": 338,
      "ɒ": 339,
      "ɔ": 340,
      "ɕ": 341,
      "ɖ": 342,
      "ə": 343,
      "ɚ": 344,
      "ɛ": 345,
      "ɜ": 346,
      "ɝ": 347,
      "ɟ": 348,
      "ɡ": 349,
      "ɢ": 350,
      "ɣ": 351,
      "ɤ": 352,
      "ɦ": 353,
      "ɨ": 354,
      "ɩ": 355,
      "ɪ": 356,
      "ɫ": 357,
      "ɬ": 358,
      "ɭ": 359,
      "ɮ": 360,
      "ɯ": 361,
      "ɰ": 362,
      "ɱ": 363,
      "ɲ": 364,
      "ɳ": 365,
      "ɴ": 366,
      "ɶ": 367,
      "ɸ": 368,
      "ɹ": 369,
      "ɻ": 370,
      "ɽ": 371,
      "ɾ": 372,
      "ʀ": 373,
      "ʁ": 374,
      "ʂ": 375,
      "ʃ": 376,
      "ʆ": 377,
      "ʉ": 378,
      "ʊ": 379,
      "ʋ": 380,
      "ʌ": 381,
      "ʏ": 382,
      "ʐ": 383,
      "ʒ": 384,
      "ʔ": 385,
      "ʕ": 386,
      "ʙ": 387,
      "ʜ": 388,
      "ʝ": 389,
      "ʟ": 390,
      "ʢ": 391,
      "ʤ": 392,
      "ʧ": 393,
      "ʰ": 394,
      "ʲ": 395,
      "ʷ": 396,
      "ʹ": 397,
      "ʺ": 398,
      "ʻ": 399,
      "ʼ": 400,
      "ʽ": 401,
      "ʾ": 402,
      "ʿ": 403,
      "ˀ": 404,
      "˂": 405,
      "ˆ": 406,
      "ˇ": 407,
      "ˈ": 408,
      "ˉ": 409,
      "ˊ": 410,
      "ˌ": 411,
      "ː": 412,
      "ˑ": 413,
      "˒": 414,
      "˓": 415,
      "˗": 416,
      "˘": 417,
      "˙": 418,
      "˚": 419,
      "˛": 420,
      "˜": 421,
      "˝": 422,
      "ˠ": 423,
      "ˡ": 424,
      "ˤ": 425,
      "̀": 426,
      "́": 427,
      "̂": 428,
      "̃": 429,
      "̄": 430,
      "̅": 431,
      "̆": 432,
      "̇": 433,
      "̈": 434,
      "̊": 435,
      "̌": 436,
      "̑": 437,
      "̓": 438,
      "̕": 439,
      "̙": 440,
      "̚": 441,
      "̜": 442,
      "̝": 443,
      "̞": 444,
      "̟": 445,
      "̠": 446,
      "̣": 447,
      "̥": 448,
      "̧": 449,
      "̩": 450,
      "̪": 451,
      "̯": 452,
      "̰": 453,
      "̱": 454,
      "̳": 455,
      "̴": 456,
      "̶": 457,
      "̹": 458,
      "͕": 459,
      "͞": 460,
      "͡": 461,
      "ͦ": 462,
      "͵": 463,
      "ͻ": 464,
      "΄": 465,
      "Ά": 466,
      "Έ": 467,
      "Ή": 468,
      "Ό": 469,
      "ΐ": 470,
      "Α": 471,
      "Β": 472,
      "Γ": 473,
      "Δ": 474,
      "Ε": 475,
      "Ζ": 476,
      "Η": 477,
      "Θ": 478,
      "Ι": 479,
      "Κ": 480,
      "Λ": 481,
      "Μ": 482,
      "Ν": 483,
      "Ξ": 484,
      "Ο": 485,
      "Π": 486,
      "Ρ": 487,
      "Σ": 488,
      "Τ": 489,
      "Υ": 490,
      "Φ": 491,
      "Χ": 492,
      "Ψ": 493,
      "Ω": 494,
      "Ϊ": 495,
      "ά": 496,
      "έ": 497,
      "ή": 498,
      "ί": 499,
      "α": 500,
      "β": 501,
      "γ": 502,
      "δ": 503,
      "ε": 504,
      "ζ": 505,
      "η": 506,
      "θ": 507,
      "ι": 508,
      "κ": 509,
      "λ": 510,
      "μ": 511,
      "ν": 512,
      "ξ": 513,
      "ο": 514,
      "π": 515,
      "ρ": 516,
      "ς": 517,
      "σ": 518,
      "τ": 519,
      "υ": 520,
      "φ": 521,
      "χ": 522,
      "ψ": 523,
      "ω": 524,
      "ϊ": 525,
      "ϋ": 526,
      "ό": 527,
      "ύ": 528,
      "ώ": 529,
      "ϑ": 530,
      "ϕ": 531,
      "Ϛ": 532,
      "Ϝ": 533,
      "ϝ": 534,
      "ϟ": 535,
      "ϡ": 536,
      "ϰ": 537,
      "ϱ": 538,
      "Ђ": 539,
      "І": 540,
      "А": 541,
      "Б": 542,
      "В": 543,
      "Г": 544,
      "Д": 545,
      "Е": 546,
      "Ж": 547,
      "З": 548,
      "И": 549,
      "Й": 550,
      "К": 551,
      "Л": 552,
      "М": 553,
      "Н": 554,
      "О": 555,
      "П": 556,
      "Р": 557,
      "С": 558,
      "Т": 559,
      "У": 560,
      "Ф": 561,
      "Х": 562,
      "Ц": 563,
      "Ч": 564,
      "Ш": 565,
      "Ъ": 566,
      "Ы": 567,
      "Ь": 568,
      "Э": 569,
      "Ю": 570,
      "Я": 571,
      "а": 572,
      "б": 573,
      "в": 574,
      "г": 575,
      "д": 576,
      "е": 577,
      "ж": 578,
      "з": 579,
      "и": 580,
      "й": 581,
      "к": 582,
      "л": 583,
      "м": 584,
      "н": 585,
      "о": 586,
      "п": 587,
      "р": 588,
      "с": 589,
      "т": 590,
      "у": 591,
      "ф": 592,
      "х": 593,
      "ц": 594,
      "ч": 595,
      "ш": 596,
      "щ": 597,
      "ъ": 598,
      "ы": 599,
      "ь": 600,
      "э": 601,
      "ю": 602,
      "я": 603,
      "ѐ": 604,
      "ё": 605,
      "є": 606,
      "ѕ": 607,
      "і": 608,
      "ї": 609,
      "ј": 610,
      "њ": 611,
      "ћ": 612,
      "ќ": 613,
      "ў": 614,
      "ѣ": 615,
      "ѧ": 616,
      "ѳ": 617,
      "ѵ": 618,
      "Ѻ": 619,
      "ґ": 620,
      "Ғ": 621,
      "ғ": 622,
      "Қ": 623,
      "қ": 624,
      "Ң": 625,
      "ң": 626,
      "Ү": 627,
      "ү": 628,
      "ұ": 629,
      "һ": 630,
      "Ӓ": 631,
      "ӓ": 632,
      "Ӕ": 633,
      "ӕ": 634,
      "ә": 635,
      "ӧ": 636,
      "Ө": 637,
      "ө": 638,
      "Բ": 639,
      "Գ": 640,
      "Հ": 641,
      "Ն": 642,
      "Պ": 643,
      "Ջ": 644,
      "ա": 645,
      "բ": 646,
      "գ": 647,
      "դ": 648,
      "ե": 649,
      "է": 650,
      "թ": 651,
      "ի": 652,
      "լ": 653,
      "ծ": 654,
      "կ": 655,
      "հ": 656,
      "ղ": 657,
      "մ": 658,
      "յ": 659,
      "ն": 660,
      "շ": 661,
      "ո": 662,
      "պ": 663,
      "ջ": 664,
      "ս": 665,
      "տ": 666,
      "ր": 667,
      "ց": 668,
      "ւ": 669,
      "ք": 670,
      "֑": 671,
      "֖": 672,
      "֗": 673,
      "֞": 674,
      "֥": 675,
      "ְ": 676,
      "ֱ": 677,
      "ֲ": 678,
      "ֳ": 679,
      "ִ": 680,
      "ֵ": 681,
      "ֶ": 682,
      "ַ": 683,
      "ָ": 684,
      "ֹ": 685,
      "ֻ": 686,
      "ּ": 687,
      "ֽ": 688,
      "־": 689,
      "ׁ": 690,
      "ׂ": 691,
      "׃": 692,
      "ׇ": 693,
      "א": 694,
      "ב": 695,
      "ג": 696,
      "ד": 697,
      "ה": 698,
      "ו": 699,
      "ז": 700,
      "ח": 701,
      "ט": 702,
      "י": 703,
      "ך": 704,
      "כ": 705,
      "ל": 706,
      "ם": 707,
      "מ": 708,
      "ן": 709,
      "נ": 710,
      "ס": 711,
      "ע": 712,
      "ף": 713,
      "פ": 714,
      "ץ": 715,
      "צ": 716,
      "ק": 717,
      "ר": 718,
      "ש": 719,
      "ת": 720,
      "،": 721,
      "؏": 722,
      "؛": 723,
      "؟": 724,
      "ء": 725,
      "آ": 726,
      "أ": 727,
      "ؤ": 728,
      "إ": 729,
      "ئ": 730,
      "ا": 731,
      "ب": 732,
      "ة": 733,
      "ت": 734,
      "ث": 735,
      "ج": 736,
      "ح": 737,
      "خ": 738,
      "د": 739,
      "ذ": 740,
      "ر": 741,
      "ز": 742,
      "س": 743,
      "ش": 744,
      "ص": 745,
      "ض": 746,
      "ط": 747,
      "ظ": 748,
      "ع": 749,
      "غ": 750,
      "ـ": 751,
      "ف": 752,
      "ق": 753,
      "ك": 754,
      "ل": 755,
      "م": 756,
      "ن": 757,
      "ه": 758,
      "و": 759,
      "ى": 760,
      "ي": 761,
      "ً": 762,
      "ٌ": 763,
      "ٍ": 764,
      "َ": 765,
      "ُ": 766,
      "ِ": 767,
      "ّ": 768,
      "ْ": 769,
      "ٔ": 770,
      "٠": 771,
      "١": 772,
      "٢": 773,
      "٣": 774,
      "٤": 775,
      "٥": 776,
      "٦": 777,
      "٧": 778,
      "٨": 779,
      "٩": 780,
      "ٰ": 781,
      "ٱ": 782,
      "ٹ": 783,
      "ټ": 784,
      "پ": 785,
      "چ": 786,
      "ډ": 787,
      "ڌ": 788,
      "ړ": 789,
      "ژ": 790,
      "ڨ": 791,
      "ک": 792,
      "گ": 793,
      "ں": 794,
      "ھ": 795,
      "ۀ": 796,
      "ہ": 797,
      "ۇ": 798,
      "ی": 799,
      "ۍ": 800,
      "ێ": 801,
      "ې": 802,
      "ے": 803,
      "ۓ": 804,
      "۔": 805,
      "ە": 806,
      "ۖ": 807,
      "ۗ": 808,
      "۞": 809,
      "۟": 810,
      "ۦ": 811,
      "۴": 812,
      "۸": 813,
      "ܐ": 814,
      "ܘ": 815,
      "ܝ": 816,
      "ܢ": 817,
      "ݣ": 818,
      "ބ": 819,
      "އ": 820,
      "ވ": 821,
      "ލ": 822,
      "ގ": 823,
      "ޑ": 824,
      "ަ": 825,
      "ި": 826,
      "ު": 827,
      "ޮ": 828,
      "ߘ": 829,
      "ࢹ": 830,
      "ँ": 831,
      "ं": 832,
      "ः": 833,
      "अ": 834,
      "आ": 835,
      "इ": 836,
      "ई": 837,
      "उ": 838,
      "ऊ": 839,
      "ऋ": 840,
      "ए": 841,
      "ऐ": 842,
      "ऑ": 843,
      "ओ": 844,
      "औ": 845,
      "क": 846,
      "ख": 847,
      "ग": 848,
      "घ": 849,
      "ङ": 850,
      "च": 851,
      "छ": 852,
      "ज": 853,
      "झ": 854,
      "ञ": 855,
      "ट": 856,
      "ठ": 857,
      "ड": 858,
      "ढ": 859,
      "ण": 860,
      "त": 861,
      "थ": 862,
      "द": 863,
      "ध": 864,
      "न": 865,
      "प": 866,
      "फ": 867,
      "ब": 868,
      "भ": 869,
      "म": 870,
      "य": 871,
      "र": 872,
      "ल": 873,
      "ळ": 874,
      "व": 875,
      "श": 876,
      "ष": 877,
      "स": 878,
      "ह": 879,
      "़": 880,
      "ऽ": 881,
      "ा": 882,
      "ि": 883,
      "ी": 884,
      "ु": 885,
      "ू": 886,
      "ृ": 887,
      "े": 888,
      "ै": 889,
      "ॉ": 890,
      "ॊ": 891,
      "ो": 892,
      "ौ": 893,
      "्": 894,
      "ॐ": 895,
      "॑": 896,
      "॒": 897,
      "।": 898,
      "॥": 899,
      "०": 900,
      "१": 901,
      "२": 902,
      "४": 903,
      "५": 904,
      "९": 905,
      "ঁ": 906,
      "ং": 907,
      "ঃ": 908,
      "অ": 909,
      "আ": 910,
      "ই": 911,
      "ঋ": 912,
      "এ": 913,
      "ও": 914,
      "ক": 915,
      "খ": 916,
      "গ": 917,
      "ঘ": 918,
      "ঙ": 919,
      "চ": 920,
      "ছ": 921,
      "জ": 922,
      "ঞ": 923,
      "ট": 924,
      "ঠ": 925,
      "ড": 926,
      "ণ": 927,
      "ত": 928,
      "থ": 929,
      "দ": 930,
      "ধ": 931,
      "ন": 932,
      "প": 933,
      "ফ": 934,
      "ব": 935,
      "ভ": 936,
      "ম": 937,
      "য": 938,
      "র": 939,
      "ল": 940,
      "শ": 941,
      "ষ": 942,
      "স": 943,
      "হ": 944,
      "়": 945,
      "া": 946,
      "ি": 947,
      "ী": 948,
      "ু": 949,
      "ূ": 950,
      "ৃ": 951,
      "ে": 952,
      "ৈ": 953,
      "ো": 954,
      "্": 955,
      "ৎ": 956,
      "০": 957,
      "১": 958,
      "২": 959,
      "৪": 960,
      "৭": 961,
      "ৰ": 962,
      "ਂ": 963,
      "ਃ": 964,
      "ਅ": 965,
      "ਆ": 966,
      "ਇ": 967,
      "ਈ": 968,
      "ਉ": 969,
      "ਊ": 970,
      "ਏ": 971,
      "ਐ": 972,
      "ਓ": 973,
      "ਔ": 974,
      "ਕ": 975,
      "ਖ": 976,
      "ਗ": 977,
      "ਙ": 978,
      "ਚ": 979,
      "ਛ": 980,
      "ਜ": 981,
      "ਞ": 982,
      "ਟ": 983,
      "ਤ": 984,
      "ਦ": 985,
      "ਧ": 986,
      "ਨ": 987,
      "ਪ": 988,
      "ਫ": 989,
      "ਬ": 990,
      "ਭ": 991,
      "ਮ": 992,
      "ਰ": 993,
      "ਲ": 994,
      "ਵ": 995,
      "ਸ": 996,
      "ਹ": 997,
      "਼": 998,
      "ਾ": 999,
      "ਿ": 1000,
      "ੀ": 1001,
      "ੁ": 1002,
      "ੂ": 1003,
      "ੇ": 1004,
      "ੈ": 1005,
      "ੋ": 1006,
      "ੌ": 1007,
      "੍": 1008,
      "ੑ": 1009,
      "ੜ": 1010,
      "ੰ": 1011,
      "ੱ": 1012,
      "ੲ": 1013,
      "ੳ": 1014,
      "ੴ": 1015,
      "ં": 1016,
      "અ": 1017,
      "ક": 1018,
      "ગ": 1019,
      "જ": 1020,
      "ઞ": 1021,
      "ઠ": 1022,
      "ડ": 1023,
      "ઢ": 1024,
      "ત": 1025,
      "થ": 1026,
      "દ": 1027,
      "ધ": 1028,
      "ન": 1029,
      "પ": 1030,
      "ફ": 1031,
      "ભ": 1032,
      "મ": 1033,
      "ય": 1034,
      "ર": 1035,
      "લ": 1036,
      "વ": 1037,
      "શ": 1038,
      "ષ": 1039,
      "સ": 1040,
      "હ": 1041,
      "઼": 1042,
      "ા": 1043,
      "િ": 1044,
      "ી": 1045,
      "ુ": 1046,
      "ૂ": 1047,
      "ૃ": 1048,
      "ે": 1049,
      "ૈ": 1050,
      "ો": 1051,
      "્": 1052,
      "ଗ": 1053,
      "ଚ": 1054,
      "ଜ": 1055,
      "ଣ": 1056,
      "ତ": 1057,
      "ଦ": 1058,
      "ପ": 1059,
      "ବ": 1060,
      "ମ": 1061,
      "ର": 1062,
      "ା": 1063,
      "ି": 1064,
      "ୁ": 1065,
      "ୂ": 1066,
      "୍": 1067,
      "ୟ": 1068,
      "அ": 1069,
      "ஆ": 1070,
      "இ": 1071,
      "உ": 1072,
      "எ": 1073,
      "ஒ": 1074,
      "க": 1075,
      "ங": 1076,
      "ச": 1077,
      "ஜ": 1078,
      "ட": 1079,
      "ண": 1080,
      "த": 1081,
      "ந": 1082,
      "ன": 1083,
      "ப": 1084,
      "ம": 1085,
      "ய": 1086,
      "ர": 1087,
      "ற": 1088,
      "ல": 1089,
      "ள": 1090,
      "ழ": 1091,
      "வ": 1092,
      "ஷ": 1093,
      "ஹ": 1094,
      "ா": 1095,
      "ி": 1096,
      "ீ": 1097,
      "ு": 1098,
      "ூ": 1099,
      "ெ": 1100,
      "ே": 1101,
      "ை": 1102,
      "ோ": 1103,
      "்": 1104,
      "ం": 1105,
      "అ": 1106,
      "ఆ": 1107,
      "క": 1108,
      "గ": 1109,
      "డ": 1110,
      "ణ": 1111,
      "త": 1112,
      "ద": 1113,
      "న": 1114,
      "ప": 1115,
      "బ": 1116,
      "భ": 1117,
      "మ": 1118,
      "య": 1119,
      "ర": 1120,
      "ల": 1121,
      "వ": 1122,
      "శ": 1123,
      "ష": 1124,
      "స": 1125,
      "హ": 1126,
      "ా": 1127,
      "ి": 1128,
      "ీ": 1129,
      "ు": 1130,
      "ూ": 1131,
      "ె": 1132,
      "ే": 1133,
      "ై": 1134,
      "ో": 1135,
      "్": 1136,
      "ಂ": 1137,
      "ಅ": 1138,
      "ಕ": 1139,
      "ಗ": 1140,
      "ಚ": 1141,
      "ಜ": 1142,
      "ಟ": 1143,
      "ಡ": 1144,
      "ತ": 1145,
      "ಥ": 1146,
      "ದ": 1147,
      "ಧ": 1148,
      "ನ": 1149,
      "ಪ": 1150,
      "ಬ": 1151,
      "ಭ": 1152,
      "ಮ": 1153,
      "ಯ": 1154,
      "ರ": 1155,
      "ಲ": 1156,
      "ಳ": 1157,
      "ವ": 1158,
      "ಶ": 1159,
      "ಷ": 1160,
      "ಸ": 1161,
      "ಹ": 1162,
      "ಾ": 1163,
      "ಿ": 1164,
      "ೀ": 1165,
      "ು": 1166,
      "ೂ": 1167,
      "ೆ": 1168,
      "ೇ": 1169,
      "ೈ": 1170,
      "್": 1171,
      "ക": 1172,
      "ഗ": 1173,
      "ണ": 1174,
      "ത": 1175,
      "ന": 1176,
      "പ": 1177,
      "ഭ": 1178,
      "മ": 1179,
      "യ": 1180,
      "ര": 1181,
      "ള": 1182,
      "ഷ": 1183,
      "സ": 1184,
      "ാ": 1185,
      "ി": 1186,
      "ു": 1187,
      "ൂ": 1188,
      "േ": 1189,
      "്": 1190,
      "ං": 1191,
      "ඉ": 1192,
      "ග": 1193,
      "ජ": 1194,
      "ත": 1195,
      "ද": 1196,
      "ප": 1197,
      "ල": 1198,
      "හ": 1199,
      "ළ": 1200,
      "ා": 1201,
      "ි": 1202,
      "ก": 1203,
      "ข": 1204,
      "ค": 1205,
      "ง": 1206,
      "จ": 1207,
      "ช": 1208,
      "ซ": 1209,
      "ญ": 1210,
      "ฎ": 1211,
      "ฏ": 1212,
      "ฐ": 1213,
      "ณ": 1214,
      "ด": 1215,
      "ต": 1216,
      "ถ": 1217,
      "ท": 1218,
      "ธ": 1219,
      "น": 1220,
      "บ": 1221,
      "ป": 1222,
      "ผ": 1223,
      "ฝ": 1224,
      "พ": 1225,
      "ฟ": 1226,
      "ภ": 1227,
      "ม": 1228,
      "ย": 1229,
      "ร": 1230,
      "ล": 1231,
      "ว": 1232,
      "ศ": 1233,
      "ษ": 1234,
      "ส": 1235,
      "ห": 1236,
      "อ": 1237,
      "ฯ": 1238,
      "ะ": 1239,
      "ั": 1240,
      "า": 1241,
      "ำ": 1242,
      "ิ": 1243,
      "ี": 1244,
      "ึ": 1245,
      "ื": 1246,
      "ุ": 1247,
      "ู": 1248,
      "เ": 1249,
      "แ": 1250,
      "โ": 1251,
      "ใ": 1252,
      "ไ": 1253,
      "็": 1254,
      "่": 1255,
      "้": 1256,
      "์": 1257,
      "ກ": 1258,
      "ຄ": 1259,
      "ງ": 1260,
      "ຊ": 1261,
      "ດ": 1262,
      "ຕ": 1263,
      "ຖ": 1264,
      "ທ": 1265,
      "ນ": 1266,
      "ບ": 1267,
      "ປ": 1268,
      "ພ": 1269,
      "ມ": 1270,
      "ລ": 1271,
      "ວ": 1272,
      "ສ": 1273,
      "ຫ": 1274,
      "ອ": 1275,
      "ະ": 1276,
      "ັ": 1277,
      "າ": 1278,
      "ຳ": 1279,
      "ິ": 1280,
      "ຼ": 1281,
      "ຽ": 1282,
      "ເ": 1283,
      "ໄ": 1284,
      "່": 1285,
      "་": 1286,
      "།": 1287,
      "ཀ": 1288,
      "ཁ": 1289,
      "ག": 1290,
      "ང": 1291,
      "ཆ": 1292,
      "ཇ": 1293,
      "ཉ": 1294,
      "ཏ": 1295,
      "ཐ": 1296,
      "ད": 1297,
      "ན": 1298,
      "པ": 1299,
      "བ": 1300,
      "མ": 1301,
      "ཙ": 1302,
      "ཚ": 1303,
      "ཛ": 1304,
      "ཞ": 1305,
      "འ": 1306,
      "ཡ": 1307,
      "ར": 1308,
      "ལ": 1309,
      "ཤ": 1310,
      "ས": 1311,
      "ི": 1312,
      "ུ": 1313,
      "ེ": 1314,
      "ོ": 1315,
      "ྒ": 1316,
      "ྟ": 1317,
      "ྤ": 1318,
      "ྱ": 1319,
      "ྷ": 1320,
      "ྼ": 1321,
      "က": 1322,
      "ခ": 1323,
      "ဂ": 1324,
      "င": 1325,
      "စ": 1326,
      "ဆ": 1327,
      "တ": 1328,
      "န": 1329,
      "ပ": 1330,
      "ဖ": 1331,
      "မ": 1332,
      "ယ": 1333,
      "ရ": 1334,
      "သ": 1335,
      "ဦ": 1336,
      "ာ": 1337,
      "ိ": 1338,
      "ု": 1339,
      "ူ": 1340,
      "ေ": 1341,
      "ဲ": 1342,
      "ံ": 1343,
      "့": 1344,
      "း": 1345,
      "်": 1346,
      "ြ": 1347,
      "ွ": 1348,
      "ှ": 1349,
      "ა": 1350,
      "ბ": 1351,
      "გ": 1352,
      "დ": 1353,
      "ე": 1354,
      "ვ": 1355,
      "ზ": 1356,
      "თ": 1357,
      "ი": 1358,
      "კ": 1359,
      "ლ": 1360,
      "მ": 1361,
      "ნ": 1362,
      "ო": 1363,
      "პ": 1364,
      "ჟ": 1365,
      "რ": 1366,
      "ს": 1367,
      "ტ": 1368,
      "უ": 1369,
      "ფ": 1370,
      "ქ": 1371,
      "ღ": 1372,
      "ყ": 1373,
      "შ": 1374,
      "ჩ": 1375,
      "ც": 1376,
      "ძ": 1377,
      "წ": 1378,
      "ჭ": 1379,
      "ხ": 1380,
      "ჯ": 1381,
      "ჰ": 1382,
      "ჵ": 1383,
      "ჺ": 1384,
      "ᅟ": 1385,
      "ህ": 1386,
      "ለ": 1387,
      "ሊ": 1388,
      "ላ": 1389,
      "ሚ": 1390,
      "ማ": 1391,
      "ረ": 1392,
      "ር": 1393,
      "ስ": 1394,
      "ቅ": 1395,
      "ቤ": 1396,
      "ብ": 1397,
      "ተ": 1398,
      "ት": 1399,
      "ቶ": 1400,
      "ች": 1401,
      "ኅ": 1402,
      "ና": 1403,
      "ን": 1404,
      "አ": 1405,
      "እ": 1406,
      "ካ": 1407,
      "ክ": 1408,
      "ወ": 1409,
      "ው": 1410,
      "ዝ": 1411,
      "የ": 1412,
      "ይ": 1413,
      "ደ": 1414,
      "ዱ": 1415,
      "ዲ": 1416,
      "ድ": 1417,
      "ጊ": 1418,
      "ግ": 1419,
      "ጨ": 1420,
      "ፃ": 1421,
      "ፈ": 1422,
      "Ꭲ": 1423,
      "Ꭴ": 1424,
      "Ꭺ": 1425,
      "Ꭿ": 1426,
      "Ꮃ": 1427,
      "Ꮑ": 1428,
      "Ꮕ": 1429,
      "Ꮪ": 1430,
      "Ᏻ": 1431,
      "ᐃ": 1432,
      "ᐅ": 1433,
      "ᐊ": 1434,
      "ᐲ": 1435,
      "ᐸ": 1436,
      "ᑎ": 1437,
      "ᑐ": 1438,
      "ᑕ": 1439,
      "ᑦ": 1440,
      "ᑯ": 1441,
      "ᑲ": 1442,
      "ᒃ": 1443,
      "ᒍ": 1444,
      "ᒥ": 1445,
      "ᒧ": 1446,
      "ᓂ": 1447,
      "ᓇ": 1448,
      "ᓐ": 1449,
      "ᓕ": 1450,
      "ᓗ": 1451,
      "ᓪ": 1452,
      "ᓯ": 1453,
      "ᓱ": 1454,
      "ᓴ": 1455,
      "ᔪ": 1456,
      "ᔭ": 1457,
      "ᕆ": 1458,
      "ᕈ": 1459,
      "ᕋ": 1460,
      "ᕐ": 1461,
      "ᖃ": 1462,
      "ᚠ": 1463,
      "ᚢ": 1464,
      "ᚦ": 1465,
      "ᚱ": 1466,
      "ᚴ": 1467,
      "ᚾ": 1468,
      "ᛁ": 1469,
      "ᛅ": 1470,
      "ᛋ": 1471,
      "ᛏ": 1472,
      "ᛒ": 1473,
      "ᛘ": 1474,
      "ᛚ": 1475,
      "ក": 1476,
      "ខ": 1477,
      "គ": 1478,
      "ង": 1479,
      "ច": 1480,
      "ជ": 1481,
      "ញ": 1482,
      "ដ": 1483,
      "ឌ": 1484,
      "ណ": 1485,
      "ត": 1486,
      "ថ": 1487,
      "ទ": 1488,
      "ធ": 1489,
      "ន": 1490,
      "ប": 1491,
      "ផ": 1492,
      "ព": 1493,
      "ភ": 1494,
      "ម": 1495,
      "យ": 1496,
      "រ": 1497,
      "ល": 1498,
      "វ": 1499,
      "ស": 1500,
      "ហ": 1501,
      "ឡ": 1502,
      "អ": 1503,
      "ឬ": 1504,
      "ឯ": 1505,
      "ា": 1506,
      "ិ": 1507,
      "ី": 1508,
      "ឹ": 1509,
      "ឺ": 1510,
      "ុ": 1511,
      "ូ": 1512,
      "ួ": 1513,
      "ើ": 1514,
      "ៀ": 1515,
      "េ": 1516,
      "ែ": 1517,
      "ៃ": 1518,
      "ោ": 1519,
      "ៅ": 1520,
      "ំ": 1521,
      "ះ": 1522,
      "ៈ": 1523,
      "់": 1524,
      "៍": 1525,
      "័": 1526,
      "្": 1527,
      "។": 1528,
      "ᠠ": 1529,
      "ᠨ": 1530,
      "ᠪ": 1531,
      "ᠮ": 1532,
      "ᠯ": 1533,
      "ᡝ": 1534,
      "ᡠ": 1535,
      "ᡤ": 1536,
      "ᡥ": 1537,
      "ᡨ": 1538,
      "ᡩ": 1539,
      "ᡳ": 1540,
      "ᡵ": 1541,
      "ᴀ": 1542,
      "ᴄ": 1543,
      "ᴅ": 1544,
      "ᴇ": 1545,
      "ᴊ": 1546,
      "ᴋ": 1547,
      "ᴍ": 1548,
      "ᴏ": 1549,
      "ᴘ": 1550,
      "ᴛ": 1551,
      "ᴜ": 1552,
      "ᴠ": 1553,
      "ᴡ": 1554,
      "ᴱ": 1555,
      "ᴹ": 1556,
      "ᴾ": 1557,
      "ᵐ": 1558,
      "ᵖ": 1559,
      "ᵗ": 1560,
      "ᵛ": 1561,
      "ᵱ": 1562,
      "ᵽ": 1563,
      "ᶈ": 1564,
      "ḇ": 1565,
      "Ḍ": 1566,
      "ḍ": 1567,
      "Ḏ": 1568,
      "ḏ": 1569,
      "ḗ": 1570,
      "Ḡ": 1571,
      "ḡ": 1572,
      "Ḥ": 1573,
      "ḥ": 1574,
      "ḩ": 1575,
      "Ḫ": 1576,
      "ḫ": 1577,
      "ḭ": 1578,
      "ḱ": 1579,
      "Ḳ": 1580,
      "ḳ": 1581,
      "Ḵ": 1582,
      "ḵ": 1583,
      "ḷ": 1584,
      "ṁ": 1585,
      "Ṃ": 1586,
      "ṃ": 1587,
      "Ṅ": 1588,
      "ṅ": 1589,
      "Ṇ": 1590,
      "ṇ": 1591,
      "ṉ": 1592,
      "ṓ": 1593,
      "Ṕ": 1594,
      "ṕ": 1595,
      "Ṗ": 1596,
      "ṗ": 1597,
      "Ṛ": 1598,
      "ṛ": 1599,
      "ṝ": 1600,
      "ṡ": 1601,
      "Ṣ": 1602,
      "ṣ": 1603,
      "Ṭ": 1604,
      "ṭ": 1605,
      "Ṯ": 1606,
      "ṯ": 1607,
      "ṽ": 1608,
      "ṿ": 1609,
      "ẍ": 1610,
      "ẏ": 1611,
      "Ẓ": 1612,
      "ẓ": 1613,
      "ẗ": 1614,
      "ạ": 1615,
      "ả": 1616,
      "Ấ": 1617,
      "ấ": 1618,
      "ầ": 1619,
      "ẩ": 1620,
      "ẫ": 1621,
      "ậ": 1622,
      "ắ": 1623,
      "ằ": 1624,
      "ặ": 1625,
      "ẹ": 1626,
      "ẻ": 1627,
      "ẽ": 1628,
      "Ế": 1629,
      "ế": 1630,
      "Ề": 1631,
      "ề": 1632,
      "ể": 1633,
      "ễ": 1634,
      "ệ": 1635,
      "ỉ": 1636,
      "ị": 1637,
      "Ọ": 1638,
      "ọ": 1639,
      "ỏ": 1640,
      "ố": 1641,
      "ồ": 1642,
      "ổ": 1643,
      "ỗ": 1644,
      "ộ": 1645,
      "ớ": 1646,
      "ờ": 1647,
      "ở": 1648,
      "ợ": 1649,
      "ụ": 1650,
      "ủ": 1651,
      "ứ": 1652,
      "ừ": 1653,
      "ử": 1654,
      "ữ": 1655,
      "ự": 1656,
      "ỳ": 1657,
      "ỷ": 1658,
      "Ỹ": 1659,
      "ỹ": 1660,
      "ἀ": 1661,
      "ἁ": 1662,
      "ἂ": 1663,
      "ἄ": 1664,
      "ἅ": 1665,
      "Ἀ": 1666,
      "Ἁ": 1667,
      "Ἄ": 1668,
      "Ἅ": 1669,
      "ἐ": 1670,
      "ἑ": 1671,
      "ἔ": 1672,
      "ἕ": 1673,
      "Ἐ": 1674,
      "Ἑ": 1675,
      "Ἕ": 1676,
      "ἠ": 1677,
      "ἡ": 1678,
      "ἢ": 1679,
      "ἣ": 1680,
      "ἤ": 1681,
      "ἥ": 1682,
      "ἦ": 1683,
      "ἧ": 1684,
      "Ἠ": 1685,
      "Ἡ": 1686,
      "Ἥ": 1687,
      "ἰ": 1688,
      "ἱ": 1689,
      "ἴ": 1690,
      "ἵ": 1691,
      "ἶ": 1692,
      "ἷ": 1693,
      "Ἰ": 1694,
      "Ἱ": 1695,
      "Ἴ": 1696,
      "ὀ": 1697,
      "ὁ": 1698,
      "ὃ": 1699,
      "ὄ": 1700,
      "ὅ": 1701,
      "Ὀ": 1702,
      "Ὁ": 1703,
      "Ὃ": 1704,
      "Ὄ": 1705,
      "Ὅ": 1706,
      "ὐ": 1707,
      "ὑ": 1708,
      "ὓ": 1709,
      "ὔ": 1710,
      "ὕ": 1711,
      "ὖ": 1712,
      "ὗ": 1713,
      "Ὑ": 1714,
      "Ὓ": 1715,
      "ὡ": 1716,
      "ὣ": 1717,
      "ὤ": 1718,
      "ὥ": 1719,
      "ὦ": 1720,
      "Ὡ": 1721,
      "ὰ": 1722,
      "ὲ": 1723,
      "ὴ": 1724,
      "ὶ": 1725,
      "ὸ": 1726,
      "ὺ": 1727,
      "ὼ": 1728,
      "ᾖ": 1729,
      "ᾳ": 1730,
      "ᾴ": 1731,
      "ᾶ": 1732,
      "ᾷ": 1733,
      "᾽": 1734,
      "᾿": 1735,
      "ῃ": 1736,
      "ῄ": 1737,
      "ῆ": 1738,
      "ῇ": 1739,
      "῎": 1740,
      "ῖ": 1741,
      "ῥ": 1742,
      "ῦ": 1743,
      "Ῥ": 1744,
      "ῳ": 1745,
      "ῶ": 1746,
      "ῷ": 1747,
      "῾": 1748,
      "​": 1749,
      "‐": 1750,
      "‑": 1751,
      "‒": 1752,
      "–": 1753,
      "—": 1754,
      "―": 1755,
      "‖": 1756,
      "‗": 1757,
      "‘": 1758,
      "’": 1759,
      "‚": 1760,
      "‛": 1761,
      "“": 1762,
      "”": 1763,
      "„": 1764,
      "‟": 1765,
      "†": 1766,
      "‡": 1767,
      "•": 1768,
      "․": 1769,
      "…": 1770,
      "‧": 1771,
      "‰": 1772,
      "′": 1773,
      "″": 1774,
      "‴": 1775,
      "‵": 1776,
      "‶": 1777,
      "‷": 1778,
      "‹": 1779,
      "›": 1780,
      "※": 1781,
      "‼": 1782,
      "‽": 1783,
      "⁃": 1784,
      "⁄": 1785,
      "⁕": 1786,
      "⁗": 1787,
      "⁡": 1788,
      "⁢": 1789,
      "⁰": 1790,
      "⁴": 1791,
      "⁵": 1792,
      "⁶": 1793,
      "⁷": 1794,
      "⁸": 1795,
      "⁹": 1796,
      "⁺": 1797,
      "⁻": 1798,
      "₀": 1799,
      "₁": 1800,
      "₂": 1801,
      "₃": 1802,
      "₄": 1803,
      "₣": 1804,
      "₤": 1805,
      "₦": 1806,
      "€": 1807,
      "₱": 1808,
      "₵": 1809,
      "₹": 1810,
      "₿": 1811,
      "⃒": 1812,
      "⃣": 1813,
      "℃": 1814,
      "℉": 1815,
      "ℏ": 1816,
      "ℓ": 1817,
      "№": 1818,
      "℗": 1819,
      "℘": 1820,
      "ℛ": 1821,
      "ℝ": 1822,
      "℠": 1823,
      "™": 1824,
      "℥": 1825,
      "ℹ": 1826,
      "⅓": 1827,
      "⅔": 1828,
      "⅕": 1829,
      "⅙": 1830,
      "⅛": 1831,
      "⅜": 1832,
      "⅝": 1833,
      "Ⅰ": 1834,
      "Ⅱ": 1835,
      "Ⅲ": 1836,
      "Ⅳ": 1837,
      "Ⅴ": 1838,
      "Ⅵ": 1839,
      "Ⅶ": 1840,
      "Ⅷ": 1841,
      "ⅰ": 1842,
      "ⅱ": 1843,
      "ⅹ": 1844,
      "ⅼ": 1845,
      "←": 1846,
      "↑": 1847,
      "→": 1848,
      "↓": 1849,
      "↔": 1850,
      "↗": 1851,
      "↘": 1852,
      "↠": 1853,
      "↩": 1854,
      "↪": 1855,
      "↴": 1856,
      "↵": 1857,
      "⇄": 1858,
      "⇌": 1859,
      "⇐": 1860,
      "⇒": 1861,
      "⇓": 1862,
      "⇔": 1863,
      "⇝": 1864,
      "⇧": 1865,
      "∀": 1866,
      "∂": 1867,
      "∃": 1868,
      "∅": 1869,
      "∆": 1870,
      "∇": 1871,
      "∈": 1872,
      "∎": 1873,
      "∏": 1874,
      "∑": 1875,
      "−": 1876,
      "∗": 1877,
      "∘": 1878,
      "∙": 1879,
      "√": 1880,
      "∛": 1881,
      "∜": 1882,
      "∝": 1883,
      "∞": 1884,
      "∠": 1885,
      "∥": 1886,
      "∧": 1887,
      "∨": 1888,
      "∩": 1889,
      "∫": 1890,
      "∮": 1891,
      "∴": 1892,
      "∵": 1893,
      "∶": 1894,
      "∼": 1895,
      "≃": 1896,
      "≅": 1897,
      "≈": 1898,
      "≒": 1899,
      "≔": 1900,
      "≠": 1901,
      "≡": 1902,
      "≤": 1903,
      "≥": 1904,
      "≦": 1905,
      "≧": 1906,
      "≪": 1907,
      "≫": 1908,
      "≲": 1909,
      "≻": 1910,
      "⊃": 1911,
      "⊆": 1912,
      "⊕": 1913,
      "⊗": 1914,
      "⊙": 1915,
      "⊢": 1916,
      "⊥": 1917,
      "⋀": 1918,
      "⋅": 1919,
      "⋯": 1920,
      "⌃": 1921,
      "⌊": 1922,
      "⌋": 1923,
      "⌐": 1924,
      "⌘": 1925,
      "⌛": 1926,
      "⍺": 1927,
      "⎜": 1928,
      "⎯": 1929,
      "⏰": 1930,
      "①": 1931,
      "②": 1932,
      "③": 1933,
      "④": 1934,
      "⑤": 1935,
      "⑥": 1936,
      "⑦": 1937,
      "⑧": 1938,
      "⑨": 1939,
      "⑩": 1940,
      "⑪": 1941,
      "⑫": 1942,
      "Ⓡ": 1943,
      "ⓒ": 1944,
      "⓵": 1945,
      "⓽": 1946,
      "─": 1947,
      "│": 1948,
      "┐": 1949,
      "└": 1950,
      "├": 1951,
      "┤": 1952,
      "┴": 1953,
      "║": 1954,
      "╗": 1955,
      "╝": 1956,
      "▀": 1957,
      "▄": 1958,
      "▐": 1959,
      "░": 1960,
      "▒": 1961,
      "▓": 1962,
      "■": 1963,
      "□": 1964,
      "▣": 1965,
      "▪": 1966,
      "▫": 1967,
      "▲": 1968,
      "▶": 1969,
      "▷": 1970,
      "▸": 1971,
      "►": 1972,
      "▻": 1973,
      "▼": 1974,
      "▽": 1975,
      "◀": 1976,
      "◆": 1977,
      "◇": 1978,
      "◊": 1979,
      "○": 1980,
      "◌": 1981,
      "●": 1982,
      "◙": 1983,
      "◦": 1984,
      "◮": 1985,
      "★": 1986,
      "☆": 1987,
      "☉": 1988,
      "☎": 1989,
      "☏": 1990,
      "☑": 1991,
      "☘": 1992,
      "☛": 1993,
      "☞": 1994,
      "☟": 1995,
      "☠": 1996,
      "☢": 1997,
      "☯": 1998,
      "☹": 1999,
      "☺": 2000,
      "☻": 2001,
      "☼": 2002,
      "♀": 2003,
      "♂": 2004,
      "♅": 2005,
      "♇": 2006,
      "♈": 2007,
      "♉": 2008,
      "♊": 2009,
      "♋": 2010,
      "♌": 2011,
      "♍": 2012,
      "♎": 2013,
      "♏": 2014,
      "♐": 2015,
      "♑": 2016,
      "♒": 2017,
      "♓": 2018,
      "♠": 2019,
      "♣": 2020,
      "♥": 2021,
      "♦": 2022,
      "♫": 2023,
      "♬": 2024,
      "♭": 2025,
      "♯": 2026,
      "♻": 2027,
      "♿": 2028,
      "⚑": 2029,
      "⚓": 2030,
      "⚙": 2031,
      "⚠": 2032,
      "⚡": 2033,
      "⛄": 2034,
      "⛈": 2035,
      "⛵": 2036,
      "✅": 2037,
      "✈": 2038,
      "✉": 2039,
      "✊": 2040,
      "✌": 2041,
      "✍": 2042,
      "✎": 2043,
      "✏": 2044,
      "✒": 2045,
      "✓": 2046,
      "✔": 2047,
      "✖": 2048,
      "✗": 2049,
      "✤": 2050,
      "✦": 2051,
      "✧": 2052,
      "✯": 2053,
      "✱": 2054,
      "✿": 2055,
      "❄": 2056,
      "❌": 2057,
      "❏": 2058,
      "❑": 2059,
      "❓": 2060,
      "❖": 2061,
      "❗": 2062,
      "❛": 2063,
      "❜": 2064,
      "❤": 2065,
      "❯": 2066,
      "❶": 2067,
      "➁": 2068,
      "➔": 2069,
      "➕": 2070,
      "➖": 2071,
      "➚": 2072,
      "➜": 2073,
      "➞": 2074,
      "➡": 2075,
      "➢": 2076,
      "➣": 2077,
      "➤": 2078,
      "➨": 2079,
      "➭": 2080,
      "⟨": 2081,
      "⟩": 2082,
      "⟶": 2083,
      "⟷": 2084,
      "⠀": 2085,
      "⦁": 2086,
      "⨉": 2087,
      "⩽": 2088,
      "⩾": 2089,
      "⬇": 2090,
      "⭐": 2091,
      "Ⰲ": 2092,
      "Ⰽ": 2093,
      "Ⰾ": 2094,
      "Ⱀ": 2095,
      "Ⱁ": 2096,
      "Ⱄ": 2097,
      "Ⱏ": 2098,
      "Ⱐ": 2099,
      "Ⱑ": 2100,
      "Ᵽ": 2101,
      "ⱱ": 2102,
      "Ⲡ": 2103,
      "ⲡ": 2104,
      "⺇": 2105,
      "、": 2106,
      "。": 2107,
      "々": 2108,
      "〈": 2109,
      "〉": 2110,
      "《": 2111,
      "》": 2112,
      "「": 2113,
      "」": 2114,
      "『": 2115,
      "』": 2116,
      "【": 2117,
      "】": 2118,
      "〒": 2119,
      "〔": 2120,
      "〕": 2121,
      "〜": 2122,
      "ぁ": 2123,
      "あ": 2124,
      "い": 2125,
      "う": 2126,
      "ぇ": 2127,
      "え": 2128,
      "お": 2129,
      "か": 2130,
      "が": 2131,
      "き": 2132,
      "ぎ": 2133,
      "く": 2134,
      "ぐ": 2135,
      "け": 2136,
      "げ": 2137,
      "こ": 2138,
      "ご": 2139,
      "さ": 2140,
      "ざ": 2141,
      "し": 2142,
      "じ": 2143,
      "す": 2144,
      "せ": 2145,
      "ぜ": 2146,
      "そ": 2147,
      "ぞ": 2148,
      "た": 2149,
      "だ": 2150,
      "ち": 2151,
      "ぢ": 2152,
      "っ": 2153,
      "つ": 2154,
      "て": 2155,
      "で": 2156,
      "と": 2157,
      "ど": 2158,
      "な": 2159,
      "に": 2160,
      "ぬ": 2161,
      "ね": 2162,
      "の": 2163,
      "は": 2164,
      "ば": 2165,
      "ひ": 2166,
      "び": 2167,
      "ふ": 2168,
      "ぶ": 2169,
      "へ": 2170,
      "べ": 2171,
      "ほ": 2172,
      "ぼ": 2173,
      "ま": 2174,
      "み": 2175,
      "む": 2176,
      "め": 2177,
      "も": 2178,
      "ゃ": 2179,
      "や": 2180,
      "ゅ": 2181,
      "ゆ": 2182,
      "ょ": 2183,
      "よ": 2184,
      "ら": 2185,
      "り": 2186,
      "る": 2187,
      "れ": 2188,
      "ろ": 2189,
      "わ": 2190,
      "を": 2191,
      "ん": 2192,
      "゚": 2193,
      "゜": 2194,
      "ァ": 2195,
      "ア": 2196,
      "ィ": 2197,
      "イ": 2198,
      "ゥ": 2199,
      "ウ": 2200,
      "ェ": 2201,
      "エ": 2202,
      "ォ": 2203,
      "オ": 2204,
      "カ": 2205,
      "ガ": 2206,
      "キ": 2207,
      "ギ": 2208,
      "ク": 2209,
      "グ": 2210,
      "ケ": 2211,
      "ゲ": 2212,
      "コ": 2213,
      "ゴ": 2214,
      "サ": 2215,
      "ザ": 2216,
      "シ": 2217,
      "ジ": 2218,
      "ス": 2219,
      "ズ": 2220,
      "セ": 2221,
      "ソ": 2222,
      "ゾ": 2223,
      "タ": 2224,
      "ダ": 2225,
      "チ": 2226,
      "ヂ": 2227,
      "ッ": 2228,
      "ツ": 2229,
      "ヅ": 2230,
      "テ": 2231,
      "デ": 2232,
      "ト": 2233,
      "ド": 2234,
      "ナ": 2235,
      "ニ": 2236,
      "ヌ": 2237,
      "ネ": 2238,
      "ノ": 2239,
      "ハ": 2240,
      "バ": 2241,
      "パ": 2242,
      "ヒ": 2243,
      "ビ": 2244,
      "ピ": 2245,
      "フ": 2246,
      "ブ": 2247,
      "プ": 2248,
      "ヘ": 2249,
      "ベ": 2250,
      "ペ": 2251,
      "ホ": 2252,
      "ボ": 2253,
      "マ": 2254,
      "ミ": 2255,
      "ム": 2256,
      "メ": 2257,
      "モ": 2258,
      "ャ": 2259,
      "ヤ": 2260,
      "ュ": 2261,
      "ユ": 2262,
      "ョ": 2263,
      "ヨ": 2264,
      "ラ": 2265,
      "リ": 2266,
      "ル": 2267,
      "レ": 2268,
      "ロ": 2269,
      "ワ": 2270,
      "ヰ": 2271,
      "ヱ": 2272,
      "ヲ": 2273,
      "ン": 2274,
      "ヴ": 2275,
      "・": 2276,
      "ー": 2277,
      "ㄎ": 2278,
      "ㄱ": 2279,
      "ㄴ": 2280,
      "ㄷ": 2281,
      "ㄹ": 2282,
      "ㅁ": 2283,
      "ㅂ": 2284,
      "ㅅ": 2285,
      "ㅇ": 2286,
      "ㅈ": 2287,
      "ㅊ": 2288,
      "ㅋ": 2289,
      "ㅌ": 2290,
      "ㅍ": 2291,
      "ㅎ": 2292,
      "ㅏ": 2293,
      "ㅑ": 2294,
      "ㅓ": 2295,
      "ㅕ": 2296,
      "ㅗ": 2297,
      "ㅛ": 2298,
      "ㅜ": 2299,
      "ㅠ": 2300,
      "ㅡ": 2301,
      "ㅣ": 2302,
      "ㇰ": 2303,
      "ㇱ": 2304,
      "ㇲ": 2305,
      "ㇳ": 2306,
      "ㇴ": 2307,
      "ㇵ": 2308,
      "ㇶ": 2309,
      "ㇷ": 2310,
      "ㇸ": 2311,
      "ㇹ": 2312,
      "ㇺ": 2313,
      "ㇻ": 2314,
      "ㇼ": 2315,
      "ㇽ": 2316,
      "ㇾ": 2317,
      "ㇿ": 2318,
      "㎛": 2319,
      "㎢": 2320,
      "䖏": 2321,
      "一": 2322,
      "丁": 2323,
      "七": 2324,
      "万": 2325,
      "三": 2326,
      "上": 2327,
      "下": 2328,
      "不": 2329,
      "与": 2330,
      "丑": 2331,
      "专": 2332,
      "且": 2333,
      "丕": 2334,
      "世": 2335,
      "丘": 2336,
      "业": 2337,
      "东": 2338,
      "丝": 2339,
      "两": 2340,
      "严": 2341,
      "並": 2342,
      "个": 2343,
      "中": 2344,
      "丰": 2345,
      "串": 2346,
      "临": 2347,
      "丷": 2348,
      "丸": 2349,
      "丹": 2350,
      "为": 2351,
      "主": 2352,
      "乃": 2353,
      "久": 2354,
      "么": 2355,
      "义": 2356,
      "之": 2357,
      "乌": 2358,
      "乎": 2359,
      "乐": 2360,
      "乗": 2361,
      "乘": 2362,
      "乙": 2363,
      "九": 2364,
      "乞": 2365,
      "也": 2366,
      "习": 2367,
      "乡": 2368,
      "书": 2369,
      "乱": 2370,
      "乳": 2371,
      "乾": 2372,
      "亂": 2373,
      "了": 2374,
      "予": 2375,
      "争": 2376,
      "事": 2377,
      "二": 2378,
      "于": 2379,
      "云": 2380,
      "互": 2381,
      "五": 2382,
      "井": 2383,
      "亚": 2384,
      "些": 2385,
      "亞": 2386,
      "亟": 2387,
      "亡": 2388,
      "交": 2389,
      "产": 2390,
      "享": 2391,
      "京": 2392,
      "亭": 2393,
      "亮": 2394,
      "亲": 2395,
      "人": 2396,
      "亿": 2397,
      "什": 2398,
      "仁": 2399,
      "仅": 2400,
      "仇": 2401,
      "今": 2402,
      "介": 2403,
      "仍": 2404,
      "从": 2405,
      "仏": 2406,
      "仕": 2407,
      "他": 2408,
      "仗": 2409,
      "付": 2410,
      "仙": 2411,
      "仡": 2412,
      "代": 2413,
      "令": 2414,
      "以": 2415,
      "们": 2416,
      "仮": 2417,
      "仰": 2418,
      "件": 2419,
      "价": 2420,
      "任": 2421,
      "份": 2422,
      "仿": 2423,
      "伊": 2424,
      "伍": 2425,
      "伎": 2426,
      "伏": 2427,
      "伐": 2428,
      "休": 2429,
      "优": 2430,
      "伙": 2431,
      "会": 2432,
      "伝": 2433,
      "传": 2434,
      "伤": 2435,
      "伦": 2436,
      "伪": 2437,
      "伯": 2438,
      "伴": 2439,
      "伸": 2440,
      "似": 2441,
      "伽": 2442,
      "但": 2443,
      "佉": 2444,
      "位": 2445,
      "低": 2446,
      "住": 2447,
      "佐": 2448,
      "体": 2449,
      "何": 2450,
      "佘": 2451,
      "余": 2452,
      "佛": 2453,
      "作": 2454,
      "你": 2455,
      "佬": 2456,
      "佳": 2457,
      "使": 2458,
      "來": 2459,
      "例": 2460,
      "供": 2461,
      "依": 2462,
      "価": 2463,
      "侯": 2464,
      "侵": 2465,
      "便": 2466,
      "係": 2467,
      "促": 2468,
      "俄": 2469,
      "俊": 2470,
      "俗": 2471,
      "保": 2472,
      "信": 2473,
      "修": 2474,
      "俱": 2475,
      "俾": 2476,
      "倉": 2477,
      "個": 2478,
      "倍": 2479,
      "們": 2480,
      "倒": 2481,
      "候": 2482,
      "借": 2483,
      "値": 2484,
      "倪": 2485,
      "倭": 2486,
      "倶": 2487,
      "倻": 2488,
      "值": 2489,
      "假": 2490,
      "做": 2491,
      "停": 2492,
      "健": 2493,
      "側": 2494,
      "偽": 2495,
      "傅": 2496,
      "備": 2497,
      "傣": 2498,
      "储": 2499,
      "傳": 2500,
      "傾": 2501,
      "僉": 2502,
      "像": 2503,
      "僖": 2504,
      "僧": 2505,
      "儀": 2506,
      "億": 2507,
      "儆": 2508,
      "優": 2509,
      "儲": 2510,
      "儿": 2511,
      "元": 2512,
      "兄": 2513,
      "充": 2514,
      "先": 2515,
      "光": 2516,
      "克": 2517,
      "免": 2518,
      "児": 2519,
      "兑": 2520,
      "兒": 2521,
      "兔": 2522,
      "党": 2523,
      "兜": 2524,
      "入": 2525,
      "內": 2526,
      "全": 2527,
      "兩": 2528,
      "八": 2529,
      "公": 2530,
      "六": 2531,
      "兰": 2532,
      "共": 2533,
      "兲": 2534,
      "关": 2535,
      "兴": 2536,
      "兵": 2537,
      "其": 2538,
      "具": 2539,
      "典": 2540,
      "兼": 2541,
      "冀": 2542,
      "内": 2543,
      "円": 2544,
      "冈": 2545,
      "冊": 2546,
      "册": 2547,
      "再": 2548,
      "冎": 2549,
      "写": 2550,
      "军": 2551,
      "农": 2552,
      "冠": 2553,
      "冨": 2554,
      "冬": 2555,
      "冰": 2556,
      "冲": 2557,
      "决": 2558,
      "况": 2559,
      "冶": 2560,
      "准": 2561,
      "凉": 2562,
      "凋": 2563,
      "凍": 2564,
      "几": 2565,
      "凡": 2566,
      "凤": 2567,
      "処": 2568,
      "凰": 2569,
      "出": 2570,
      "击": 2571,
      "函": 2572,
      "刀": 2573,
      "分": 2574,
      "切": 2575,
      "刊": 2576,
      "刑": 2577,
      "划": 2578,
      "列": 2579,
      "刘": 2580,
      "则": 2581,
      "创": 2582,
      "初": 2583,
      "判": 2584,
      "別": 2585,
      "利": 2586,
      "刪": 2587,
      "别": 2588,
      "刮": 2589,
      "到": 2590,
      "制": 2591,
      "刷": 2592,
      "刺": 2593,
      "刻": 2594,
      "則": 2595,
      "前": 2596,
      "剎": 2597,
      "剛": 2598,
      "剣": 2599,
      "剤": 2600,
      "副": 2601,
      "割": 2602,
      "創": 2603,
      "劇": 2604,
      "劈": 2605,
      "劉": 2606,
      "劍": 2607,
      "力": 2608,
      "劝": 2609,
      "办": 2610,
      "功": 2611,
      "加": 2612,
      "务": 2613,
      "动": 2614,
      "助": 2615,
      "劫": 2616,
      "劬": 2617,
      "労": 2618,
      "勅": 2619,
      "勇": 2620,
      "勉": 2621,
      "勒": 2622,
      "動": 2623,
      "務": 2624,
      "勝": 2625,
      "勞": 2626,
      "募": 2627,
      "勢": 2628,
      "勤": 2629,
      "勧": 2630,
      "勸": 2631,
      "勺": 2632,
      "勿": 2633,
      "包": 2634,
      "化": 2635,
      "北": 2636,
      "匪": 2637,
      "匯": 2638,
      "匹": 2639,
      "区": 2640,
      "医": 2641,
      "匿": 2642,
      "區": 2643,
      "十": 2644,
      "千": 2645,
      "午": 2646,
      "半": 2647,
      "卍": 2648,
      "华": 2649,
      "协": 2650,
      "卐": 2651,
      "卓": 2652,
      "協": 2653,
      "卖": 2654,
      "南": 2655,
      "博": 2656,
      "占": 2657,
      "卦": 2658,
      "卯": 2659,
      "印": 2660,
      "即": 2661,
      "却": 2662,
      "卷": 2663,
      "厂": 2664,
      "压": 2665,
      "原": 2666,
      "厥": 2667,
      "厳": 2668,
      "去": 2669,
      "县": 2670,
      "参": 2671,
      "參": 2672,
      "又": 2673,
      "叉": 2674,
      "及": 2675,
      "友": 2676,
      "反": 2677,
      "发": 2678,
      "取": 2679,
      "受": 2680,
      "变": 2681,
      "叡": 2682,
      "叢": 2683,
      "口": 2684,
      "古": 2685,
      "句": 2686,
      "另": 2687,
      "叩": 2688,
      "只": 2689,
      "叫": 2690,
      "可": 2691,
      "台": 2692,
      "史": 2693,
      "右": 2694,
      "号": 2695,
      "司": 2696,
      "叹": 2697,
      "吃": 2698,
      "各": 2699,
      "合": 2700,
      "吉": 2701,
      "同": 2702,
      "名": 2703,
      "后": 2704,
      "吐": 2705,
      "向": 2706,
      "吕": 2707,
      "吗": 2708,
      "君": 2709,
      "否": 2710,
      "吧": 2711,
      "含": 2712,
      "听": 2713,
      "启": 2714,
      "吳": 2715,
      "吴": 2716,
      "吸": 2717,
      "吹": 2718,
      "吼": 2719,
      "呀": 2720,
      "告": 2721,
      "员": 2722,
      "呢": 2723,
      "周": 2724,
      "味": 2725,
      "呼": 2726,
      "命": 2727,
      "咄": 2728,
      "咋": 2729,
      "和": 2730,
      "咖": 2731,
      "咸": 2732,
      "咼": 2733,
      "哀": 2734,
      "品": 2735,
      "哈": 2736,
      "响": 2737,
      "員": 2738,
      "哥": 2739,
      "哦": 2740,
      "哪": 2741,
      "哲": 2742,
      "唐": 2743,
      "售": 2744,
      "唯": 2745,
      "商": 2746,
      "啊": 2747,
      "問": 2748,
      "啓": 2749,
      "啟": 2750,
      "啡": 2751,
      "啥": 2752,
      "啦": 2753,
      "啪": 2754,
      "善": 2755,
      "喚": 2756,
      "喜": 2757,
      "喝": 2758,
      "喪": 2759,
      "喫": 2760,
      "單": 2761,
      "営": 2762,
      "喷": 2763,
      "喻": 2764,
      "嗎": 2765,
      "嗣": 2766,
      "嘅": 2767,
      "嘉": 2768,
      "器": 2769,
      "嚴": 2770,
      "囉": 2771,
      "囍": 2772,
      "四": 2773,
      "回": 2774,
      "因": 2775,
      "团": 2776,
      "団": 2777,
      "园": 2778,
      "困": 2779,
      "図": 2780,
      "围": 2781,
      "国": 2782,
      "图": 2783,
      "圆": 2784,
      "國": 2785,
      "圏": 2786,
      "園": 2787,
      "圓": 2788,
      "圖": 2789,
      "圜": 2790,
      "土": 2791,
      "圣": 2792,
      "圧": 2793,
      "在": 2794,
      "圭": 2795,
      "地": 2796,
      "圳": 2797,
      "场": 2798,
      "坂": 2799,
      "均": 2800,
      "坊": 2801,
      "坏": 2802,
      "坐": 2803,
      "坑": 2804,
      "块": 2805,
      "坚": 2806,
      "坛": 2807,
      "坡": 2808,
      "型": 2809,
      "垢": 2810,
      "埃": 2811,
      "城": 2812,
      "埔": 2813,
      "域": 2814,
      "執": 2815,
      "培": 2816,
      "基": 2817,
      "埼": 2818,
      "堀": 2819,
      "堂": 2820,
      "堆": 2821,
      "堇": 2822,
      "堪": 2823,
      "報": 2824,
      "場": 2825,
      "塊": 2826,
      "塑": 2827,
      "塔": 2828,
      "塘": 2829,
      "塚": 2830,
      "塞": 2831,
      "填": 2832,
      "塵": 2833,
      "境": 2834,
      "墓": 2835,
      "増": 2836,
      "增": 2837,
      "墨": 2838,
      "墳": 2839,
      "壁": 2840,
      "壊": 2841,
      "壞": 2842,
      "士": 2843,
      "壬": 2844,
      "壮": 2845,
      "壯": 2846,
      "声": 2847,
      "売": 2848,
      "壹": 2849,
      "壺": 2850,
      "处": 2851,
      "备": 2852,
      "复": 2853,
      "夏": 2854,
      "外": 2855,
      "多": 2856,
      "夜": 2857,
      "够": 2858,
      "夠": 2859,
      "夢": 2860,
      "大": 2861,
      "天": 2862,
      "太": 2863,
      "夫": 2864,
      "央": 2865,
      "失": 2866,
      "头": 2867,
      "夷": 2868,
      "夾": 2869,
      "奇": 2870,
      "奉": 2871,
      "奏": 2872,
      "契": 2873,
      "奖": 2874,
      "套": 2875,
      "奘": 2876,
      "奚": 2877,
      "奥": 2878,
      "奧": 2879,
      "女": 2880,
      "奴": 2881,
      "她": 2882,
      "好": 2883,
      "如": 2884,
      "妃": 2885,
      "妄": 2886,
      "妇": 2887,
      "妈": 2888,
      "妖": 2889,
      "妘": 2890,
      "妙": 2891,
      "妹": 2892,
      "姉": 2893,
      "姊": 2894,
      "始": 2895,
      "姐": 2896,
      "姓": 2897,
      "委": 2898,
      "姜": 2899,
      "姫": 2900,
      "威": 2901,
      "娑": 2902,
      "娘": 2903,
      "娜": 2904,
      "娥": 2905,
      "娱": 2906,
      "婁": 2907,
      "婆": 2908,
      "婚": 2909,
      "婦": 2910,
      "媽": 2911,
      "嬢": 2912,
      "子": 2913,
      "孔": 2914,
      "字": 2915,
      "存": 2916,
      "孙": 2917,
      "孝": 2918,
      "孟": 2919,
      "季": 2920,
      "孤": 2921,
      "学": 2922,
      "孩": 2923,
      "孫": 2924,
      "學": 2925,
      "宁": 2926,
      "它": 2927,
      "宅": 2928,
      "宇": 2929,
      "守": 2930,
      "安": 2931,
      "宋": 2932,
      "完": 2933,
      "宍": 2934,
      "宗": 2935,
      "官": 2936,
      "宙": 2937,
      "定": 2938,
      "宛": 2939,
      "宜": 2940,
      "宝": 2941,
      "实": 2942,
      "実": 2943,
      "客": 2944,
      "宣": 2945,
      "室": 2946,
      "宥": 2947,
      "宫": 2948,
      "宮": 2949,
      "宰": 2950,
      "害": 2951,
      "家": 2952,
      "容": 2953,
      "宽": 2954,
      "宾": 2955,
      "宿": 2956,
      "寂": 2957,
      "寄": 2958,
      "寅": 2959,
      "密": 2960,
      "富": 2961,
      "寒": 2962,
      "寔": 2963,
      "寛": 2964,
      "寝": 2965,
      "察": 2966,
      "寡": 2967,
      "實": 2968,
      "寧": 2969,
      "審": 2970,
      "寫": 2971,
      "寬": 2972,
      "寰": 2973,
      "寶": 2974,
      "寸": 2975,
      "对": 2976,
      "寺": 2977,
      "寻": 2978,
      "导": 2979,
      "対": 2980,
      "寿": 2981,
      "封": 2982,
      "専": 2983,
      "射": 2984,
      "将": 2985,
      "將": 2986,
      "專": 2987,
      "尊": 2988,
      "對": 2989,
      "導": 2990,
      "小": 2991,
      "少": 2992,
      "尔": 2993,
      "尚": 2994,
      "尝": 2995,
      "尤": 2996,
      "就": 2997,
      "尸": 2998,
      "尹": 2999,
      "尻": 3000,
      "尼": 3001,
      "尽": 3002,
      "尾": 3003,
      "局": 3004,
      "居": 3005,
      "屆": 3006,
      "屈": 3007,
      "屋": 3008,
      "屍": 3009,
      "屎": 3010,
      "展": 3011,
      "属": 3012,
      "層": 3013,
      "履": 3014,
      "屬": 3015,
      "山": 3016,
      "岌": 3017,
      "岐": 3018,
      "岑": 3019,
      "岡": 3020,
      "岩": 3021,
      "岳": 3022,
      "岸": 3023,
      "峰": 3024,
      "島": 3025,
      "崇": 3026,
      "崎": 3027,
      "崔": 3028,
      "崛": 3029,
      "崤": 3030,
      "崩": 3031,
      "嵐": 3032,
      "嵩": 3033,
      "嵬": 3034,
      "嶋": 3035,
      "嶽": 3036,
      "巖": 3037,
      "川": 3038,
      "州": 3039,
      "工": 3040,
      "左": 3041,
      "巧": 3042,
      "巫": 3043,
      "差": 3044,
      "己": 3045,
      "已": 3046,
      "巳": 3047,
      "巴": 3048,
      "巻": 3049,
      "币": 3050,
      "市": 3051,
      "布": 3052,
      "帆": 3053,
      "师": 3054,
      "希": 3055,
      "帐": 3056,
      "帖": 3057,
      "帛": 3058,
      "帝": 3059,
      "帥": 3060,
      "带": 3061,
      "師": 3062,
      "席": 3063,
      "帮": 3064,
      "帯": 3065,
      "帰": 3066,
      "帳": 3067,
      "帶": 3068,
      "常": 3069,
      "幅": 3070,
      "幕": 3071,
      "幡": 3072,
      "幣": 3073,
      "干": 3074,
      "平": 3075,
      "年": 3076,
      "并": 3077,
      "幸": 3078,
      "幹": 3079,
      "幼": 3080,
      "广": 3081,
      "庁": 3082,
      "広": 3083,
      "庄": 3084,
      "庆": 3085,
      "庇": 3086,
      "序": 3087,
      "库": 3088,
      "应": 3089,
      "底": 3090,
      "店": 3091,
      "庚": 3092,
      "府": 3093,
      "度": 3094,
      "座": 3095,
      "庫": 3096,
      "庭": 3097,
      "庵": 3098,
      "庶": 3099,
      "康": 3100,
      "庸": 3101,
      "廊": 3102,
      "廟": 3103,
      "廢": 3104,
      "廣": 3105,
      "延": 3106,
      "建": 3107,
      "廻": 3108,
      "廿": 3109,
      "开": 3110,
      "弁": 3111,
      "异": 3112,
      "弃": 3113,
      "式": 3114,
      "弓": 3115,
      "引": 3116,
      "弗": 3117,
      "弟": 3118,
      "张": 3119,
      "弥": 3120,
      "弨": 3121,
      "張": 3122,
      "強": 3123,
      "弹": 3124,
      "强": 3125,
      "弾": 3126,
      "彌": 3127,
      "彎": 3128,
      "归": 3129,
      "当": 3130,
      "录": 3131,
      "彙": 3132,
      "彝": 3133,
      "彡": 3134,
      "形": 3135,
      "彦": 3136,
      "彩": 3137,
      "影": 3138,
      "役": 3139,
      "彼": 3140,
      "往": 3141,
      "征": 3142,
      "径": 3143,
      "待": 3144,
      "很": 3145,
      "律": 3146,
      "後": 3147,
      "徐": 3148,
      "徒": 3149,
      "従": 3150,
      "得": 3151,
      "從": 3152,
      "御": 3153,
      "復": 3154,
      "循": 3155,
      "微": 3156,
      "徳": 3157,
      "德": 3158,
      "徹": 3159,
      "徽": 3160,
      "心": 3161,
      "忄": 3162,
      "必": 3163,
      "忉": 3164,
      "忍": 3165,
      "志": 3166,
      "忘": 3167,
      "忙": 3168,
      "応": 3169,
      "忝": 3170,
      "忠": 3171,
      "快": 3172,
      "念": 3173,
      "忻": 3174,
      "忽": 3175,
      "忿": 3176,
      "态": 3177,
      "怎": 3178,
      "怛": 3179,
      "思": 3180,
      "急": 3181,
      "性": 3182,
      "怨": 3183,
      "怪": 3184,
      "总": 3185,
      "恋": 3186,
      "恒": 3187,
      "恨": 3188,
      "恩": 3189,
      "恭": 3190,
      "息": 3191,
      "恵": 3192,
      "悉": 3193,
      "悔": 3194,
      "悟": 3195,
      "患": 3196,
      "您": 3197,
      "悪": 3198,
      "悲": 3199,
      "悶": 3200,
      "情": 3201,
      "惊": 3202,
      "惑": 3203,
      "惟": 3204,
      "惠": 3205,
      "惡": 3206,
      "惣": 3207,
      "惯": 3208,
      "惱": 3209,
      "想": 3210,
      "惺": 3211,
      "愈": 3212,
      "意": 3213,
      "愛": 3214,
      "感": 3215,
      "愧": 3216,
      "愿": 3217,
      "慈": 3218,
      "慎": 3219,
      "慕": 3220,
      "慧": 3221,
      "慮": 3222,
      "慶": 3223,
      "憂": 3224,
      "憊": 3225,
      "憍": 3226,
      "憫": 3227,
      "憲": 3228,
      "應": 3229,
      "懷": 3230,
      "懿": 3231,
      "戀": 3232,
      "戈": 3233,
      "戊": 3234,
      "戏": 3235,
      "成": 3236,
      "我": 3237,
      "戒": 3238,
      "或": 3239,
      "战": 3240,
      "戦": 3241,
      "戰": 3242,
      "戲": 3243,
      "戴": 3244,
      "戶": 3245,
      "户": 3246,
      "戸": 3247,
      "房": 3248,
      "所": 3249,
      "扁": 3250,
      "扈": 3251,
      "手": 3252,
      "才": 3253,
      "扎": 3254,
      "打": 3255,
      "托": 3256,
      "扬": 3257,
      "扶": 3258,
      "批": 3259,
      "找": 3260,
      "承": 3261,
      "技": 3262,
      "抄": 3263,
      "把": 3264,
      "抒": 3265,
      "抓": 3266,
      "投": 3267,
      "抗": 3268,
      "折": 3269,
      "抣": 3270,
      "护": 3271,
      "报": 3272,
      "抱": 3273,
      "押": 3274,
      "抽": 3275,
      "拂": 3276,
      "担": 3277,
      "拉": 3278,
      "拍": 3279,
      "拓": 3280,
      "拔": 3281,
      "拘": 3282,
      "拙": 3283,
      "拜": 3284,
      "拥": 3285,
      "择": 3286,
      "括": 3287,
      "拳": 3288,
      "拼": 3289,
      "拾": 3290,
      "持": 3291,
      "指": 3292,
      "按": 3293,
      "振": 3294,
      "挹": 3295,
      "挿": 3296,
      "捉": 3297,
      "捕": 3298,
      "换": 3299,
      "捨": 3300,
      "据": 3301,
      "捲": 3302,
      "捺": 3303,
      "捻": 3304,
      "授": 3305,
      "掌": 3306,
      "掐": 3307,
      "排": 3308,
      "掛": 3309,
      "採": 3310,
      "探": 3311,
      "接": 3312,
      "推": 3313,
      "提": 3314,
      "插": 3315,
      "握": 3316,
      "損": 3317,
      "搭": 3318,
      "摄": 3319,
      "摘": 3320,
      "摧": 3321,
      "摩": 3322,
      "摸": 3323,
      "撒": 3324,
      "撫": 3325,
      "播": 3326,
      "擁": 3327,
      "擇": 3328,
      "擋": 3329,
      "攝": 3330,
      "支": 3331,
      "收": 3332,
      "改": 3333,
      "放": 3334,
      "政": 3335,
      "故": 3336,
      "救": 3337,
      "教": 3338,
      "敦": 3339,
      "敬": 3340,
      "数": 3341,
      "整": 3342,
      "文": 3343,
      "斌": 3344,
      "斎": 3345,
      "斐": 3346,
      "斗": 3347,
      "料": 3348,
      "斜": 3349,
      "斡": 3350,
      "斤": 3351,
      "断": 3352,
      "斯": 3353,
      "新": 3354,
      "方": 3355,
      "於": 3356,
      "施": 3357,
      "旃": 3358,
      "旅": 3359,
      "旋": 3360,
      "族": 3361,
      "旗": 3362,
      "无": 3363,
      "日": 3364,
      "旧": 3365,
      "旨": 3366,
      "早": 3367,
      "旬": 3368,
      "旭": 3369,
      "时": 3370,
      "旺": 3371,
      "昆": 3372,
      "昇": 3373,
      "昌": 3374,
      "明": 3375,
      "易": 3376,
      "昔": 3377,
      "星": 3378,
      "映": 3379,
      "春": 3380,
      "昧": 3381,
      "昨": 3382,
      "昭": 3383,
      "是": 3384,
      "昶": 3385,
      "显": 3386,
      "時": 3387,
      "晃": 3388,
      "晉": 3389,
      "晋": 3390,
      "晓": 3391,
      "晖": 3392,
      "晚": 3393,
      "普": 3394,
      "景": 3395,
      "智": 3396,
      "暑": 3397,
      "暖": 3398,
      "暗": 3399,
      "暦": 3400,
      "暫": 3401,
      "曇": 3402,
      "曉": 3403,
      "曲": 3404,
      "曳": 3405,
      "更": 3406,
      "書": 3407,
      "曹": 3408,
      "曼": 3409,
      "曽": 3410,
      "曾": 3411,
      "最": 3412,
      "會": 3413,
      "月": 3414,
      "有": 3415,
      "朋": 3416,
      "服": 3417,
      "望": 3418,
      "朝": 3419,
      "期": 3420,
      "木": 3421,
      "未": 3422,
      "末": 3423,
      "本": 3424,
      "札": 3425,
      "术": 3426,
      "朱": 3427,
      "朴": 3428,
      "机": 3429,
      "杀": 3430,
      "权": 3431,
      "杉": 3432,
      "李": 3433,
      "材": 3434,
      "村": 3435,
      "杜": 3436,
      "杞": 3437,
      "束": 3438,
      "条": 3439,
      "来": 3440,
      "杨": 3441,
      "杭": 3442,
      "杯": 3443,
      "杰": 3444,
      "東": 3445,
      "杵": 3446,
      "松": 3447,
      "板": 3448,
      "极": 3449,
      "构": 3450,
      "林": 3451,
      "果": 3452,
      "枝": 3453,
      "枣": 3454,
      "架": 3455,
      "枸": 3456,
      "柄": 3457,
      "某": 3458,
      "柔": 3459,
      "查": 3460,
      "柯": 3461,
      "柱": 3462,
      "柳": 3463,
      "柴": 3464,
      "査": 3465,
      "栄": 3466,
      "标": 3467,
      "树": 3468,
      "栖": 3469,
      "栗": 3470,
      "校": 3471,
      "栴": 3472,
      "样": 3473,
      "核": 3474,
      "根": 3475,
      "格": 3476,
      "桂": 3477,
      "桃": 3478,
      "案": 3479,
      "桓": 3480,
      "档": 3481,
      "梁": 3482,
      "梅": 3483,
      "條": 3484,
      "梨": 3485,
      "械": 3486,
      "梵": 3487,
      "检": 3488,
      "棄": 3489,
      "棉": 3490,
      "棒": 3491,
      "棚": 3492,
      "棟": 3493,
      "森": 3494,
      "椅": 3495,
      "植": 3496,
      "検": 3497,
      "楊": 3498,
      "楚": 3499,
      "楛": 3500,
      "楞": 3501,
      "業": 3502,
      "極": 3503,
      "楷": 3504,
      "楼": 3505,
      "楽": 3506,
      "概": 3507,
      "榓": 3508,
      "榕": 3509,
      "榜": 3510,
      "榮": 3511,
      "槃": 3512,
      "構": 3513,
      "様": 3514,
      "槟": 3515,
      "槻": 3516,
      "樂": 3517,
      "樑": 3518,
      "樓": 3519,
      "標": 3520,
      "樞": 3521,
      "模": 3522,
      "樣": 3523,
      "権": 3524,
      "横": 3525,
      "樹": 3526,
      "樺": 3527,
      "橋": 3528,
      "橛": 3529,
      "機": 3530,
      "檀": 3531,
      "檙": 3532,
      "檚": 3533,
      "檢": 3534,
      "櫛": 3535,
      "權": 3536,
      "次": 3537,
      "欢": 3538,
      "欣": 3539,
      "欲": 3540,
      "欽": 3541,
      "款": 3542,
      "歌": 3543,
      "止": 3544,
      "正": 3545,
      "此": 3546,
      "步": 3547,
      "武": 3548,
      "歯": 3549,
      "歲": 3550,
      "歳": 3551,
      "歴": 3552,
      "歷": 3553,
      "死": 3554,
      "殊": 3555,
      "残": 3556,
      "殖": 3557,
      "段": 3558,
      "殺": 3559,
      "殿": 3560,
      "毀": 3561,
      "母": 3562,
      "毎": 3563,
      "每": 3564,
      "毒": 3565,
      "比": 3566,
      "毘": 3567,
      "毛": 3568,
      "氏": 3569,
      "民": 3570,
      "气": 3571,
      "気": 3572,
      "氣": 3573,
      "水": 3574,
      "氵": 3575,
      "永": 3576,
      "汁": 3577,
      "求": 3578,
      "汉": 3579,
      "汗": 3580,
      "江": 3581,
      "池": 3582,
      "汪": 3583,
      "決": 3584,
      "汽": 3585,
      "沃": 3586,
      "沈": 3587,
      "沒": 3588,
      "沖": 3589,
      "沘": 3590,
      "沙": 3591,
      "没": 3592,
      "沪": 3593,
      "河": 3594,
      "沸": 3595,
      "油": 3596,
      "治": 3597,
      "況": 3598,
      "泄": 3599,
      "泉": 3600,
      "法": 3601,
      "泗": 3602,
      "波": 3603,
      "泥": 3604,
      "注": 3605,
      "泪": 3606,
      "泰": 3607,
      "泳": 3608,
      "洋": 3609,
      "洒": 3610,
      "洗": 3611,
      "洛": 3612,
      "津": 3613,
      "洲": 3614,
      "洹": 3615,
      "活": 3616,
      "派": 3617,
      "流": 3618,
      "浄": 3619,
      "浅": 3620,
      "浊": 3621,
      "济": 3622,
      "浒": 3623,
      "浙": 3624,
      "浜": 3625,
      "浦": 3626,
      "浩": 3627,
      "浪": 3628,
      "浮": 3629,
      "浴": 3630,
      "海": 3631,
      "涂": 3632,
      "涅": 3633,
      "消": 3634,
      "涌": 3635,
      "涙": 3636,
      "涤": 3637,
      "润": 3638,
      "涨": 3639,
      "淀": 3640,
      "淡": 3641,
      "淥": 3642,
      "淨": 3643,
      "淮": 3644,
      "深": 3645,
      "淳": 3646,
      "淵": 3647,
      "清": 3648,
      "済": 3649,
      "渊": 3650,
      "渋": 3651,
      "渔": 3652,
      "渕": 3653,
      "渠": 3654,
      "渡": 3655,
      "渤": 3656,
      "測": 3657,
      "港": 3658,
      "渴": 3659,
      "游": 3660,
      "湍": 3661,
      "湖": 3662,
      "湘": 3663,
      "湛": 3664,
      "湿": 3665,
      "満": 3666,
      "源": 3667,
      "準": 3668,
      "溥": 3669,
      "溪": 3670,
      "溫": 3671,
      "溯": 3672,
      "溶": 3673,
      "滅": 3674,
      "滇": 3675,
      "滑": 3676,
      "滔": 3677,
      "滞": 3678,
      "满": 3679,
      "滿": 3680,
      "漏": 3681,
      "漓": 3682,
      "演": 3683,
      "漚": 3684,
      "漢": 3685,
      "漫": 3686,
      "潤": 3687,
      "潮": 3688,
      "潰": 3689,
      "潼": 3690,
      "澀": 3691,
      "澄": 3692,
      "澤": 3693,
      "澳": 3694,
      "濁": 3695,
      "濃": 3696,
      "濟": 3697,
      "濱": 3698,
      "灌": 3699,
      "灣": 3700,
      "火": 3701,
      "灰": 3702,
      "灵": 3703,
      "灸": 3704,
      "炉": 3705,
      "炎": 3706,
      "炒": 3707,
      "炙": 3708,
      "炭": 3709,
      "点": 3710,
      "為": 3711,
      "烏": 3712,
      "烤": 3713,
      "烧": 3714,
      "热": 3715,
      "無": 3716,
      "焦": 3717,
      "然": 3718,
      "焼": 3719,
      "煌": 3720,
      "煎": 3721,
      "煚": 3722,
      "煤": 3723,
      "照": 3724,
      "煩": 3725,
      "煮": 3726,
      "熊": 3727,
      "熙": 3728,
      "熱": 3729,
      "熹": 3730,
      "燃": 3731,
      "燈": 3732,
      "燒": 3733,
      "燕": 3734,
      "營": 3735,
      "爆": 3736,
      "爱": 3737,
      "父": 3738,
      "爸": 3739,
      "爾": 3740,
      "牆": 3741,
      "片": 3742,
      "版": 3743,
      "牌": 3744,
      "牙": 3745,
      "牛": 3746,
      "牟": 3747,
      "牡": 3748,
      "牧": 3749,
      "物": 3750,
      "特": 3751,
      "犍": 3752,
      "犢": 3753,
      "犬": 3754,
      "状": 3755,
      "狂": 3756,
      "狐": 3757,
      "狩": 3758,
      "狭": 3759,
      "狮": 3760,
      "狼": 3761,
      "猗": 3762,
      "猪": 3763,
      "猫": 3764,
      "猿": 3765,
      "獄": 3766,
      "獏": 3767,
      "獨": 3768,
      "獲": 3769,
      "獻": 3770,
      "玄": 3771,
      "率": 3772,
      "玉": 3773,
      "王": 3774,
      "玖": 3775,
      "玩": 3776,
      "环": 3777,
      "现": 3778,
      "玲": 3779,
      "珍": 3780,
      "珎": 3781,
      "班": 3782,
      "現": 3783,
      "球": 3784,
      "琅": 3785,
      "理": 3786,
      "琉": 3787,
      "琴": 3788,
      "琿": 3789,
      "瑋": 3790,
      "瑎": 3791,
      "瑗": 3792,
      "瑛": 3793,
      "瑜": 3794,
      "瑞": 3795,
      "瑠": 3796,
      "瑾": 3797,
      "璃": 3798,
      "環": 3799,
      "璵": 3800,
      "瓊": 3801,
      "瓜": 3802,
      "瓦": 3803,
      "甄": 3804,
      "甘": 3805,
      "甚": 3806,
      "甜": 3807,
      "生": 3808,
      "産": 3809,
      "用": 3810,
      "田": 3811,
      "由": 3812,
      "甲": 3813,
      "申": 3814,
      "电": 3815,
      "男": 3816,
      "町": 3817,
      "画": 3818,
      "畅": 3819,
      "界": 3820,
      "畏": 3821,
      "留": 3822,
      "畢": 3823,
      "略": 3824,
      "番": 3825,
      "畫": 3826,
      "異": 3827,
      "當": 3828,
      "畿": 3829,
      "疏": 3830,
      "疑": 3831,
      "疫": 3832,
      "疯": 3833,
      "疾": 3834,
      "病": 3835,
      "症": 3836,
      "痛": 3837,
      "痧": 3838,
      "瘍": 3839,
      "瘦": 3840,
      "療": 3841,
      "癌": 3842,
      "癡": 3843,
      "癸": 3844,
      "発": 3845,
      "發": 3846,
      "白": 3847,
      "百": 3848,
      "的": 3849,
      "皆": 3850,
      "皇": 3851,
      "皮": 3852,
      "盂": 3853,
      "盆": 3854,
      "盛": 3855,
      "盡": 3856,
      "監": 3857,
      "盤": 3858,
      "盧": 3859,
      "目": 3860,
      "盲": 3861,
      "直": 3862,
      "相": 3863,
      "省": 3864,
      "看": 3865,
      "県": 3866,
      "真": 3867,
      "眠": 3868,
      "眦": 3869,
      "眼": 3870,
      "眾": 3871,
      "着": 3872,
      "睒": 3873,
      "睚": 3874,
      "睡": 3875,
      "督": 3876,
      "睦": 3877,
      "睺": 3878,
      "瞋": 3879,
      "瞎": 3880,
      "瞿": 3881,
      "矢": 3882,
      "知": 3883,
      "矩": 3884,
      "短": 3885,
      "石": 3886,
      "矿": 3887,
      "砂": 3888,
      "砌": 3889,
      "研": 3890,
      "砥": 3891,
      "砲": 3892,
      "破": 3893,
      "础": 3894,
      "硕": 3895,
      "硬": 3896,
      "确": 3897,
      "碑": 3898,
      "碧": 3899,
      "碱": 3900,
      "確": 3901,
      "磁": 3902,
      "磅": 3903,
      "磚": 3904,
      "磨": 3905,
      "礎": 3906,
      "礙": 3907,
      "示": 3908,
      "礼": 3909,
      "社": 3910,
      "祇": 3911,
      "祐": 3912,
      "祖": 3913,
      "祚": 3914,
      "祝": 3915,
      "神": 3916,
      "祠": 3917,
      "祥": 3918,
      "票": 3919,
      "祭": 3920,
      "祷": 3921,
      "禁": 3922,
      "禅": 3923,
      "禎": 3924,
      "福": 3925,
      "禘": 3926,
      "禪": 3927,
      "禮": 3928,
      "离": 3929,
      "禾": 3930,
      "秀": 3931,
      "私": 3932,
      "秉": 3933,
      "秋": 3934,
      "种": 3935,
      "科": 3936,
      "秒": 3937,
      "秘": 3938,
      "秦": 3939,
      "积": 3940,
      "称": 3941,
      "程": 3942,
      "稍": 3943,
      "稚": 3944,
      "稜": 3945,
      "種": 3946,
      "稱": 3947,
      "稲": 3948,
      "稽": 3949,
      "稿": 3950,
      "穂": 3951,
      "穆": 3952,
      "積": 3953,
      "究": 3954,
      "空": 3955,
      "突": 3956,
      "窃": 3957,
      "窄": 3958,
      "窑": 3959,
      "窓": 3960,
      "窟": 3961,
      "立": 3962,
      "站": 3963,
      "竜": 3964,
      "竞": 3965,
      "竟": 3966,
      "章": 3967,
      "童": 3968,
      "竭": 3969,
      "端": 3970,
      "竹": 3971,
      "竿": 3972,
      "笃": 3973,
      "笑": 3974,
      "符": 3975,
      "第": 3976,
      "筆": 3977,
      "等": 3978,
      "筍": 3979,
      "筒": 3980,
      "答": 3981,
      "策": 3982,
      "简": 3983,
      "箏": 3984,
      "算": 3985,
      "管": 3986,
      "節": 3987,
      "範": 3988,
      "篆": 3989,
      "篇": 3990,
      "築": 3991,
      "簡": 3992,
      "簧": 3993,
      "簿": 3994,
      "籀": 3995,
      "籍": 3996,
      "籏": 3997,
      "籠": 3998,
      "米": 3999,
      "类": 4000,
      "粉": 4001,
      "粒": 4002,
      "粘": 4003,
      "粟": 4004,
      "粤": 4005,
      "精": 4006,
      "糊": 4007,
      "糖": 4008,
      "糟": 4009,
      "系": 4010,
      "紀": 4011,
      "約": 4012,
      "紅": 4013,
      "紋": 4014,
      "紙": 4015,
      "級": 4016,
      "素": 4017,
      "索": 4018,
      "紫": 4019,
      "累": 4020,
      "細": 4021,
      "紹": 4022,
      "終": 4023,
      "組": 4024,
      "経": 4025,
      "結": 4026,
      "絕": 4027,
      "絞": 4028,
      "給": 4029,
      "統": 4030,
      "絲": 4031,
      "絵": 4032,
      "絹": 4033,
      "綏": 4034,
      "經": 4035,
      "継": 4036,
      "続": 4037,
      "綠": 4038,
      "綫": 4039,
      "維": 4040,
      "綱": 4041,
      "網": 4042,
      "綺": 4043,
      "綿": 4044,
      "総": 4045,
      "緑": 4046,
      "緒": 4047,
      "線": 4048,
      "緣": 4049,
      "編": 4050,
      "緯": 4051,
      "練": 4052,
      "縁": 4053,
      "縄": 4054,
      "縣": 4055,
      "縦": 4056,
      "縮": 4057,
      "縻": 4058,
      "總": 4059,
      "繁": 4060,
      "繋": 4061,
      "織": 4062,
      "繩": 4063,
      "纂": 4064,
      "續": 4065,
      "纖": 4066,
      "红": 4067,
      "纤": 4068,
      "约": 4069,
      "级": 4070,
      "纪": 4071,
      "纯": 4072,
      "纳": 4073,
      "纸": 4074,
      "纹": 4075,
      "纽": 4076,
      "线": 4077,
      "组": 4078,
      "绅": 4079,
      "细": 4080,
      "绍": 4081,
      "经": 4082,
      "结": 4083,
      "绘": 4084,
      "给": 4085,
      "统": 4086,
      "绮": 4087,
      "维": 4088,
      "综": 4089,
      "编": 4090,
      "缘": 4091,
      "缩": 4092,
      "网": 4093,
      "罗": 4094,
      "罪": 4095,
      "置": 4096,
      "署": 4097,
      "罹": 4098,
      "羅": 4099,
      "羈": 4100,
      "羊": 4101,
      "美": 4102,
      "群": 4103,
      "義": 4104,
      "羯": 4105,
      "羲": 4106,
      "羹": 4107,
      "翁": 4108,
      "翅": 4109,
      "習": 4110,
      "翟": 4111,
      "翠": 4112,
      "翻": 4113,
      "耀": 4114,
      "老": 4115,
      "考": 4116,
      "者": 4117,
      "耆": 4118,
      "而": 4119,
      "耐": 4120,
      "耨": 4121,
      "耳": 4122,
      "耶": 4123,
      "职": 4124,
      "联": 4125,
      "聖": 4126,
      "聘": 4127,
      "聚": 4128,
      "聞": 4129,
      "聮": 4130,
      "聯": 4131,
      "聰": 4132,
      "聲": 4133,
      "聴": 4134,
      "職": 4135,
      "聽": 4136,
      "肅": 4137,
      "肉": 4138,
      "肌": 4139,
      "肘": 4140,
      "肚": 4141,
      "肪": 4142,
      "肯": 4143,
      "育": 4144,
      "肺": 4145,
      "肿": 4146,
      "背": 4147,
      "胎": 4148,
      "胝": 4149,
      "胞": 4150,
      "胡": 4151,
      "胶": 4152,
      "胸": 4153,
      "能": 4154,
      "脂": 4155,
      "脈": 4156,
      "脉": 4157,
      "脏": 4158,
      "脑": 4159,
      "脚": 4160,
      "脫": 4161,
      "腊": 4162,
      "腔": 4163,
      "腕": 4164,
      "腦": 4165,
      "腰": 4166,
      "腸": 4167,
      "膀": 4168,
      "膚": 4169,
      "膝": 4170,
      "膳": 4171,
      "臍": 4172,
      "臚": 4173,
      "臟": 4174,
      "臣": 4175,
      "臥": 4176,
      "臨": 4177,
      "自": 4178,
      "至": 4179,
      "致": 4180,
      "臺": 4181,
      "臼": 4182,
      "與": 4183,
      "興": 4184,
      "舊": 4185,
      "舌": 4186,
      "舍": 4187,
      "舜": 4188,
      "舞": 4189,
      "航": 4190,
      "般": 4191,
      "船": 4192,
      "艇": 4193,
      "良": 4194,
      "艰": 4195,
      "色": 4196,
      "艺": 4197,
      "艾": 4198,
      "节": 4199,
      "芝": 4200,
      "芦": 4201,
      "花": 4202,
      "芸": 4203,
      "芹": 4204,
      "芽": 4205,
      "苏": 4206,
      "苑": 4207,
      "苔": 4208,
      "若": 4209,
      "苦": 4210,
      "英": 4211,
      "茂": 4212,
      "范": 4213,
      "茶": 4214,
      "荀": 4215,
      "草": 4216,
      "荏": 4217,
      "荒": 4218,
      "荣": 4219,
      "荷": 4220,
      "荼": 4221,
      "莎": 4222,
      "莒": 4223,
      "莫": 4224,
      "莲": 4225,
      "获": 4226,
      "菅": 4227,
      "菜": 4228,
      "菩": 4229,
      "華": 4230,
      "菲": 4231,
      "菴": 4232,
      "萁": 4233,
      "萌": 4234,
      "落": 4235,
      "葉": 4236,
      "著": 4237,
      "董": 4238,
      "葫": 4239,
      "葵": 4240,
      "蒙": 4241,
      "蒸": 4242,
      "蓄": 4243,
      "蓋": 4244,
      "蓓": 4245,
      "蓮": 4246,
      "蔘": 4247,
      "蔚": 4248,
      "蔡": 4249,
      "蔣": 4250,
      "蔭": 4251,
      "蔵": 4252,
      "蕴": 4253,
      "薄": 4254,
      "薇": 4255,
      "薩": 4256,
      "薫": 4257,
      "薬": 4258,
      "薯": 4259,
      "薰": 4260,
      "藉": 4261,
      "藍": 4262,
      "藏": 4263,
      "藐": 4264,
      "藝": 4265,
      "藤": 4266,
      "藩": 4267,
      "藻": 4268,
      "蘆": 4269,
      "蘇": 4270,
      "蘊": 4271,
      "蘋": 4272,
      "蘭": 4273,
      "虎": 4274,
      "虔": 4275,
      "處": 4276,
      "虛": 4277,
      "虞": 4278,
      "號": 4279,
      "虺": 4280,
      "虽": 4281,
      "蛇": 4282,
      "蛙": 4283,
      "蛮": 4284,
      "蜀": 4285,
      "蜂": 4286,
      "蜜": 4287,
      "蝮": 4288,
      "螺": 4289,
      "蠕": 4290,
      "蠡": 4291,
      "蠻": 4292,
      "血": 4293,
      "衅": 4294,
      "衆": 4295,
      "行": 4296,
      "衍": 4297,
      "術": 4298,
      "街": 4299,
      "衛": 4300,
      "衡": 4301,
      "衢": 4302,
      "衣": 4303,
      "补": 4304,
      "表": 4305,
      "袁": 4306,
      "袍": 4307,
      "袜": 4308,
      "被": 4309,
      "裂": 4310,
      "装": 4311,
      "裏": 4312,
      "裕": 4313,
      "裙": 4314,
      "補": 4315,
      "裝": 4316,
      "裤": 4317,
      "裴": 4318,
      "裸": 4319,
      "製": 4320,
      "褲": 4321,
      "襖": 4322,
      "襪": 4323,
      "襲": 4324,
      "西": 4325,
      "要": 4326,
      "見": 4327,
      "規": 4328,
      "視": 4329,
      "覚": 4330,
      "覧": 4331,
      "親": 4332,
      "覺": 4333,
      "觀": 4334,
      "见": 4335,
      "观": 4336,
      "规": 4337,
      "觅": 4338,
      "视": 4339,
      "览": 4340,
      "觉": 4341,
      "角": 4342,
      "解": 4343,
      "触": 4344,
      "言": 4345,
      "訂": 4346,
      "計": 4347,
      "訊": 4348,
      "討": 4349,
      "訓": 4350,
      "記": 4351,
      "訥": 4352,
      "設": 4353,
      "許": 4354,
      "訳": 4355,
      "訶": 4356,
      "証": 4357,
      "詁": 4358,
      "詔": 4359,
      "詞": 4360,
      "詢": 4361,
      "詣": 4362,
      "詩": 4363,
      "詮": 4364,
      "詰": 4365,
      "話": 4366,
      "該": 4367,
      "誉": 4368,
      "誌": 4369,
      "認": 4370,
      "誓": 4371,
      "誕": 4372,
      "語": 4373,
      "誠": 4374,
      "誥": 4375,
      "說": 4376,
      "説": 4377,
      "読": 4378,
      "課": 4379,
      "誼": 4380,
      "調": 4381,
      "談": 4382,
      "請": 4383,
      "諍": 4384,
      "論": 4385,
      "諜": 4386,
      "諦": 4387,
      "諭": 4388,
      "諲": 4389,
      "諸": 4390,
      "諺": 4391,
      "謀": 4392,
      "謂": 4393,
      "講": 4394,
      "謝": 4395,
      "證": 4396,
      "譔": 4397,
      "識": 4398,
      "譜": 4399,
      "譬": 4400,
      "議": 4401,
      "譲": 4402,
      "護": 4403,
      "讀": 4404,
      "變": 4405,
      "讓": 4406,
      "计": 4407,
      "订": 4408,
      "认": 4409,
      "讨": 4410,
      "让": 4411,
      "训": 4412,
      "议": 4413,
      "记": 4414,
      "许": 4415,
      "论": 4416,
      "设": 4417,
      "证": 4418,
      "诂": 4419,
      "评": 4420,
      "识": 4421,
      "诉": 4422,
      "诊": 4423,
      "词": 4424,
      "译": 4425,
      "诒": 4426,
      "试": 4427,
      "诗": 4428,
      "诚": 4429,
      "话": 4430,
      "该": 4431,
      "语": 4432,
      "误": 4433,
      "说": 4434,
      "请": 4435,
      "读": 4436,
      "课": 4437,
      "谁": 4438,
      "调": 4439,
      "谓": 4440,
      "谜": 4441,
      "谢": 4442,
      "谩": 4443,
      "谷": 4444,
      "豆": 4445,
      "豊": 4446,
      "豐": 4447,
      "象": 4448,
      "豪": 4449,
      "豫": 4450,
      "豹": 4451,
      "貊": 4452,
      "貘": 4453,
      "貝": 4454,
      "財": 4455,
      "貨": 4456,
      "貫": 4457,
      "責": 4458,
      "貴": 4459,
      "買": 4460,
      "費": 4461,
      "賀": 4462,
      "資": 4463,
      "賈": 4464,
      "賜": 4465,
      "賞": 4466,
      "賢": 4467,
      "賣": 4468,
      "賭": 4469,
      "購": 4470,
      "贅": 4471,
      "贛": 4472,
      "贡": 4473,
      "财": 4474,
      "贤": 4475,
      "败": 4476,
      "贴": 4477,
      "贵": 4478,
      "贸": 4479,
      "费": 4480,
      "贾": 4481,
      "资": 4482,
      "赋": 4483,
      "赖": 4484,
      "赛": 4485,
      "赞": 4486,
      "赢": 4487,
      "赣": 4488,
      "赤": 4489,
      "走": 4490,
      "赵": 4491,
      "赶": 4492,
      "起": 4493,
      "超": 4494,
      "越": 4495,
      "趕": 4496,
      "趙": 4497,
      "趣": 4498,
      "足": 4499,
      "跋": 4500,
      "跑": 4501,
      "距": 4502,
      "跡": 4503,
      "路": 4504,
      "践": 4505,
      "踊": 4506,
      "踏": 4507,
      "踐": 4508,
      "踵": 4509,
      "蹉": 4510,
      "蹴": 4511,
      "身": 4512,
      "車": 4513,
      "軌": 4514,
      "軍": 4515,
      "軟": 4516,
      "転": 4517,
      "軸": 4518,
      "軻": 4519,
      "載": 4520,
      "輔": 4521,
      "輕": 4522,
      "輝": 4523,
      "輩": 4524,
      "輪": 4525,
      "輸": 4526,
      "轉": 4527,
      "车": 4528,
      "轨": 4529,
      "轻": 4530,
      "载": 4531,
      "轿": 4532,
      "辆": 4533,
      "辑": 4534,
      "输": 4535,
      "辛": 4536,
      "辜": 4537,
      "辞": 4538,
      "辟": 4539,
      "辣": 4540,
      "辨": 4541,
      "辭": 4542,
      "辯": 4543,
      "辰": 4544,
      "辱": 4545,
      "農": 4546,
      "边": 4547,
      "辺": 4548,
      "込": 4549,
      "达": 4550,
      "迅": 4551,
      "过": 4552,
      "运": 4553,
      "近": 4554,
      "还": 4555,
      "这": 4556,
      "进": 4557,
      "远": 4558,
      "连": 4559,
      "迟": 4560,
      "迦": 4561,
      "迪": 4562,
      "述": 4563,
      "迴": 4564,
      "追": 4565,
      "退": 4566,
      "送": 4567,
      "适": 4568,
      "逆": 4569,
      "选": 4570,
      "透": 4571,
      "逐": 4572,
      "途": 4573,
      "這": 4574,
      "通": 4575,
      "逝": 4576,
      "速": 4577,
      "造": 4578,
      "連": 4579,
      "週": 4580,
      "進": 4581,
      "逸": 4582,
      "遊": 4583,
      "運": 4584,
      "遍": 4585,
      "過": 4586,
      "道": 4587,
      "達": 4588,
      "違": 4589,
      "遗": 4590,
      "遠": 4591,
      "遣": 4592,
      "適": 4593,
      "遮": 4594,
      "遵": 4595,
      "遷": 4596,
      "選": 4597,
      "遺": 4598,
      "遼": 4599,
      "邇": 4600,
      "邉": 4601,
      "邊": 4602,
      "邏": 4603,
      "邑": 4604,
      "邓": 4605,
      "那": 4606,
      "邦": 4607,
      "邪": 4608,
      "郁": 4609,
      "郎": 4610,
      "郝": 4611,
      "郡": 4612,
      "部": 4613,
      "郷": 4614,
      "都": 4615,
      "鄂": 4616,
      "鄉": 4617,
      "鄭": 4618,
      "配": 4619,
      "酢": 4620,
      "醋": 4621,
      "醎": 4622,
      "醒": 4623,
      "醣": 4624,
      "醫": 4625,
      "醬": 4626,
      "醯": 4627,
      "釁": 4628,
      "采": 4629,
      "釉": 4630,
      "释": 4631,
      "釋": 4632,
      "里": 4633,
      "重": 4634,
      "野": 4635,
      "量": 4636,
      "金": 4637,
      "釜": 4638,
      "鈥": 4639,
      "鈴": 4640,
      "鉄": 4641,
      "鉢": 4642,
      "鉴": 4643,
      "銀": 4644,
      "銃": 4645,
      "銅": 4646,
      "銘": 4647,
      "銷": 4648,
      "錄": 4649,
      "錍": 4650,
      "錢": 4651,
      "錦": 4652,
      "錫": 4653,
      "錬": 4654,
      "鍋": 4655,
      "鍛": 4656,
      "鍵": 4657,
      "鎌": 4658,
      "鎖": 4659,
      "鎮": 4660,
      "鏡": 4661,
      "鐵": 4662,
      "鑑": 4663,
      "钟": 4664,
      "钱": 4665,
      "铃": 4666,
      "铆": 4667,
      "铭": 4668,
      "铲": 4669,
      "铸": 4670,
      "销": 4671,
      "锅": 4672,
      "错": 4673,
      "镜": 4674,
      "長": 4675,
      "长": 4676,
      "門": 4677,
      "閉": 4678,
      "開": 4679,
      "閑": 4680,
      "閒": 4681,
      "間": 4682,
      "閗": 4683,
      "関": 4684,
      "閣": 4685,
      "閦": 4686,
      "閩": 4687,
      "閭": 4688,
      "閱": 4689,
      "閻": 4690,
      "闍": 4691,
      "闖": 4692,
      "關": 4693,
      "闥": 4694,
      "门": 4695,
      "闪": 4696,
      "闭": 4697,
      "问": 4698,
      "闲": 4699,
      "间": 4700,
      "闽": 4701,
      "阅": 4702,
      "队": 4703,
      "阪": 4704,
      "阳": 4705,
      "阻": 4706,
      "阼": 4707,
      "阿": 4708,
      "陀": 4709,
      "附": 4710,
      "际": 4711,
      "陇": 4712,
      "陈": 4713,
      "降": 4714,
      "限": 4715,
      "陕": 4716,
      "院": 4717,
      "陣": 4718,
      "除": 4719,
      "险": 4720,
      "陰": 4721,
      "陳": 4722,
      "陵": 4723,
      "陶": 4724,
      "陸": 4725,
      "陽": 4726,
      "隆": 4727,
      "隋": 4728,
      "隍": 4729,
      "階": 4730,
      "随": 4731,
      "隐": 4732,
      "隔": 4733,
      "際": 4734,
      "隨": 4735,
      "隱": 4736,
      "隶": 4737,
      "隸": 4738,
      "难": 4739,
      "雀": 4740,
      "雄": 4741,
      "雅": 4742,
      "集": 4743,
      "雑": 4744,
      "雕": 4745,
      "雜": 4746,
      "離": 4747,
      "難": 4748,
      "雨": 4749,
      "雪": 4750,
      "雲": 4751,
      "雷": 4752,
      "電": 4753,
      "需": 4754,
      "震": 4755,
      "霊": 4756,
      "霧": 4757,
      "露": 4758,
      "靈": 4759,
      "青": 4760,
      "靖": 4761,
      "静": 4762,
      "非": 4763,
      "面": 4764,
      "革": 4765,
      "靺": 4766,
      "鞋": 4767,
      "鞨": 4768,
      "韋": 4769,
      "韌": 4770,
      "韓": 4771,
      "韦": 4772,
      "韩": 4773,
      "音": 4774,
      "響": 4775,
      "頁": 4776,
      "頂": 4777,
      "須": 4778,
      "頊": 4779,
      "頌": 4780,
      "領": 4781,
      "頞": 4782,
      "頬": 4783,
      "頭": 4784,
      "頲": 4785,
      "頻": 4786,
      "頼": 4787,
      "顆": 4788,
      "題": 4789,
      "顏": 4790,
      "願": 4791,
      "類": 4792,
      "顧": 4793,
      "顯": 4794,
      "页": 4795,
      "顶": 4796,
      "项": 4797,
      "顺": 4798,
      "须": 4799,
      "预": 4800,
      "领": 4801,
      "颐": 4802,
      "频": 4803,
      "颗": 4804,
      "题": 4805,
      "颜": 4806,
      "额": 4807,
      "風": 4808,
      "风": 4809,
      "飛": 4810,
      "飞": 4811,
      "食": 4812,
      "飯": 4813,
      "飲": 4814,
      "飼": 4815,
      "養": 4816,
      "餐": 4817,
      "餓": 4818,
      "餖": 4819,
      "餘": 4820,
      "館": 4821,
      "餹": 4822,
      "饥": 4823,
      "饭": 4824,
      "饮": 4825,
      "饼": 4826,
      "馆": 4827,
      "首": 4828,
      "香": 4829,
      "馬": 4830,
      "駄": 4831,
      "駅": 4832,
      "駒": 4833,
      "駕": 4834,
      "駿": 4835,
      "騂": 4836,
      "騎": 4837,
      "騏": 4838,
      "験": 4839,
      "驅": 4840,
      "驗": 4841,
      "驚": 4842,
      "驪": 4843,
      "马": 4844,
      "驶": 4845,
      "验": 4846,
      "骑": 4847,
      "骤": 4848,
      "骨": 4849,
      "髓": 4850,
      "體": 4851,
      "高": 4852,
      "髙": 4853,
      "鬘": 4854,
      "鬱": 4855,
      "鬼": 4856,
      "魂": 4857,
      "魏": 4858,
      "魔": 4859,
      "魚": 4860,
      "魯": 4861,
      "鮮": 4862,
      "鯉": 4863,
      "鱼": 4864,
      "鱿": 4865,
      "鲜": 4866,
      "鳥": 4867,
      "鳩": 4868,
      "鳴": 4869,
      "鴞": 4870,
      "鴨": 4871,
      "鴻": 4872,
      "鵙": 4873,
      "鵜": 4874,
      "鵠": 4875,
      "鵲": 4876,
      "鶴": 4877,
      "鶻": 4878,
      "鶿": 4879,
      "鷲": 4880,
      "鷽": 4881,
      "鸟": 4882,
      "鸢": 4883,
      "鸬": 4884,
      "鹃": 4885,
      "鹰": 4886,
      "鹿": 4887,
      "麗": 4888,
      "麟": 4889,
      "麦": 4890,
      "麻": 4891,
      "麼": 4892,
      "黃": 4893,
      "黄": 4894,
      "黎": 4895,
      "黑": 4896,
      "黒": 4897,
      "默": 4898,
      "黙": 4899,
      "黨": 4900,
      "鼎": 4901,
      "鼓": 4902,
      "鼻": 4903,
      "齋": 4904,
      "齐": 4905,
      "龍": 4906,
      "龙": 4907,
      "龟": 4908,
      "龵": 4909,
      "ꜥ": 4910,
      "Ꝑ": 4911,
      "ꝑ": 4912,
      "Ꝓ": 4913,
      "ꝓ": 4914,
      "Ꝕ": 4915,
      "ꝕ": 4916,
      "ꟷ": 4917,
      "ꟼ": 4918,
      "ꦏ": 4919,
      "ꦒ": 4920,
      "ꦛ": 4921,
      "ꦸ": 4922,
      "ꦼ": 4923,
      "꧀": 4924,
      "가": 4925,
      "각": 4926,
      "간": 4927,
      "감": 4928,
      "갓": 4929,
      "강": 4930,
      "같": 4931,
      "개": 4932,
      "거": 4933,
      "건": 4934,
      "검": 4935,
      "것": 4936,
      "게": 4937,
      "겠": 4938,
      "겨": 4939,
      "격": 4940,
      "경": 4941,
      "계": 4942,
      "고": 4943,
      "골": 4944,
      "곰": 4945,
      "공": 4946,
      "과": 4947,
      "관": 4948,
      "광": 4949,
      "교": 4950,
      "구": 4951,
      "국": 4952,
      "군": 4953,
      "권": 4954,
      "규": 4955,
      "그": 4956,
      "근": 4957,
      "글": 4958,
      "금": 4959,
      "급": 4960,
      "기": 4961,
      "길": 4962,
      "김": 4963,
      "깁": 4964,
      "까": 4965,
      "께": 4966,
      "끝": 4967,
      "나": 4968,
      "낙": 4969,
      "난": 4970,
      "날": 4971,
      "남": 4972,
      "낮": 4973,
      "내": 4974,
      "너": 4975,
      "네": 4976,
      "넷": 4977,
      "년": 4978,
      "념": 4979,
      "노": 4980,
      "논": 4981,
      "농": 4982,
      "높": 4983,
      "놓": 4984,
      "뉴": 4985,
      "는": 4986,
      "늘": 4987,
      "능": 4988,
      "니": 4989,
      "닉": 4990,
      "님": 4991,
      "다": 4992,
      "단": 4993,
      "달": 4994,
      "담": 4995,
      "답": 4996,
      "대": 4997,
      "댐": 4998,
      "더": 4999,
      "덕": 5000,
      "데": 5001,
      "도": 5002,
      "동": 5003,
      "되": 5004,
      "됨": 5005,
      "됩": 5006,
      "두": 5007,
      "드": 5008,
      "든": 5009,
      "듣": 5010,
      "들": 5011,
      "듬": 5012,
      "등": 5013,
      "디": 5014,
      "따": 5015,
      "때": 5016,
      "떫": 5017,
      "떻": 5018,
      "또": 5019,
      "라": 5020,
      "락": 5021,
      "람": 5022,
      "래": 5023,
      "랫": 5024,
      "랭": 5025,
      "량": 5026,
      "러": 5027,
      "런": 5028,
      "럴": 5029,
      "럼": 5030,
      "럽": 5031,
      "렇": 5032,
      "레": 5033,
      "렌": 5034,
      "려": 5035,
      "력": 5036,
      "련": 5037,
      "렵": 5038,
      "령": 5039,
      "로": 5040,
      "록": 5041,
      "료": 5042,
      "루": 5043,
      "룹": 5044,
      "류": 5045,
      "륭": 5046,
      "르": 5047,
      "른": 5048,
      "를": 5049,
      "릉": 5050,
      "리": 5051,
      "린": 5052,
      "릴": 5053,
      "립": 5054,
      "마": 5055,
      "막": 5056,
      "만": 5057,
      "많": 5058,
      "말": 5059,
      "망": 5060,
      "맞": 5061,
      "맡": 5062,
      "매": 5063,
      "먼": 5064,
      "메": 5065,
      "며": 5066,
      "면": 5067,
      "멸": 5068,
      "명": 5069,
      "모": 5070,
      "목": 5071,
      "몬": 5072,
      "무": 5073,
      "문": 5074,
      "물": 5075,
      "뭔": 5076,
      "미": 5077,
      "민": 5078,
      "및": 5079,
      "바": 5080,
      "박": 5081,
      "반": 5082,
      "발": 5083,
      "방": 5084,
      "배": 5085,
      "백": 5086,
      "벅": 5087,
      "번": 5088,
      "범": 5089,
      "법": 5090,
      "베": 5091,
      "변": 5092,
      "보": 5093,
      "복": 5094,
      "본": 5095,
      "볼": 5096,
      "봅": 5097,
      "부": 5098,
      "북": 5099,
      "분": 5100,
      "불": 5101,
      "브": 5102,
      "비": 5103,
      "뿌": 5104,
      "사": 5105,
      "산": 5106,
      "살": 5107,
      "삶": 5108,
      "삽": 5109,
      "상": 5110,
      "새": 5111,
      "색": 5112,
      "생": 5113,
      "서": 5114,
      "석": 5115,
      "선": 5116,
      "설": 5117,
      "섭": 5118,
      "성": 5119,
      "세": 5120,
      "셀": 5121,
      "션": 5122,
      "소": 5123,
      "속": 5124,
      "손": 5125,
      "솟": 5126,
      "송": 5127,
      "쇠": 5128,
      "수": 5129,
      "숙": 5130,
      "순": 5131,
      "술": 5132,
      "쉽": 5133,
      "스": 5134,
      "슬": 5135,
      "습": 5136,
      "시": 5137,
      "식": 5138,
      "신": 5139,
      "실": 5140,
      "심": 5141,
      "십": 5142,
      "싶": 5143,
      "써": 5144,
      "씁": 5145,
      "씨": 5146,
      "아": 5147,
      "악": 5148,
      "안": 5149,
      "않": 5150,
      "았": 5151,
      "앞": 5152,
      "애": 5153,
      "액": 5154,
      "야": 5155,
      "약": 5156,
      "양": 5157,
      "어": 5158,
      "억": 5159,
      "엄": 5160,
      "업": 5161,
      "없": 5162,
      "었": 5163,
      "에": 5164,
      "여": 5165,
      "역": 5166,
      "연": 5167,
      "염": 5168,
      "엽": 5169,
      "였": 5170,
      "영": 5171,
      "예": 5172,
      "오": 5173,
      "온": 5174,
      "올": 5175,
      "와": 5176,
      "완": 5177,
      "왕": 5178,
      "외": 5179,
      "요": 5180,
      "용": 5181,
      "우": 5182,
      "운": 5183,
      "울": 5184,
      "움": 5185,
      "워": 5186,
      "원": 5187,
      "월": 5188,
      "위": 5189,
      "유": 5190,
      "육": 5191,
      "윤": 5192,
      "율": 5193,
      "융": 5194,
      "으": 5195,
      "은": 5196,
      "을": 5197,
      "음": 5198,
      "응": 5199,
      "의": 5200,
      "이": 5201,
      "인": 5202,
      "일": 5203,
      "읽": 5204,
      "임": 5205,
      "입": 5206,
      "있": 5207,
      "자": 5208,
      "작": 5209,
      "잘": 5210,
      "잡": 5211,
      "장": 5212,
      "재": 5213,
      "쟁": 5214,
      "저": 5215,
      "적": 5216,
      "전": 5217,
      "절": 5218,
      "점": 5219,
      "젓": 5220,
      "정": 5221,
      "젖": 5222,
      "제": 5223,
      "져": 5224,
      "조": 5225,
      "족": 5226,
      "존": 5227,
      "좀": 5228,
      "종": 5229,
      "좋": 5230,
      "주": 5231,
      "준": 5232,
      "중": 5233,
      "즈": 5234,
      "즉": 5235,
      "증": 5236,
      "지": 5237,
      "직": 5238,
      "진": 5239,
      "질": 5240,
      "집": 5241,
      "짓": 5242,
      "짜": 5243,
      "째": 5244,
      "창": 5245,
      "채": 5246,
      "책": 5247,
      "처": 5248,
      "천": 5249,
      "철": 5250,
      "첨": 5251,
      "청": 5252,
      "체": 5253,
      "초": 5254,
      "총": 5255,
      "최": 5256,
      "추": 5257,
      "축": 5258,
      "춘": 5259,
      "출": 5260,
      "측": 5261,
      "층": 5262,
      "치": 5263,
      "친": 5264,
      "카": 5265,
      "컨": 5266,
      "컴": 5267,
      "케": 5268,
      "코": 5269,
      "크": 5270,
      "클": 5271,
      "키": 5272,
      "킨": 5273,
      "킬": 5274,
      "타": 5275,
      "탁": 5276,
      "탄": 5277,
      "탕": 5278,
      "태": 5279,
      "탭": 5280,
      "터": 5281,
      "테": 5282,
      "템": 5283,
      "톤": 5284,
      "통": 5285,
      "퇴": 5286,
      "트": 5287,
      "특": 5288,
      "티": 5289,
      "틸": 5290,
      "팁": 5291,
      "파": 5292,
      "판": 5293,
      "팝": 5294,
      "펴": 5295,
      "편": 5296,
      "평": 5297,
      "포": 5298,
      "폼": 5299,
      "표": 5300,
      "품": 5301,
      "풍": 5302,
      "퓨": 5303,
      "플": 5304,
      "피": 5305,
      "하": 5306,
      "학": 5307,
      "한": 5308,
      "할": 5309,
      "함": 5310,
      "합": 5311,
      "항": 5312,
      "해": 5313,
      "핵": 5314,
      "행": 5315,
      "향": 5316,
      "허": 5317,
      "험": 5318,
      "현": 5319,
      "형": 5320,
      "호": 5321,
      "혹": 5322,
      "홉": 5323,
      "화": 5324,
      "확": 5325,
      "환": 5326,
      "활": 5327,
      "황": 5328,
      "회": 5329,
      "획": 5330,
      "효": 5331,
      "후": 5332,
      "훈": 5333,
      "휘": 5334,
      "힌": 5335,
      "": 5336,
      "": 5337,
      "": 5338,
      "": 5339,
      "ﬀ": 5340,
      "ﬁ": 5341,
      "ﬂ": 5342,
      "ﬃ": 5343,
      "ﬆ": 5344,
      "﴾": 5345,
      "﴿": 5346,
      "ﷺ": 5347,
      "︎": 5348,
      "️": 5349,
      "︠": 5350,
      "︡": 5351,
      "﹣": 5352,
      "！": 5353,
      "＆": 5354,
      "＇": 5355,
      "（": 5356,
      "）": 5357,
      "＊": 5358,
      "＋": 5359,
      "，": 5360,
      "－": 5361,
      "．": 5362,
      "／": 5363,
      "１": 5364,
      "２": 5365,
      "３": 5366,
      "４": 5367,
      "６": 5368,
      "７": 5369,
      "８": 5370,
      "：": 5371,
      "；": 5372,
      "＝": 5373,
      "？": 5374,
      "Ａ": 5375,
      "Ｂ": 5376,
      "Ｃ": 5377,
      "［": 5378,
      "］": 5379,
      "～": 5380,
      "ｮ": 5381,
      "ﾍ": 5382,
      "￡": 5383,
      "￥": 5384,
      "￼": 5385,
      "�": 5386,
      "𐌐": 5387,
      "𐌰": 5388,
      "𐌲": 5389,
      "𐍀": 5390,
      "𐤐": 5391,
      "𓀐": 5392,
      "𓂝": 5393,
      "𓄈": 5394,
      "𓅓": 5395,
      "𝄐": 5396,
      "𝐄": 5397,
      "𝐑": 5398,
      "𝐖": 5399,
      "𝐚": 5400,
      "𝐜": 5401,
      "𝐡": 5402,
      "𝐢": 5403,
      "𝐦": 5404,
      "𝐨": 5405,
      "𝐫": 5406,
      "𝐭": 5407,
      "𝐰": 5408,
      "𝐱": 5409,
      "𝐴": 5410,
      "𝐵": 5411,
      "𝐶": 5412,
      "𝐷": 5413,
      "𝐹": 5414,
      "𝑓": 5415,
      "𝑘": 5416,
      "𝑣": 5417,
      "𝑥": 5418,
      "𝗫": 5419,
      "𝜏": 5420,
      "𝟏": 5421,
      "𝟷": 5422,
      "𝟹": 5423,
      "𝟽": 5424,
      "𝟿": 5425,
      "🇦": 5426,
      "🇧": 5427,
      "🇨": 5428,
      "🇪": 5429,
      "🇬": 5430,
      "🇮": 5431,
      "🇰": 5432,
      "🇳": 5433,
      "🇵": 5434,
      "🇸": 5435,
      "🇺": 5436,
      "🇿": 5437,
      "🌈": 5438,
      "🌊": 5439,
      "🌍": 5440,
      "🌎": 5441,
      "🌏": 5442,
      "🌱": 5443,
      "🌳": 5444,
      "🌵": 5445,
      "🌸": 5446,
      "🌿": 5447,
      "🍎": 5448,
      "🍓": 5449,
      "🍩": 5450,
      "🎀": 5451,
      "🎁": 5452,
      "🎃": 5453,
      "🎓": 5454,
      "🎛": 5455,
      "🎥": 5456,
      "🎧": 5457,
      "🎩": 5458,
      "🎮": 5459,
      "🎯": 5460,
      "🎵": 5461,
      "🎶": 5462,
      "🏃": 5463,
      "🏗": 5464,
      "🏦": 5465,
      "🏫": 5466,
      "🏳": 5467,
      "🏻": 5468,
      "🏼": 5469,
      "🏽": 5470,
      "🏾": 5471,
      "🐇": 5472,
      "🐘": 5473,
      "🐚": 5474,
      "🐛": 5475,
      "🐡": 5476,
      "🐥": 5477,
      "🐻": 5478,
      "🐾": 5479,
      "👁": 5480,
      "👂": 5481,
      "👃": 5482,
      "👄": 5483,
      "👇": 5484,
      "👉": 5485,
      "👋": 5486,
      "👌": 5487,
      "👍": 5488,
      "👏": 5489,
      "👑": 5490,
      "👦": 5491,
      "👧": 5492,
      "👨": 5493,
      "👩": 5494,
      "👶": 5495,
      "👸": 5496,
      "👽": 5497,
      "💃": 5498,
      "💌": 5499,
      "💐": 5500,
      "💔": 5501,
      "💙": 5502,
      "💚": 5503,
      "💞": 5504,
      "💡": 5505,
      "💪": 5506,
      "💬": 5507,
      "💭": 5508,
      "💯": 5509,
      "💰": 5510,
      "💲": 5511,
      "💵": 5512,
      "💸": 5513,
      "💼": 5514,
      "📃": 5515,
      "📉": 5516,
      "📊": 5517,
      "📌": 5518,
      "📍": 5519,
      "📑": 5520,
      "📕": 5521,
      "📖": 5522,
      "📗": 5523,
      "📚": 5524,
      "📜": 5525,
      "📝": 5526,
      "📢": 5527,
      "📩": 5528,
      "📹": 5529,
      "🔁": 5530,
      "🔎": 5531,
      "🔔": 5532,
      "🔗": 5533,
      "🔠": 5534,
      "🔢": 5535,
      "🔥": 5536,
      "🔬": 5537,
      "🔴": 5538,
      "🔵": 5539,
      "🔷": 5540,
      "🔸": 5541,
      "🔼": 5542,
      "🔽": 5543,
      "🕑": 5544,
      "🕸": 5545,
      "🖐": 5546,
      "🖨": 5547,
      "🗨": 5548,
      "🗳": 5549,
      "🗽": 5550,
      "😀": 5551,
      "😁": 5552,
      "😂": 5553,
      "😃": 5554,
      "😅": 5555,
      "😆": 5556,
      "😉": 5557,
      "😊": 5558,
      "😋": 5559,
      "😌": 5560,
      "😎": 5561,
      "😏": 5562,
      "😐": 5563,
      "😓": 5564,
      "😕": 5565,
      "😛": 5566,
      "😜": 5567,
      "😞": 5568,
      "😡": 5569,
      "😢": 5570,
      "😣": 5571,
      "😦": 5572,
      "😨": 5573,
      "😩": 5574,
      "😬": 5575,
      "😮": 5576,
      "😱": 5577,
      "😲": 5578,
      "😳": 5579,
      "😶": 5580,
      "🙁": 5581,
      "🙂": 5582,
      "🙄": 5583,
      "🙋": 5584,
      "🙌": 5585,
      "🙏": 5586,
      "🚀": 5587,
      "🚒": 5588,
      "🚗": 5589,
      "🚨": 5590,
      "🚲": 5591,
      "🚴": 5592,
      "🚸": 5593,
      "🛀": 5594,
      "🤑": 5595,
      "🤔": 5596,
      "🤖": 5597,
      "🤗": 5598,
      "🤞": 5599,
      "🤣": 5600,
      "🤦": 5601,
      "🤨": 5602,
      "🤩": 5603,
      "🤯": 5604,
      "🤴": 5605,
      "🤷": 5606,
      "🤿": 5607,
      "🥌": 5608,
      "🦪": 5609,
      "🧠": 5610,
      "🧡": 5611,
      "🪓": 5612,
      "𨽍": 5613,
      "th": 5614,
      "in": 5615,
      "an": 5616,
      "er": 5617,
      "the": 5618,
      "on": 5619,
      "re": 5620,
      "at": 5621,
      "en": 5622,
      "or": 5623,
      "es": 5624,
      "al": 5625,
      "is": 5626,
      "ed": 5627,
      "of": 5628,
      "and": 5629,
      "ou": 5630,
      "to": 5631,
      "ar": 5632,
      "ing": 5633,
      "it": 5634,
      "as": 5635,
      "ic": 5636,
      "ion": 5637,
      "le": 5638,
      "st": 5639,
      "ro": 5640,
      "ent": 5641,
      "ch": 5642,
      "se": 5643,
      "ct": 5644,
      "il": 5645,
      "he": 5646,
      "ve": 5647,
      "om": 5648,
      "be": 5649,
      "ly": 5650,
      "de": 5651,
      "for": 5652,
      "ol": 5653,
      "ation": 5654,
      "ce": 5655,
      "im": 5656,
      "ow": 5657,
      "am": 5658,
      "are": 5659,
      "su": 5660,
      "ad": 5661,
      "ig": 5662,
      "that": 5663,
      "ver": 5664,
      "wh": 5665,
      "ter": 5666,
      "ir": 5667,
      "con": 5668,
      "ab": 5669,
      "pro": 5670,
      "id": 5671,
      "ay": 5672,
      "ur": 5673,
      "ot": 5674,
      "un": 5675,
      "ith": 5676,
      "The": 5677,
      "ge": 5678,
      "us": 5679,
      "ut": 5680,
      "ul": 5681,
      "pe": 5682,
      "our": 5683,
      "with": 5684,
      "mo": 5685,
      "com": 5686,
      "tr": 5687,
      "ac": 5688,
      "lo": 5689,
      "ther": 5690,
      "res": 5691,
      "if": 5692,
      "ex": 5693,
      "ment": 5694,
      "ap": 5695,
      "ne": 5696,
      "ts": 5697,
      "ers": 5698,
      "ate": 5699,
      "em": 5700,
      "we": 5701,
      "pl": 5702,
      "ain": 5703,
      "all": 5704,
      "ies": 5705,
      "ill": 5706,
      "ess": 5707,
      "ke": 5708,
      "so": 5709,
      "act": 5710,
      "ha": 5711,
      "od": 5712,
      "ity": 5713,
      "oun": 5714,
      "ld": 5715,
      "op": 5716,
      "by": 5717,
      "est": 5718,
      "ive": 5719,
      "te": 5720,
      "igh": 5721,
      "rom": 5722,
      "ere": 5723,
      "iv": 5724,
      "qu": 5725,
      "can": 5726,
      "ag": 5727,
      "was": 5728,
      "per": 5729,
      "um": 5730,
      "out": 5731,
      "from": 5732,
      "et": 5733,
      "Th": 5734,
      "ist": 5735,
      "sh": 5736,
      "po": 5737,
      "ci": 5738,
      "ant": 5739,
      "In": 5740,
      "ll": 5741,
      "not": 5742,
      "art": 5743,
      "you": 5744,
      "fe": 5745,
      "wor": 5746,
      "one": 5747,
      "cl": 5748,
      "ud": 5749,
      "ical": 5750,
      "have": 5751,
      "gr": 5752,
      "this": 5753,
      "ma": 5754,
      "du": 5755,
      "li": 5756,
      "pr": 5757,
      "co": 5758,
      "me": 5759,
      "ort": 5760,
      "ure": 5761,
      "ich": 5762,
      "00": 5763,
      "der": 5764,
      "gh": 5765,
      "ib": 5766,
      "ould": 5767,
      "str": 5768,
      "age": 5769,
      "ions": 5770,
      "man": 5771,
      "ear": 5772,
      "do": 5773,
      "ated": 5774,
      "ine": 5775,
      "use": 5776,
      "ome": 5777,
      "ans": 5778,
      "their": 5779,
      "end": 5780,
      "ard": 5781,
      "dis": 5782,
      "ough": 5783,
      "ight": 5784,
      "other": 5785,
      "ach": 5786,
      "which": 5787,
      "ind": 5788,
      "ide": 5789,
      "ally": 5790,
      "ip": 5791,
      "ous": 5792,
      "they": 5793,
      "fo": 5794,
      "ie": 5795,
      "your": 5796,
      "ia": 5797,
      "has": 5798,
      "ound": 5799,
      "ence": 5800,
      "iz": 5801,
      "cre": 5802,
      "able": 5803,
      "19": 5804,
      "more": 5805,
      "will": 5806,
      "form": 5807,
      "up": 5808,
      "port": 5809,
      "ast": 5810,
      "ong": 5811,
      "pre": 5812,
      "fer": 5813,
      "ass": 5814,
      "ish": 5815,
      "ial": 5816,
      "ca": 5817,
      "el": 5818,
      "go": 5819,
      "ev": 5820,
      "ph": 5821,
      "its": 5822,
      "king": 5823,
      "ary": 5824,
      "ater": 5825,
      "ction": 5826,
      "tim": 5827,
      "ple": 5828,
      "cr": 5829,
      "av": 5830,
      "low": 5831,
      "but": 5832,
      "ks": 5833,
      "ations": 5834,
      "cont": 5835,
      "ire": 5836,
      "sy": 5837,
      "og": 5838,
      "now": 5839,
      "af": 5840,
      "ild": 5841,
      "were": 5842,
      "ust": 5843,
      "pres": 5844,
      "ren": 5845,
      "also": 5846,
      "ents": 5847,
      "ta": 5848,
      "bo": 5849,
      "ef": 5850,
      "ber": 5851,
      "br": 5852,
      "20": 5853,
      "ame": 5854,
      "ace": 5855,
      "ign": 5856,
      "part": 5857,
      "comm": 5858,
      "bl": 5859,
      "pos": 5860,
      "cess": 5861,
      "It": 5862,
      "who": 5863,
      "Wh": 5864,
      "ance": 5865,
      "no": 5866,
      "ition": 5867,
      "spe": 5868,
      "ice": 5869,
      "This": 5870,
      "aw": 5871,
      "some": 5872,
      "cent": 5873,
      "ase": 5874,
      "very": 5875,
      "gen": 5876,
      "about": 5877,
      "ack": 5878,
      "stud": 5879,
      "ty": 5880,
      "his": 5881,
      "ens": 5882,
      "ite": 5883,
      "them": 5884,
      "ory": 5885,
      ").": 5886,
      "inter": 5887,
      "ang": 5888,
      "ep": 5889,
      "Ch": 5890,
      "sp": 5891,
      "ser": 5892,
      "ces": 5893,
      "any": 5894,
      "col": 5895,
      "than": 5896,
      "over": 5897,
      "ree": 5898,
      "ors": 5899,
      "An": 5900,
      "dr": 5901,
      "year": 5902,
      "way": 5903,
      "St": 5904,
      "cor": 5905,
      "ian": 5906,
      "may": 5907,
      "most": 5908,
      "ile": 5909,
      "reat": 5910,
      "own": 5911,
      "fect": 5912,
      "ates": 5913,
      "time": 5914,
      "int": 5915,
      "ople": 5916,
      "work": 5917,
      "there": 5918,
      "bet": 5919,
      "like": 5920,
      "when": 5921,
      "cur": 5922,
      "been": 5923,
      "olog": 5924,
      "used": 5925,
      "ult": 5926,
      "into": 5927,
      "dif": 5928,
      "fr": 5929,
      "arch": 5930,
      "how": 5931,
      "ings": 5932,
      "ob": 5933,
      "comp": 5934,
      "pt": 5935,
      "des": 5936,
      "day": 5937,
      "wo": 5938,
      "these": 5939,
      "ful": 5940,
      "alth": 5941,
      "know": 5942,
      "ok": 5943,
      "people": 5944,
      "fl": 5945,
      "new": 5946,
      "prov": 5947,
      "had": 5948,
      "mer": 5949,
      "vers": 5950,
      "land": 5951,
      "ual": 5952,
      "hel": 5953,
      "fir": 5954,
      "lop": 5955,
      "je": 5956,
      "Un": 5957,
      "cho": 5958,
      "stem": 5959,
      "lect": 5960,
      "ms": 5961,
      "under": 5962,
      "sa": 5963,
      "ue": 5964,
      "fore": 5965,
      "cause": 5966,
      "row": 5967,
      "ities": 5968,
      "incl": 5969,
      "ific": 5970,
      "med": 5971,
      "rel": 5972,
      "ments": 5973,
      "would": 5974,
      "thr": 5975,
      "min": 5976,
      "coun": 5977,
      "ied": 5978,
      "such": 5979,
      "only": 5980,
      "ning": 5981,
      "cer": 5982,
      "lear": 5983,
      "high": 5984,
      "ating": 5985,
      "reg": 5986,
      "produ": 5987,
      "need": 5988,
      "velop": 5989,
      "old": 5990,
      "ative": 5991,
      "mon": 5992,
      "ext": 5993,
      "child": 5994,
      "what": 5995,
      "ck": 5996,
      "many": 5997,
      "ject": 5998,
      "ys": 5999,
      "get": 6000,
      "ational": 6001,
      "200": 6002,
      "ail": 6003,
      "sur": 6004,
      "ose": 6005,
      "cy": 6006,
      "cial": 6007,
      "att": 6008,
      "sel": 6009,
      "ious": 6010,
      "help": 6011,
      "ular": 6012,
      "ak": 6013,
      "through": 6014,
      "her": 6015,
      "He": 6016,
      "ons": 6017,
      "),": 6018,
      "ced": 6019,
      "red": 6020,
      "ten": 6021,
      "system": 6022,
      "ics": 6023,
      "10": 6024,
      "ting": 6025,
      "develop": 6026,
      "first": 6027,
      "fic": 6028,
      "As": 6029,
      "rit": 6030,
      "18": 6031,
      "vel": 6032,
      "ath": 6033,
      "We": 6034,
      "cal": 6035,
      "les": 6036,
      "ever": 6037,
      "well": 6038,
      "differ": 6039,
      "water": 6040,
      "Re": 6041,
      "mar": 6042,
      "ise": 6043,
      "two": 6044,
      "add": 6045,
      "par": 6046,
      "tain": 6047,
      "stand": 6048,
      "ress": 6049,
      "au": 6050,
      "where": 6051,
      "stru": 6052,
      "read": 6053,
      "ubl": 6054,
      "ible": 6055,
      "os": 6056,
      "ility": 6057,
      "ict": 6058,
      "ra": 6059,
      "ble": 6060,
      "less": 6061,
      "lif": 6062,
      "bu": 6063,
      "sup": 6064,
      "uring": 6065,
      "cond": 6066,
      "ased": 6067,
      "ange": 6068,
      "serv": 6069,
      "car": 6070,
      "als": 6071,
      "sul": 6072,
      "should": 6073,
      "inv": 6074,
      "lar": 6075,
      "cons": 6076,
      "search": 6077,
      "my": 6078,
      "main": 6079,
      "pers": 6080,
      "sub": 6081,
      "come": 6082,
      "years": 6083,
      "ween": 6084,
      "oc": 6085,
      "ss": 6086,
      "ew": 6087,
      "health": 6088,
      "ick": 6089,
      "air": 6090,
      "long": 6091,
      "For": 6092,
      "pol": 6093,
      "di": 6094,
      "vir": 6095,
      "tern": 6096,
      "If": 6097,
      "gan": 6098,
      "requ": 6099,
      "trans": 6100,
      "then": 6101,
      "fin": 6102,
      "fact": 6103,
      "ution": 6104,
      "thing": 6105,
      "between": 6106,
      "plan": 6107,
      "could": 6108,
      "En": 6109,
      "ds": 6110,
      "just": 6111,
      "ins": 6112,
      "ures": 6113,
      "ese": 6114,
      "peri": 6115,
      "try": 6116,
      "see": 6117,
      "make": 6118,
      "formation": 6119,
      "ily": 6120,
      "201": 6121,
      "exam": 6122,
      "eng": 6123,
      "gy": 6124,
      "iss": 6125,
      "ident": 6126,
      "num": 6127,
      "ho": 6128,
      "Ar": 6129,
      "import": 6130,
      "ural": 6131,
      "ited": 6132,
      "Con": 6133,
      "spec": 6134,
      "How": 6135,
      "ted": 6136,
      "De": 6137,
      "includ": 6138,
      "chn": 6139,
      "after": 6140,
      "fun": 6141,
      "chool": 6142,
      "even": 6143,
      "meric": 6144,
      "uch": 6145,
      "call": 6146,
      "uc": 6147,
      "Americ": 6148,
      "Al": 6149,
      "lin": 6150,
      "incre": 6151,
      "world": 6152,
      "each": 6153,
      "life": 6154,
      "research": 6155,
      "found": 6156,
      "vis": 6157,
      "sim": 6158,
      "gener": 6159,
      "because": 6160,
      "set": 6161,
      "hum": 6162,
      "val": 6163,
      "ists": 6164,
      "effect": 6165,
      "ology": 6166,
      "led": 6167,
      "sure": 6168,
      "different": 6169,
      "ata": 6170,
      "gram": 6171,
      "fol": 6172,
      "cus": 6173,
      "vent": 6174,
      "urn": 6175,
      "ature": 6176,
      "pat": 6177,
      "ness": 6178,
      "ivers": 6179,
      "app": 6180,
      "var": 6181,
      "ives": 6182,
      "publ": 6183,
      "sm": 6184,
      "ages": 6185,
      "being": 6186,
      "sign": 6187,
      "ower": 6188,
      "those": 6189,
      "ically": 6190,
      "Com": 6191,
      "hy": 6192,
      "io": 6193,
      "ters": 6194,
      "There": 6195,
      "ety": 6196,
      "ps": 6197,
      "cour": 6198,
      "ism": 6199,
      "self": 6200,
      "ved": 6201,
      "They": 6202,
      "children": 6203,
      "bod": 6204,
      "process": 6205,
      "every": 6206,
      "gu": 6207,
      "using": 6208,
      "Pro": 6209,
      "ri": 6210,
      "said": 6211,
      "iew": 6212,
      "present": 6213,
      "ris": 6214,
      "sol": 6215,
      "off": 6216,
      "back": 6217,
      "say": 6218,
      "soci": 6219,
      "blo": 6220,
      "partic": 6221,
      "resul": 6222,
      "sk": 6223,
      "commun": 6224,
      "vi": 6225,
      "fam": 6226,
      "cord": 6227,
      "ices": 6228,
      ".”": 6229,
      "though": 6230,
      "pect": 6231,
      "level": 6232,
      "press": 6233,
      "important": 6234,
      "So": 6235,
      "techn": 6236,
      "ves": 6237,
      "information": 6238,
      "ener": 6239,
      "gl": 6240,
      "ases": 6241,
      "much": 6242,
      "food": 6243,
      "mem": 6244,
      "nor": 6245,
      "emp": 6246,
      "made": 6247,
      "person": 6248,
      "lead": 6249,
      "ider": 6250,
      "bre": 6251,
      "resp": 6252,
      "cell": 6253,
      "ry": 6254,
      "she": 6255,
      "follow": 6256,
      "during": 6257,
      "But": 6258,
      "cept": 6259,
      "ized": 6260,
      "cap": 6261,
      "Mo": 6262,
      "ize": 6263,
      "grow": 6264,
      "sci": 6265,
      "students": 6266,
      "gg": 6267,
      "same": 6268,
      "arm": 6269,
      "..": 6270,
      "prote": 6271,
      "take": 6272,
      "does": 6273,
      "hist": 6274,
      "poss": 6275,
      "char": 6276,
      "study": 6277,
      "ways": 6278,
      "data": 6279,
      "find": 6280,
      "line": 6281,
      "top": 6282,
      "grou": 6283,
      "good": 6284,
      "pop": 6285,
      "ward": 6286,
      "Se": 6287,
      "ude": 6288,
      "dep": 6289,
      "both": 6290,
      "play": 6291,
      "light": 6292,
      "New": 6293,
      "proble": 6294,
      "state": 6295,
      "You": 6296,
      "ric": 6297,
      ".,": 6298,
      "school": 6299,
      "Be": 6300,
      "comple": 6301,
      "What": 6302,
      "mat": 6303,
      "clo": 6304,
      "ix": 6305,
      "inst": 6306,
      "organ": 6307,
      "treat": 6308,
      "while": 6309,
      "tra": 6310,
      "power": 6311,
      "ability": 6312,
      "small": 6313,
      "before": 6314,
      "place": 6315,
      "don": 6316,
      "view": 6317,
      "viron": 6318,
      "ink": 6319,
      "down": 6320,
      "care": 6321,
      "show": 6322,
      "ner": 6323,
      "ving": 6324,
      "ug": 6325,
      "ship": 6326,
      "ient": 6327,
      "often": 6328,
      "body": 6329,
      "let": 6330,
      "lit": 6331,
      "ince": 6332,
      "again": 6333,
      "order": 6334,
      "omen": 6335,
      "||": 6336,
      "15": 6337,
      "To": 6338,
      "la": 6339,
      "ality": 6340,
      "ivid": 6341,
      "put": 6342,
      "contro": 6343,
      "him": 6344,
      "issu": 6345,
      "activ": 6346,
      "ars": 6347,
      "trib": 6348,
      "When": 6349,
      "plic": 6350,
      "ants": 6351,
      "gre": 6352,
      "On": 6353,
      "hand": 6354,
      "number": 6355,
      "struct": 6356,
      "net": 6357,
      "ished": 6358,
      "And": 6359,
      "ger": 6360,
      "exp": 6361,
      "program": 6362,
      "12": 6363,
      "dise": 6364,
      "human": 6365,
      "right": 6366,
      "class": 6367,
      "known": 6368,
      "199": 6369,
      "allow": 6370,
      "del": 6371,
      "appro": 6372,
      "leg": 6373,
      "gover": 6374,
      "ven": 6375,
      "irect": 6376,
      "design": 6377,
      "000": 6378,
      "mal": 6379,
      "These": 6380,
      "ord": 6381,
      "vironment": 6382,
      "tle": 6383,
      "ences": 6384,
      "ute": 6385,
      "elect": 6386,
      "iversity": 6387,
      "ides": 6388,
      "sum": 6389,
      "ub": 6390,
      "three": 6391,
      "tal": 6392,
      "around": 6393,
      "called": 6394,
      "cover": 6395,
      "example": 6396,
      "must": 6397,
      "iving": 6398,
      "lim": 6399,
      "ash": 6400,
      "test": 6401,
      "sever": 6402,
      "turn": 6403,
      "ulation": 6404,
      "contin": 6405,
      "including": 6406,
      "bal": 6407,
      "ital": 6408,
      "teach": 6409,
      "17": 6410,
      "aren": 6411,
      "great": 6412,
      "redu": 6413,
      "kes": 6414,
      "did": 6415,
      "Ex": 6416,
      "large": 6417,
      "mot": 6418,
      "Is": 6419,
      "change": 6420,
      "govern": 6421,
      "based": 6422,
      "grap": 6423,
      "ield": 6424,
      "cle": 6425,
      "ury": 6426,
      "ually": 6427,
      "sing": 6428,
      "flu": 6429,
      "writ": 6430,
      "tem": 6431,
      "point": 6432,
      "equ": 6433,
      "public": 6434,
      "ton": 6435,
      "ared": 6436,
      "mp": 6437,
      "ross": 6438,
      "ouse": 6439,
      "build": 6440,
      "consider": 6441,
      "eas": 6442,
      "16": 6443,
      "por": 6444,
      "support": 6445,
      "understand": 6446,
      "educ": 6447,
      "ather": 6448,
      "ional": 6449,
      "itions": 6450,
      "Res": 6451,
      "quest": 6452,
      "acter": 6453,
      ",”": 6454,
      "pract": 6455,
      "dec": 6456,
      "uro": 6457,
      "men": 6458,
      "oper": 6459,
      "product": 6460,
      "chang": 6461,
      "conom": 6462,
      "bi": 6463,
      "appe": 6464,
      "still": 6465,
      "start": 6466,
      "move": 6467,
      "Pr": 6468,
      "vol": 6469,
      "experi": 6470,
      "30": 6471,
      "At": 6472,
      "imp": 6473,
      "too": 6474,
      "American": 6475,
      "ave": 6476,
      "curren": 6477,
      "iven": 6478,
      "outh": 6479,
      "aterial": 6480,
      "ividual": 6481,
      "ately": 6482,
      "miss": 6483,
      "typ": 6484,
      "ential": 6485,
      "Tr": 6486,
      "came": 6487,
      ".\"": 6488,
      "thod": 6489,
      "gn": 6490,
      "pur": 6491,
      "prof": 6492,
      "few": 6493,
      "ired": 6494,
      "war": 6495,
      "pass": 6496,
      "law": 6497,
      "uses": 6498,
      "However": 6499,
      "sit": 6500,
      "might": 6501,
      "term": 6502,
      "want": 6503,
      "face": 6504,
      "phys": 6505,
      "pain": 6506,
      "ond": 6507,
      "adv": 6508,
      "itive": 6509,
      "energy": 6510,
      "pot": 6511,
      "environment": 6512,
      "depend": 6513,
      "Ad": 6514,
      "ources": 6515,
      "without": 6516,
      "bers": 6517,
      "home": 6518,
      "ron": 6519,
      "University": 6520,
      "head": 6521,
      "ben": 6522,
      "common": 6523,
      "ization": 6524,
      "within": 6525,
      "ights": 6526,
      "inal": 6527,
      "direct": 6528,
      "learn": 6529,
      "til": 6530,
      "mill": 6531,
      "loc": 6532,
      "social": 6533,
      "stit": 6534,
      "ived": 6535,
      "individual": 6536,
      "ids": 6537,
      "iqu": 6538,
      "ason": 6539,
      "nat": 6540,
      "und": 6541,
      "action": 6542,
      "development": 6543,
      "Wor": 6544,
      "jo": 6545,
      "mic": 6546,
      "50": 6547,
      "cording": 6548,
      "ove": 6549,
      "mus": 6550,
      "material": 6551,
      "14": 6552,
      "ah": 6553,
      "cult": 6554,
      "ier": 6555,
      "possible": 6556,
      "anal": 6557,
      "ark": 6558,
      "ele": 6559,
      "dist": 6560,
      "area": 6561,
      "nam": 6562,
      "women": 6563,
      "ran": 6564,
      "beli": 6565,
      "disease": 6566,
      "angu": 6567,
      "another": 6568,
      "met": 6569,
      "ense": 6570,
      "risk": 6571,
      "report": 6572,
      "ask": 6573,
      "sto": 6574,
      "thor": 6575,
      "ples": 6576,
      "ye": 6577,
      "bas": 6578,
      "project": 6579,
      "real": 6580,
      "econom": 6581,
      "ium": 6582,
      "look": 6583,
      "gin": 6584,
      "mil": 6585,
      "book": 6586,
      "last": 6587,
      "indu": 6588,
      "dom": 6589,
      "non": 6590,
      "control": 6591,
      "Le": 6592,
      "Bo": 6593,
      "arr": 6594,
      "contain": 6595,
      "jor": 6596,
      "ade": 6597,
      "ore": 6598,
      "include": 6599,
      "meas": 6600,
      "here": 6601,
      "government": 6602,
      "che": 6603,
      "ref": 6604,
      "anim": 6605,
      "bor": 6606,
      "early": 6607,
      "blood": 6608,
      "suc": 6609,
      "name": 6610,
      "ake": 6611,
      "Jo": 6612,
      "Col": 6613,
      "plant": 6614,
      "fac": 6615,
      "keep": 6616,
      "Nor": 6617,
      "iness": 6618,
      "13": 6619,
      "best": 6620,
      "ues": 6621,
      "proper": 6622,
      "vari": 6623,
      "comes": 6624,
      "ban": 6625,
      "ination": 6626,
      "become": 6627,
      "group": 6628,
      "Ind": 6629,
      "method": 6630,
      "ww": 6631,
      "second": 6632,
      "tion": 6633,
      "against": 6634,
      "ines": 6635,
      "Can": 6636,
      "All": 6637,
      "better": 6638,
      "bus": 6639,
      "usu": 6640,
      "Dr": 6641,
      "national": 6642,
      "ground": 6643,
      "post": 6644,
      "ians": 6645,
      "ken": 6646,
      "amp": 6647,
      "enter": 6648,
      "avail": 6649,
      "Pl": 6650,
      "certain": 6651,
      "ats": 6652,
      "ests": 6653,
      "ource": 6654,
      "family": 6655,
      "mit": 6656,
      "cing": 6657,
      "itional": 6658,
      "hold": 6659,
      "free": 6660,
      "United": 6661,
      "open": 6662,
      "history": 6663,
      "ator": 6664,
      "itical": 6665,
      "Ph": 6666,
      "feel": 6667,
      "Co": 6668,
      "means": 6669,
      "provide": 6670,
      "ket": 6671,
      "ency": 6672,
      "aim": 6673,
      "particular": 6674,
      "artic": 6675,
      "US": 6676,
      "current": 6677,
      "major": 6678,
      "Or": 6679,
      "ify": 6680,
      "near": 6681,
      "mean": 6682,
      "field": 6683,
      "11": 6684,
      "cu": 6685,
      "ones": 6686,
      "percent": 6687,
      "run": 6688,
      "orig": 6689,
      "dam": 6690,
      "ste": 6691,
      "ended": 6692,
      "rad": 6693,
      "cut": 6694,
      "learning": 6695,
      "ills": 6696,
      "One": 6697,
      "site": 6698,
      "species": 6699,
      "flow": 6700,
      "ified": 6701,
      "several": 6702,
      "descr": 6703,
      "fort": 6704,
      "az": 6705,
      "chem": 6706,
      "type": 6707,
      "remain": 6708,
      "rist": 6709,
      "ological": 6710,
      "happ": 6711,
      "bro": 6712,
      "invol": 6713,
      "God": 6714,
      "bir": 6715,
      "langu": 6716,
      "wee": 6717,
      "mun": 6718,
      "ards": 6719,
      "scient": 6720,
      "period": 6721,
      "benef": 6722,
      "cted": 6723,
      "interest": 6724,
      "Ac": 6725,
      "things": 6726,
      "plain": 6727,
      "plac": 6728,
      "ients": 6729,
      "list": 6730,
      "lab": 6731,
      "idence": 6732,
      "case": 6733,
      "ply": 6734,
      "NA": 6735,
      "conne": 6736,
      "ina": 6737,
      "cost": 6738,
      "since": 6739,
      "think": 6740,
      "ustr": 6741,
      "areas": 6742,
      "occur": 6743,
      "four": 6744,
      "others": 6745,
      "ories": 6746,
      "trad": 6747,
      "among": 6748,
      "Some": 6749,
      "treatment": 6750,
      "far": 6751,
      "access": 6752,
      "ft": 6753,
      "whe": 6754,
      "making": 6755,
      "local": 6756,
      "cul": 6757,
      "dev": 6758,
      "tre": 6759,
      "Ro": 6760,
      "available": 6761,
      "ided": 6762,
      "fil": 6763,
      "tell": 6764,
      "says": 6765,
      "side": 6766,
      "With": 6767,
      "graph": 6768,
      "States": 6769,
      ",\"": 6770,
      "signific": 6771,
      "affect": 6772,
      "key": 6773,
      "times": 6774,
      "tract": 6775,
      "Sh": 6776,
      "--": 6777,
      "Af": 6778,
      "ths": 6779,
      "ilar": 6780,
      "tic": 6781,
      "following": 6782,
      "Med": 6783,
      "National": 6784,
      "prevent": 6785,
      "abl": 6786,
      "rop": 6787,
      "tru": 6788,
      "natural": 6789,
      "country": 6790,
      "house": 6791,
      "atic": 6792,
      "paren": 6793,
      "ann": 6794,
      "Mar": 6795,
      "tw": 6796,
      "ls": 6797,
      "model": 6798,
      "success": 6799,
      "cogn": 6800,
      "ably": 6801,
      "nal": 6802,
      "posed": 6803,
      "object": 6804,
      "By": 6805,
      "__": 6806,
      "tail": 6807,
      "ale": 6808,
      "ches": 6809,
      "urther": 6810,
      "train": 6811,
      "imes": 6812,
      "ax": 6813,
      "systems": 6814,
      "aper": 6815,
      "Christ": 6816,
      "25": 6817,
      "acy": 6818,
      "ior": 6819,
      "ctor": 6820,
      "Euro": 6821,
      "later": 6822,
      "havi": 6823,
      "cells": 6824,
      "Sci": 6825,
      "likely": 6826,
      "tom": 6827,
      "ime": 6828,
      "position": 6829,
      "cially": 6830,
      "cir": 6831,
      "rece": 6832,
      "words": 6833,
      "course": 6834,
      "prove": 6835,
      "function": 6836,
      "little": 6837,
      "pan": 6838,
      "associ": 6839,
      "given": 6840,
      "youn": 6841,
      "exper": 6842,
      "clear": 6843,
      "ready": 6844,
      "century": 6845,
      "glo": 6846,
      "rest": 6847,
      "room": 6848,
      "levels": 6849,
      "brain": 6850,
      "ox": 6851,
      "amoun": 6852,
      "until": 6853,
      "problems": 6854,
      "II": 6855,
      "wide": 6856,
      "No": 6857,
      "Pe": 6858,
      "Gr": 6859,
      "198": 6860,
      "result": 6861,
      "ised": 6862,
      "son": 6863,
      "industr": 6864,
      "comb": 6865,
      "aster": 6866,
      "Europe": 6867,
      "lot": 6868,
      "works": 6869,
      "centr": 6870,
      "imate": 6871,
      "specific": 6872,
      "Ger": 6873,
      "seem": 6874,
      "due": 6875,
      "ances": 6876,
      "Ear": 6877,
      "refer": 6878,
      "impact": 6879,
      "hn": 6880,
      "usually": 6881,
      "agement": 6882,
      "sugg": 6883,
      "sis": 6884,
      "hard": 6885,
      "author": 6886,
      "sequ": 6887,
      "pet": 6888,
      "tries": 6889,
      "defin": 6890,
      "aged": 6891,
      "problem": 6892,
      "ither": 6893,
      "oks": 6894,
      "cuss": 6895,
      "something": 6896,
      "ledge": 6897,
      "ision": 6898,
      "That": 6899,
      "acc": 6900,
      "ht": 6901,
      "exist": 6902,
      "lands": 6903,
      "days": 6904,
      "gether": 6905,
      "hal": 6906,
      "toms": 6907,
      "significant": 6908,
      "short": 6909,
      "40": 6910,
      "ends": 6911,
      "along": 6912,
      "related": 6913,
      "mind": 6914,
      "word": 6915,
      "uture": 6916,
      "space": 6917,
      "invest": 6918,
      "atch": 6919,
      "oid": 6920,
      "den": 6921,
      "aps": 6922,
      "heart": 6923,
      "education": 6924,
      "ought": 6925,
      "recent": 6926,
      "mult": 6927,
      "working": 6928,
      "har": 6929,
      "always": 6930,
      "behavi": 6931,
      "million": 6932,
      "bit": 6933,
      "hol": 6934,
      "rele": 6935,
      "necess": 6936,
      "tar": 6937,
      "death": 6938,
      "symp": 6939,
      "suf": 6940,
      "community": 6941,
      "Sy": 6942,
      "language": 6943,
      "ont": 6944,
      "vious": 6945,
      "ned": 6946,
      "population": 6947,
      "give": 6948,
      "sc": 6949,
      "increase": 6950,
      "Go": 6951,
      "mission": 6952,
      "lower": 6953,
      "effective": 6954,
      "ours": 6955,
      "step": 6956,
      "create": 6957,
      "fish": 6958,
      "cancer": 6959,
      "eral": 6960,
      "establ": 6961,
      "diffic": 6962,
      "similar": 6963,
      "Of": 6964,
      "ler": 6965,
      "results": 6966,
      "kind": 6967,
      "above": 6968,
      "today": 6969,
      "why": 6970,
      "together": 6971,
      "Ne": 6972,
      "loy": 6973,
      "technology": 6974,
      "eth": 6975,
      "Afr": 6976,
      "aring": 6977,
      "bur": 6978,
      "strong": 6979,
      "temper": 6980,
      "Brit": 6981,
      "special": 6982,
      "John": 6983,
      "Po": 6984,
      "complete": 6985,
      "needs": 6986,
      "away": 6987,
      "changes": 6988,
      "sw": 6989,
      "ped": 6990,
      "conditions": 6991,
      "bon": 6992,
      "ication": 6993,
      "approach": 6994,
      "fall": 6995,
      "iver": 6996,
      "experience": 6997,
      "wr": 6998,
      "hab": 6999,
      "ently": 7000,
      "espe": 7001,
      "active": 7002,
      "Afric": 7003,
      "character": 7004,
      "While": 7005,
      "reach": 7006,
      "plants": 7007,
      "quality": 7008,
      "nut": 7009,
      "respons": 7010,
      "next": 7011,
      "especially": 7012,
      "ctions": 7013,
      "Do": 7014,
      "asing": 7015,
      "future": 7016,
      "iate": 7017,
      "begin": 7018,
      "ators": 7019,
      "tribut": 7020,
      "applic": 7021,
      "mag": 7022,
      "ling": 7023,
      "Me": 7024,
      "ush": 7025,
      "aut": 7026,
      "ensive": 7027,
      "count": 7028,
      "across": 7029,
      "gar": 7030,
      "earch": 7031,
      "relation": 7032,
      "higher": 7033,
      "never": 7034,
      "web": 7035,
      "selves": 7036,
      "ik": 7037,
      "business": 7038,
      "going": 7039,
      "young": 7040,
      "60": 7041,
      "past": 7042,
      "various": 7043,
      "least": 7044,
      "profess": 7045,
      "however": 7046,
      "hor": 7047,
      "After": 7048,
      "fully": 7049,
      "sal": 7050,
      "Car": 7051,
      "pression": 7052,
      "Coun": 7053,
      "left": 7054,
      "science": 7055,
      "issues": 7056,
      "formed": 7057,
      "ental": 7058,
      "tool": 7059,
      "ured": 7060,
      "Engl": 7061,
      "oney": 7062,
      "countries": 7063,
      "sens": 7064,
      "offic": 7065,
      "big": 7066,
      "strate": 7067,
      "atures": 7068,
      "uter": 7069,
      "enough": 7070,
      "ilities": 7071,
      "having": 7072,
      "lack": 7073,
      "English": 7074,
      "role": 7075,
      "issue": 7076,
      "Dis": 7077,
      "text": 7078,
      "ene": 7079,
      "city": 7080,
      "types": 7081,
      "aves": 7082,
      "grad": 7083,
      "World": 7084,
      "expect": 7085,
      "rodu": 7086,
      "thern": 7087,
      "ique": 7088,
      "ster": 7089,
      "21": 7090,
      "concer": 7091,
      "improve": 7092,
      "moder": 7093,
      "IS": 7094,
      "War": 7095,
      "Cl": 7096,
      "prim": 7097,
      "represent": 7098,
      "general": 7099,
      "atory": 7100,
      "Ge": 7101,
      "require": 7102,
      "ially": 7103,
      "discuss": 7104,
      "24": 7105,
      "cases": 7106,
      "stre": 7107,
      "oto": 7108,
      "ention": 7109,
      "Stud": 7110,
      "chan": 7111,
      "team": 7112,
      "bar": 7113,
      "ands": 7114,
      "ae": 7115,
      "omet": 7116,
      "loss": 7117,
      "ane": 7118,
      "full": 7119,
      "197": 7120,
      "Health": 7121,
      "reason": 7122,
      "production": 7123,
      "rate": 7124,
      "activity": 7125,
      "knowledge": 7126,
      "effects": 7127,
      "100": 7128,
      "gress": 7129,
      "amin": 7130,
      "minis": 7131,
      "ysis": 7132,
      "subject": 7133,
      "Cal": 7134,
      "physical": 7135,
      "whether": 7136,
      "oral": 7137,
      "eds": 7138,
      "became": 7139,
      "dig": 7140,
      "sun": 7141,
      "Te": 7142,
      "force": 7143,
      "org": 7144,
      "ires": 7145,
      "studies": 7146,
      "ening": 7147,
      "Not": 7148,
      "pose": 7149,
      "mid": 7150,
      "def": 7151,
      "aging": 7152,
      "22": 7153,
      "live": 7154,
      "uary": 7155,
      "ays": 7156,
      "range": 7157,
      "termin": 7158,
      "offer": 7159,
      "ames": 7160,
      "colle": 7161,
      "Man": 7162,
      "ined": 7163,
      "istic": 7164,
      "wind": 7165,
      "She": 7166,
      "ots": 7167,
      "makes": 7168,
      "stat": 7169,
      "symptoms": 7170,
      "story": 7171,
      "polic": 7172,
      "patients": 7173,
      "oman": 7174,
      "value": 7175,
      "seen": 7176,
      "influ": 7177,
      "uel": 7178,
      "//": 7179,
      "further": 7180,
      "groups": 7181,
      "chall": 7182,
      "explain": 7183,
      "May": 7184,
      "itor": 7185,
      "Research": 7186,
      "question": 7187,
      "sent": 7188,
      "mark": 7189,
      "inking": 7190,
      "fri": 7191,
      "tow": 7192,
      "CO": 7193,
      "close": 7194,
      "neg": 7195,
      "building": 7196,
      "ending": 7197,
      "lines": 7198,
      "five": 7199,
      "fig": 7200,
      "ley": 7201,
      "protect": 7202,
      "labor": 7203,
      "particip": 7204,
      "htt": 7205,
      "23": 7206,
      "claim": 7207,
      "draw": 7208,
      "cop": 7209,
      "ising": 7210,
      "indic": 7211,
      "focus": 7212,
      "plement": 7213,
      "taken": 7214,
      "ru": 7215,
      "ago": 7216,
      "activities": 7217,
      "developed": 7218,
      "erc": 7219,
      "amount": 7220,
      "SA": 7221,
      "rather": 7222,
      "acks": 7223,
      "article": 7224,
      "mber": 7225,
      "products": 7226,
      "://": 7227,
      "below": 7228,
      "uation": 7229,
      "weight": 7230,
      "resources": 7231,
      "ER": 7232,
      "growth": 7233,
      "...": 7234,
      "hip": 7235,
      "Inter": 7236,
      "collect": 7237,
      "lay": 7238,
      "difficult": 7239,
      "toward": 7240,
      "crip": 7241,
      "inte": 7242,
      "forms": 7243,
      "ables": 7244,
      "iting": 7245,
      "ibility": 7246,
      "init": 7247,
      "recogn": 7248,
      "coming": 7249,
      "ilt": 7250,
      "already": 7251,
      "either": 7252,
      "load": 7253,
      "Fe": 7254,
      "potential": 7255,
      "urch": 7256,
      "inci": 7257,
      "pay": 7258,
      "oking": 7259,
      "mass": 7260,
      "done": 7261,
      "source": 7262,
      "ints": 7263,
      "really": 7264,
      "event": 7265,
      "oil": 7266,
      "half": 7267,
      "struction": 7268,
      "white": 7269,
      "ometimes": 7270,
      "ched": 7271,
      "members": 7272,
      "evidence": 7273,
      "North": 7274,
      "dem": 7275,
      "addition": 7276,
      "ork": 7277,
      "frequ": 7278,
      "size": 7279,
      "member": 7280,
      "vo": 7281,
      "single": 7282,
      "actions": 7283,
      "once": 7284,
      "according": 7285,
      "surface": 7286,
      "evol": 7287,
      "return": 7288,
      "ison": 7289,
      "upon": 7290,
      "thir": 7291,
      "economic": 7292,
      "mach": 7293,
      "enn": 7294,
      "paper": 7295,
      "relig": 7296,
      "xim": 7297,
      "sof": 7298,
      "medical": 7299,
      "climate": 7300,
      "South": 7301,
      "continu": 7302,
      "prob": 7303,
      "nature": 7304,
      "achie": 7305,
      "Per": 7306,
      "covered": 7307,
      "ns": 7308,
      "ification": 7309,
      "gest": 7310,
      "wood": 7311,
      "drug": 7312,
      "histor": 7313,
      "created": 7314,
      "living": 7315,
      "aver": 7316,
      "anger": 7317,
      "week": 7318,
      "researchers": 7319,
      "ficient": 7320,
      "America": 7321,
      "photo": 7322,
      "pread": 7323,
      "Act": 7324,
      "ank": 7325,
      "meet": 7326,
      "dict": 7327,
      "whole": 7328,
      "portun": 7329,
      "introdu": 7330,
      "Hist": 7331,
      "Ser": 7332,
      "address": 7333,
      "aking": 7334,
      "ivil": 7335,
      "reduce": 7336,
      "healthy": 7337,
      "detail": 7338,
      "political": 7339,
      "diag": 7340,
      "answ": 7341,
      "questions": 7342,
      "chemical": 7343,
      "outs": 7344,
      "Many": 7345,
      "ened": 7346,
      "fat": 7347,
      "parts": 7348,
      "skills": 7349,
      "ival": 7350,
      "His": 7351,
      "famil": 7352,
      "sed": 7353,
      "mb": 7354,
      "suggest": 7355,
      "sych": 7356,
      "associated": 7357,
      "thought": 7358,
      "bot": 7359,
      "road": 7360,
      "condu": 7361,
      "themselves": 7362,
      "gas": 7363,
      "curity": 7364,
      "considered": 7365,
      "observ": 7366,
      "soil": 7367,
      "scal": 7368,
      "ournal": 7369,
      "round": 7370,
      "cannot": 7371,
      "une": 7372,
      "Earth": 7373,
      "Br": 7374,
      "Fr": 7375,
      "understanding": 7376,
      "published": 7377,
      "skin": 7378,
      "fail": 7379,
      "path": 7380,
      "necessary": 7381,
      "atter": 7382,
      "utions": 7383,
      "York": 7384,
      "pressure": 7385,
      "igr": 7386,
      "gain": 7387,
      "black": 7388,
      "priv": 7389,
      "fed": 7390,
      "sound": 7391,
      "squ": 7392,
      "ged": 7393,
      "leep": 7394,
      "micro": 7395,
      "Pres": 7396,
      "green": 7397,
      "increased": 7398,
      "states": 7399,
      "syn": 7400,
      "practice": 7401,
      "Gu": 7402,
      "recomm": 7403,
      "rights": 7404,
      "stress": 7405,
      "global": 7406,
      "ES": 7407,
      "IN": 7408,
      "normal": 7409,
      "actually": 7410,
      "ey": 7411,
      "spr": 7412,
      "student": 7413,
      "ges": 7414,
      "describ": 7415,
      "itself": 7416,
      "animals": 7417,
      "fire": 7418,
      "explo": 7419,
      "Austr": 7420,
      "needed": 7421,
      "opportun": 7422,
      "almost": 7423,
      "log": 7424,
      "simple": 7425,
      "engine": 7426,
      "illed": 7427,
      "rect": 7428,
      "spir": 7429,
      "State": 7430,
      "relationship": 7431,
      "modern": 7432,
      "appear": 7433,
      "pie": 7434,
      "complex": 7435,
      "ID": 7436,
      "ering": 7437,
      "bed": 7438,
      "mis": 7439,
      "required": 7440,
      "entire": 7441,
      "management": 7442,
      "iding": 7443,
      "):": 7444,
      "Ap": 7445,
      "ief": 7446,
      "docu": 7447,
      "lying": 7448,
      "feed": 7449,
      "won": 7450,
      "produce": 7451,
      "condition": 7452,
      "took": 7453,
      "dy": 7454,
      "quick": 7455,
      "stant": 7456,
      "Most": 7457,
      "maintain": 7458,
      "idea": 7459,
      "flo": 7460,
      "Des": 7461,
      "taking": 7462,
      "materials": 7463,
      "provides": 7464,
      "eve": 7465,
      "hib": 7466,
      "personal": 7467,
      "ney": 7468,
      "parents": 7469,
      "diet": 7470,
      "Pol": 7471,
      "Ab": 7472,
      "safe": 7473,
      "services": 7474,
      "exerc": 7475,
      "ung": 7476,
      "More": 7477,
      "analysis": 7478,
      "assess": 7479,
      "sex": 7480,
      "six": 7481,
      "color": 7482,
      "lives": 7483,
      "ports": 7484,
      "Although": 7485,
      "\".": 7486,
      "28": 7487,
      "link": 7488,
      "stain": 7489,
      "company": 7490,
      "apan": 7491,
      "cup": 7492,
      "Sp": 7493,
      "computer": 7494,
      "money": 7495,
      ".)": 7496,
      "itary": 7497,
      "wal": 7498,
      "www": 7499,
      "Im": 7500,
      "ses": 7501,
      "sam": 7502,
      "compan": 7503,
      "Eng": 7504,
      "emer": 7505,
      "liter": 7506,
      "partment": 7507,
      "ping": 7508,
      "regard": 7509,
      "dle": 7510,
      "record": 7511,
      "Here": 7512,
      "yet": 7513,
      "AN": 7514,
      "afety": 7515,
      "medic": 7516,
      "began": 7517,
      "hours": 7518,
      "built": 7519,
      "rul": 7520,
      "popular": 7521,
      "Japan": 7522,
      "region": 7523,
      "British": 7524,
      "Canad": 7525,
      "26": 7526,
      "27": 7527,
      "reme": 7528,
      "writing": 7529,
      "aud": 7530,
      "dro": 7531,
      "months": 7532,
      "online": 7533,
      "utes": 7534,
      "separ": 7535,
      "factors": 7536,
      "content": 7537,
      "reading": 7538,
      "regular": 7539,
      "page": 7540,
      "inc": 7541,
      "service": 7542,
      "sha": 7543,
      "sense": 7544,
      "Par": 7545,
      "Cont": 7546,
      "measure": 7547,
      "uss": 7548,
      "Instit": 7549,
      "bul": 7550,
      "princi": 7551,
      "dog": 7552,
      "conf": 7553,
      "ike": 7554,
      "chol": 7555,
      "ze": 7556,
      "heat": 7557,
      "stor": 7558,
      "reed": 7559,
      "night": 7560,
      "rich": 7561,
      "mother": 7562,
      "forest": 7563,
      "infect": 7564,
      "vide": 7565,
      "increasing": 7566,
      "vit": 7567,
      "Jew": 7568,
      "structure": 7569,
      "print": 7570,
      "Qu": 7571,
      "job": 7572,
      "izing": 7573,
      "throughout": 7574,
      "pattern": 7575,
      "ery": 7576,
      "meaning": 7577,
      "usion": 7578,
      "respect": 7579,
      "AR": 7580,
      "ded": 7581,
      "lling": 7582,
      "cular": 7583,
      "Mon": 7584,
      "Lo": 7585,
      "School": 7586,
      "Cor": 7587,
      "ret": 7588,
      "Other": 7589,
      "cit": 7590,
      "share": 7591,
      "threat": 7592,
      "ption": 7593,
      "respon": 7594,
      "thus": 7595,
      "true": 7596,
      "break": 7597,
      "heav": 7598,
      "Cent": 7599,
      "apy": 7600,
      "iation": 7601,
      "carbon": 7602,
      "deli": 7603,
      "training": 7604,
      "decl": 7605,
      "80": 7606,
      "ming": 7607,
      "Ed": 7608,
      "mental": 7609,
      "previous": 7610,
      "bill": 7611,
      "estern": 7612,
      "ivity": 7613,
      "ood": 7614,
      "From": 7615,
      "environmental": 7616,
      "matter": 7617,
      "shows": 7618,
      "farm": 7619,
      "total": 7620,
      "employ": 7621,
      "individuals": 7622,
      "consum": 7623,
      "positive": 7624,
      "bring": 7625,
      "longer": 7626,
      "viol": 7627,
      "designed": 7628,
      "Am": 7629,
      "According": 7630,
      "clean": 7631,
      "29": 7632,
      "late": 7633,
      "rap": 7634,
      "market": 7635,
      "avoid": 7636,
      "ronic": 7637,
      "ublic": 7638,
      "Min": 7639,
      "abs": 7640,
      "provided": 7641,
      "dest": 7642,
      "resist": 7643,
      "cil": 7644,
      "reli": 7645,
      "fection": 7646,
      "industry": 7647,
      "Your": 7648,
      "Her": 7649,
      "mor": 7650,
      "ife": 7651,
      "vision": 7652,
      "spect": 7653,
      "AT": 7654,
      "cas": 7655,
      "contact": 7656,
      "diagno": 7657,
      "fru": 7658,
      "lex": 7659,
      "tax": 7660,
      "My": 7661,
      "caused": 7662,
      "cies": 7663,
      "earth": 7664,
      "ulations": 7665,
      "hood": 7666,
      "terms": 7667,
      "196": 7668,
      "rown": 7669,
      "surv": 7670,
      "society": 7671,
      "Science": 7672,
      "ford": 7673,
      "accept": 7674,
      "books": 7675,
      "Pre": 7676,
      "Our": 7677,
      "smo": 7678,
      "media": 7679,
      "Ste": 7680,
      "temperature": 7681,
      "aware": 7682,
      "Har": 7683,
      "iter": 7684,
      "King": 7685,
      "etc": 7686,
      "aid": 7687,
      "sleep": 7688,
      "love": 7689,
      "written": 7690,
      "easy": 7691,
      "aft": 7692,
      "ners": 7693,
      "sometimes": 7694,
      "sou": 7695,
      "determin": 7696,
      "immun": 7697,
      "ades": 7698,
      "camp": 7699,
      "music": 7700,
      "Will": 7701,
      "standard": 7702,
      "verse": 7703,
      "opt": 7704,
      "Austral": 7705,
      "ults": 7706,
      "Fir": 7707,
      "date": 7708,
      "relative": 7709,
      "culture": 7710,
      "includes": 7711,
      "benefits": 7712,
      "ties": 7713,
      "Aug": 7714,
      "scre": 7715,
      "vey": 7716,
      "shown": 7717,
      "anced": 7718,
      "German": 7719,
      "image": 7720,
      "habit": 7721,
      "inj": 7722,
      "experim": 7723,
      "yle": 7724,
      "attle": 7725,
      "programs": 7726,
      "original": 7727,
      "stop": 7728,
      "reng": 7729,
      "aily": 7730,
      "ips": 7731,
      "poor": 7732,
      "respond": 7733,
      "lor": 7734,
      "bacter": 7735,
      "sea": 7736,
      "rain": 7737,
      "eat": 7738,
      "fem": 7739,
      "causes": 7740,
      "average": 7741,
      "2010": 7742,
      "hom": 7743,
      "variety": 7744,
      "nation": 7745,
      "methods": 7746,
      "dete": 7747,
      "inary": 7748,
      "schools": 7749,
      "check": 7750,
      "Jan": 7751,
      "fa": 7752,
      "spread": 7753,
      "origin": 7754,
      "aving": 7755,
      "super": 7756,
      "reported": 7757,
      "simply": 7758,
      "istics": 7759,
      "believe": 7760,
      "duc": 7761,
      "itch": 7762,
      "forman": 7763,
      "iabet": 7764,
      "ino": 7765,
      "promot": 7766,
      "cient": 7767,
      "placed": 7768,
      "deep": 7769,
      "lled": 7770,
      "greater": 7771,
      "nia": 7772,
      "sl": 7773,
      "ST": 7774,
      "argu": 7775,
      "fair": 7776,
      "demon": 7777,
      "scientists": 7778,
      "ana": 7779,
      "AC": 7780,
      "produced": 7781,
      "bs": 7782,
      "movement": 7783,
      "rench": 7784,
      "wall": 7785,
      "doing": 7786,
      "ams": 7787,
      "Now": 7788,
      "consist": 7789,
      "foot": 7790,
      "soph": 7791,
      "2012": 7792,
      "growing": 7793,
      "inste": 7794,
      "Ju": 7795,
      "China": 7796,
      "ai": 7797,
      "India": 7798,
      "events": 7799,
      "particularly": 7800,
      "ried": 7801,
      "uge": 7802,
      "ging": 7803,
      "35": 7804,
      "migr": 7805,
      "First": 7806,
      "tit": 7807,
      "involved": 7808,
      "review": 7809,
      "mechan": 7810,
      "ension": 7811,
      "IC": 7812,
      "moved": 7813,
      "emot": 7814,
      "etic": 7815,
      "pict": 7816,
      "Ho": 7817,
      "idge": 7818,
      "security": 7819,
      "Gener": 7820,
      "ufact": 7821,
      "cat": 7822,
      "proved": 7823,
      "electric": 7824,
      "pret": 7825,
      "194": 7826,
      "http": 7827,
      "ring": 7828,
      "account": 7829,
      "identify": 7830,
      "plied": 7831,
      "patient": 7832,
      "born": 7833,
      "front": 7834,
      "iple": 7835,
      "appropr": 7836,
      "ert": 7837,
      "suffer": 7838,
      "deal": 7839,
      "encour": 7840,
      "correct": 7841,
      "gard": 7842,
      "Sep": 7843,
      "developing": 7844,
      "concept": 7845,
      "sustain": 7846,
      "sources": 7847,
      "helps": 7848,
      "progress": 7849,
      "streng": 7850,
      "foods": 7851,
      "cot": 7852,
      "response": 7853,
      "card": 7854,
      "Jes": 7855,
      "cks": 7856,
      "aries": 7857,
      "basic": 7858,
      "got": 7859,
      "wa": 7860,
      "cture": 7861,
      "implement": 7862,
      "ises": 7863,
      "cross": 7864,
      "integr": 7865,
      "tur": 7866,
      "ensure": 7867,
      "70": 7868,
      "damage": 7869,
      "joy": 7870,
      "policy": 7871,
      "held": 7872,
      "visit": 7873,
      "rup": 7874,
      "series": 7875,
      "outside": 7876,
      "ilo": 7877,
      "board": 7878,
      "atives": 7879,
      "2011": 7880,
      "answer": 7881,
      "div": 7882,
      "third": 7883,
      "hind": 7884,
      "IV": 7885,
      "looking": 7886,
      "During": 7887,
      "astic": 7888,
      "Intern": 7889,
      "teen": 7890,
      "mix": 7891,
      "formance": 7892,
      "generally": 7893,
      "Educ": 7894,
      "serious": 7895,
      "attention": 7896,
      "enced": 7897,
      "90": 7898,
      "safety": 7899,
      "compon": 7900,
      "went": 7901,
      "points": 7902,
      "orders": 7903,
      "extreme": 7904,
      "section": 7905,
      "ites": 7906,
      "ony": 7907,
      "essential": 7908,
      "mess": 7909,
      "ministr": 7910,
      "wild": 7911,
      "ials": 7912,
      "select": 7913,
      "teachers": 7914,
      "Spe": 7915,
      "assist": 7916,
      "RE": 7917,
      "fast": 7918,
      "reas": 7919,
      "sph": 7920,
      "Mic": 7921,
      "estim": 7922,
      "challeng": 7923,
      "Center": 7924,
      "pul": 7925,
      "llow": 7926,
      "getting": 7927,
      "takes": 7928,
      "probably": 7929,
      "commit": 7930,
      "ideas": 7931,
      "legal": 7932,
      "slow": 7933,
      "express": 7934,
      "veget": 7935,
      "feet": 7936,
      "dou": 7937,
      "ference": 7938,
      "guide": 7939,
      "Child": 7940,
      "err": 7941,
      "roy": 7942,
      "psych": 7943,
      "wise": 7944,
      "independ": 7945,
      "star": 7946,
      "hot": 7947,
      "eye": 7948,
      "apt": 7949,
      "continue": 7950,
      "international": 7951,
      "Char": 7952,
      "tribution": 7953,
      "sect": 7954,
      "scale": 7955,
      "established": 7956,
      "numbers": 7957,
      "bab": 7958,
      "animal": 7959,
      "French": 7960,
      "Oc": 7961,
      "eval": 7962,
      "Che": 7963,
      "sites": 7964,
      "arily": 7965,
      "Read": 7966,
      "ball": 7967,
      "town": 7968,
      "Ma": 7969,
      "European": 7970,
      "behavior": 7971,
      "sen": 7972,
      "sil": 7973,
      "manufact": 7974,
      "Lear": 7975,
      "June": 7976,
      "termine": 7977,
      "era": 7978,
      "thy": 7979,
      "jud": 7980,
      "traditional": 7981,
      "vert": 7982,
      "pen": 7983,
      "poll": 7984,
      "finan": 7985,
      "March": 7986,
      "leaders": 7987,
      "Why": 7988,
      "itation": 7989,
      "Russ": 7990,
      "included": 7991,
      "central": 7992,
      "Even": 7993,
      "Fran": 7994,
      "dry": 7995,
      "prom": 7996,
      "kids": 7997,
      "na": 7998,
      "therefore": 7999,
      "ON": 8000,
      "concl": 8001,
      "instead": 8002,
      "itis": 8003,
      "tree": 8004,
      "travel": 8005,
      "prep": 8006,
      "sho": 8007,
      "haps": 8008,
      "immed": 8009,
      "fuel": 8010,
      "ral": 8011,
      "AS": 8012,
      "iet": 8013,
      "2009": 8014,
      "someone": 8015,
      "evolution": 8016,
      "sus": 8017,
      "instit": 8018,
      "doesn": 8019,
      "graphy": 8020,
      "vention": 8021,
      "allows": 8022,
      "version": 8023,
      "thous": 8024,
      "added": 8025,
      "vation": 8026,
      "ountain": 8027,
      "scientific": 8028,
      "Apr": 8029,
      "quite": 8030,
      "daily": 8031,
      "isions": 8032,
      "although": 8033,
      "ifor": 8034,
      "fav": 8035,
      "empt": 8036,
      "Gre": 8037,
      "pal": 8038,
      "host": 8039,
      "Department": 8040,
      "ham": 8041,
      "iabetes": 8042,
      "ibe": 8043,
      "See": 8044,
      "Indian": 8045,
      "covery": 8046,
      "IT": 8047,
      "ington": 8048,
      "AD": 8049,
      "ote": 8050,
      "Since": 8051,
      "agree": 8052,
      "cred": 8053,
      "decre": 8054,
      "infl": 8055,
      "cles": 8056,
      "solar": 8057,
      "communities": 8058,
      "concentr": 8059,
      "tools": 8060,
      "easily": 8061,
      "performance": 8062,
      "military": 8063,
      "civil": 8064,
      "Bar": 8065,
      "ibr": 8066,
      "month": 8067,
      "negative": 8068,
      "attack": 8069,
      "compared": 8070,
      "primary": 8071,
      "Institute": 8072,
      "August": 8073,
      "Califor": 8074,
      "investig": 8075,
      "started": 8076,
      "difference": 8077,
      "document": 8078,
      "doctor": 8079,
      "bad": 8080,
      "History": 8081,
      "determine": 8082,
      "sem": 8083,
      "oud": 8084,
      "minim": 8085,
      "theory": 8086,
      "vacc": 8087,
      "OR": 8088,
      "leading": 8089,
      "companies": 8090,
      "warm": 8091,
      "useum": 8092,
      "tware": 8093,
      "2013": 8094,
      "Christian": 8095,
      "reflect": 8096,
      "imin": 8097,
      "unique": 8098,
      "Hum": 8099,
      "limited": 8100,
      "ius": 8101,
      "tend": 8102,
      "center": 8103,
      "west": 8104,
      "believ": 8105,
      "advant": 8106,
      "Mus": 8107,
      "rough": 8108,
      "cast": 8109,
      "ows": 8110,
      "cry": 8111,
      "gets": 8112,
      "network": 8113,
      "High": 8114,
      "larger": 8115,
      "bey": 8116,
      "supply": 8117,
      "located": 8118,
      "altern": 8119,
      "____": 8120,
      "inside": 8121,
      "infection": 8122,
      "diseases": 8123,
      "California": 8124,
      "soon": 8125,
      "waste": 8126,
      "International": 8127,
      "news": 8128,
      "directly": 8129,
      "achieve": 8130,
      "win": 8131,
      "corpor": 8132,
      "ceed": 8133,
      "ishing": 8134,
      "trees": 8135,
      "West": 8136,
      "critical": 8137,
      "tered": 8138,
      "gies": 8139,
      "deb": 8140,
      "families": 8141,
      "equip": 8142,
      "gree": 8143,
      "father": 8144,
      "ding": 8145,
      "2008": 8146,
      "protein": 8147,
      "ama": 8148,
      "birth": 8149,
      "quickly": 8150,
      "ets": 8151,
      "Part": 8152,
      "hic": 8153,
      "UN": 8154,
      "acid": 8155,
      "nuc": 8156,
      "friend": 8157,
      "Jesus": 8158,
      "accur": 8159,
      "iam": 8160,
      "akes": 8161,
      "July": 8162,
      "base": 8163,
      "undred": 8164,
      "humans": 8165,
      "fit": 8166,
      "contr": 8167,
      "ively": 8168,
      "additional": 8169,
      "clin": 8170,
      "Because": 8171,
      "seems": 8172,
      "sco": 8173,
      "Dav": 8174,
      "African": 8175,
      "Comp": 8176,
      "ugh": 8177,
      "aspect": 8178,
      "augh": 8179,
      "behind": 8180,
      "sat": 8181,
      "highly": 8182,
      "TH": 8183,
      "serve": 8184,
      "tests": 8185,
      "thinking": 8186,
      "appropriate": 8187,
      "exercise": 8188,
      "severe": 8189,
      "ulture": 8190,
      "Gen": 8191,
      "construction": 8192,
      "multiple": 8193,
      "analy": 8194,
      "moving": 8195,
      "2007": 8196,
      "places": 8197,
      "broad": 8198,
      "expected": 8199,
      "36": 8200,
      "teaching": 8201,
      "uck": 8202,
      "leng": 8203,
      "Wash": 8204,
      "video": 8205,
      "fight": 8206,
      "AL": 8207,
      "gency": 8208,
      "north": 8209,
      "cean": 8210,
      "tox": 8211,
      "ift": 8212,
      "45": 8213,
      "lic": 8214,
      "capt": 8215,
      "wel": 8216,
      "pite": 8217,
      "uries": 8218,
      "whose": 8219,
      "prior": 8220,
      "fici": 8221,
      "elements": 8222,
      "beginning": 8223,
      "Gree": 8224,
      "proced": 8225,
      "purpose": 8226,
      "April": 8227,
      "mom": 8228,
      "speed": 8229,
      "que": 8230,
      "target": 8231,
      "pair": 8232,
      "code": 8233,
      "onom": 8234,
      "stitution": 8235,
      "hous": 8236,
      "reve": 8237,
      "ume": 8238,
      "stay": 8239,
      "tric": 8240,
      "anti": 8241,
      "bel": 8242,
      "forts": 8243,
      "Chin": 8244,
      "danger": 8245,
      "game": 8246,
      "largest": 8247,
      "tes": 8248,
      "values": 8249,
      "Africa": 8250,
      "strict": 8251,
      "ounds": 8252,
      "lost": 8253,
      "dark": 8254,
      "cou": 8255,
      "write": 8256,
      "sold": 8257,
      "Also": 8258,
      "protection": 8259,
      "cade": 8260,
      "ancient": 8261,
      "images": 8262,
      "capital": 8263,
      "capac": 8264,
      "aff": 8265,
      "else": 8266,
      "private": 8267,
      "Mc": 8268,
      "Americans": 8269,
      "iques": 8270,
      "Then": 8271,
      "auto": 8272,
      "transport": 8273,
      "33": 8274,
      "workers": 8275,
      "PA": 8276,
      "ico": 8277,
      "towards": 8278,
      "inde": 8279,
      "mention": 8280,
      "Gover": 8281,
      "rates": 8282,
      "hon": 8283,
      "ancy": 8284,
      "ament": 8285,
      "talk": 8286,
      "BC": 8287,
      "ously": 8288,
      "EN": 8289,
      "People": 8290,
      "note": 8291,
      "Sm": 8292,
      "Rep": 8293,
      "Fin": 8294,
      "mbol": 8295,
      "ump": 8296,
      "useful": 8297,
      "except": 8298,
      "ff": 8299,
      "Trans": 8300,
      "season": 8301,
      "hundred": 8302,
      "ito": 8303,
      "ateg": 8304,
      "described": 8305,
      "Day": 8306,
      "aul": 8307,
      "contribut": 8308,
      "cool": 8309,
      "religious": 8310,
      "location": 8311,
      "hun": 8312,
      "minutes": 8313,
      "table": 8314,
      "resh": 8315,
      "abilities": 8316,
      "decision": 8317,
      "contains": 8318,
      "south": 8319,
      "cohol": 8320,
      "situation": 8321,
      "mob": 8322,
      "Don": 8323,
      "predict": 8324,
      "features": 8325,
      "financial": 8326,
      "ilosoph": 8327,
      "saw": 8328,
      "brought": 8329,
      "Ob": 8330,
      "agric": 8331,
      "uk": 8332,
      "quant": 8333,
      "former": 8334,
      "item": 8335,
      "Just": 8336,
      "eating": 8337,
      "obtain": 8338,
      "iers": 8339,
      "Let": 8340,
      "els": 8341,
      "cultural": 8342,
      "carry": 8343,
      "received": 8344,
      "ops": 8345,
      "Over": 8346,
      "isms": 8347,
      "adults": 8348,
      "software": 8349,
      "nel": 8350,
      "imag": 8351,
      "user": 8352,
      "dead": 8353,
      "lier": 8354,
      "phen": 8355,
      "mole": 8356,
      "speak": 8357,
      "influence": 8358,
      "Chinese": 8359,
      "President": 8360,
      "remains": 8361,
      "craft": 8362,
      "application": 8363,
      "demand": 8364,
      "ains": 8365,
      "ologies": 8366,
      "communic": 8367,
      "hope": 8368,
      "box": 8369,
      "Fig": 8370,
      "River": 8371,
      "Cong": 8372,
      "Bi": 8373,
      "antic": 8374,
      "goal": 8375,
      "vic": 8376,
      "told": 8377,
      "exact": 8378,
      "nearly": 8379,
      "mocr": 8380,
      "solution": 8381,
      "forces": 8382,
      "sugar": 8383,
      "enjoy": 8384,
      "tember": 8385,
      "cam": 8386,
      "San": 8387,
      "winter": 8388,
      "izations": 8389,
      "trade": 8390,
      "Washington": 8391,
      "summer": 8392,
      "ales": 8393,
      "Ty": 8394,
      "Serv": 8395,
      "communication": 8396,
      "perform": 8397,
      "egg": 8398,
      "requires": 8399,
      "display": 8400,
      "Associ": 8401,
      "Education": 8402,
      "195": 8403,
      "January": 8404,
      "lam": 8405,
      "beaut": 8406,
      "izes": 8407,
      "tas": 8408,
      "September": 8409,
      "tober": 8410,
      "block": 8411,
      "federal": 8412,
      "City": 8413,
      "becomes": 8414,
      "Canada": 8415,
      "expo": 8416,
      "band": 8417,
      "watch": 8418,
      "Techn": 8419,
      "ED": 8420,
      "Reg": 8421,
      "ulate": 8422,
      "”.": 8423,
      "virus": 8424,
      "via": 8425,
      "commer": 8426,
      "citiz": 8427,
      "weak": 8428,
      "October": 8429,
      "Great": 8430,
      "Ber": 8431,
      "efforts": 8432,
      "devices": 8433,
      "acts": 8434,
      "typically": 8435,
      "General": 8436,
      "Ke": 8437,
      "weeks": 8438,
      "hands": 8439,
      "estic": 8440,
      "birds": 8441,
      "importance": 8442,
      "projects": 8443,
      "digital": 8444,
      "nes": 8445,
      "England": 8446,
      "conserv": 8447,
      "cum": 8448,
      "Journal": 8449,
      "Arch": 8450,
      "bacteria": 8451,
      "asked": 8452,
      "rac": 8453,
      "nit": 8454,
      "compet": 8455,
      "Use": 8456,
      "testing": 8457,
      "sess": 8458,
      "aly": 8459,
      "miles": 8460,
      "inct": 8461,
      "bert": 8462,
      "idents": 8463,
      "Develop": 8464,
      "harm": 8465,
      "lat": 8466,
      "entially": 8467,
      "Press": 8468,
      "command": 8469,
      "himself": 8470,
      "memory": 8471,
      "tee": 8472,
      "symbol": 8473,
      "rare": 8474,
      "property": 8475,
      "leaves": 8476,
      "Sun": 8477,
      "hydro": 8478,
      "Add": 8479,
      "Soci": 8480,
      "Sim": 8481,
      "Water": 8482,
      "Red": 8483,
      "eyes": 8484,
      "older": 8485,
      "nothing": 8486,
      "costs": 8487,
      "vehic": 8488,
      "ultural": 8489,
      "surround": 8490,
      "cru": 8491,
      "sett": 8492,
      "Sw": 8493,
      "vest": 8494,
      "Sup": 8495,
      "basis": 8496,
      "rapid": 8497,
      "responsible": 8498,
      "attempt": 8499,
      "shall": 8500,
      "31": 8501,
      "died": 8502,
      "lection": 8503,
      "device": 8504,
      "za": 8505,
      "creating": 8506,
      "Commun": 8507,
      "37": 8508,
      "kill": 8509,
      "iber": 8510,
      "diabetes": 8511,
      "website": 8512,
      "Each": 8513,
      "stage": 8514,
      "perfect": 8515,
      "2006": 8516,
      "ergy": 8517,
      "Lon": 8518,
      "2000": 8519,
      "connect": 8520,
      "Val": 8521,
      "ero": 8522,
      "acqu": 8523,
      "trie": 8524,
      "colon": 8525,
      "processes": 8526,
      "38": 8527,
      "iat": 8528,
      "portion": 8529,
      "teacher": 8530,
      "techniques": 8531,
      "Once": 8532,
      "cript": 8533,
      "anything": 8534,
      "ficiency": 8535,
      "Cur": 8536,
      "Another": 8537,
      "Isra": 8538,
      "monitor": 8539,
      "Black": 8540,
      "fix": 8541,
      "spirit": 8542,
      "remember": 8543,
      "therapy": 8544,
      "Dece": 8545,
      "CD": 8546,
      "file": 8547,
      "install": 8548,
      "everything": 8549,
      "construct": 8550,
      "successful": 8551,
      "graphic": 8552,
      "affected": 8553,
      "named": 8554,
      "fill": 8555,
      "applications": 8556,
      "mouth": 8557,
      "stone": 8558,
      "generation": 8559,
      "middle": 8560,
      "gives": 8561,
      "Sur": 8562,
      "practices": 8563,
      "Nove": 8564,
      "goes": 8565,
      "Roman": 8566,
      "December": 8567,
      "counter": 8568,
      "planet": 8569,
      "laws": 8570,
      "benefit": 8571,
      "occup": 8572,
      "beyond": 8573,
      "alone": 8574,
      "kets": 8575,
      "firm": 8576,
      "giving": 8577,
      "Su": 8578,
      "degree": 8579,
      "consu": 8580,
      "mas": 8581,
      "final": 8582,
      "reedom": 8583,
      "coast": 8584,
      "November": 8585,
      "followed": 8586,
      "Vir": 8587,
      "gir": 8588,
      "emiss": 8589,
      "objects": 8590,
      "repe": 8591,
      "woman": 8592,
      "sn": 8593,
      "ience": 8594,
      "Church": 8595,
      "AM": 8596,
      "organization": 8597,
      "domin": 8598,
      "cele": 8599,
      "inf": 8600,
      "London": 8601,
      "standing": 8602,
      "urban": 8603,
      "rot": 8604,
      "apter": 8605,
      "East": 8606,
      "Law": 8607,
      "qual": 8608,
      "spo": 8609,
      "unch": 8610,
      "numer": 8611,
      "income": 8612,
      "rote": 8613,
      "amm": 8614,
      "currently": 8615,
      "System": 8616,
      "recently": 8617,
      "quar": 8618,
      "polit": 8619,
      "pp": 8620,
      "examples": 8621,
      "poly": 8622,
      "insul": 8623,
      "genetic": 8624,
      "choose": 8625,
      "34": 8626,
      "AP": 8627,
      "economy": 8628,
      "efficient": 8629,
      "iar": 8630,
      "cape": 8631,
      "calcul": 8632,
      "fruit": 8633,
      "drop": 8634,
      "reasons": 8635,
      "continued": 8636,
      "mes": 8637,
      "forward": 8638,
      "enge": 8639,
      "consequ": 8640,
      "Pat": 8641,
      "demonstr": 8642,
      "resol": 8643,
      "treated": 8644,
      "rise": 8645,
      "providing": 8646,
      "operation": 8647,
      "celebr": 8648,
      "Park": 8649,
      "bound": 8650,
      "cold": 8651,
      "pack": 8652,
      "inno": 8653,
      "Prof": 8654,
      "mosph": 8655,
      "preser": 8656,
      "sets": 8657,
      "frame": 8658,
      "exposure": 8659,
      "2005": 8660,
      "van": 8661,
      "ech": 8662,
      "piece": 8663,
      "uate": 8664,
      "39": 8665,
      "stead": 8666,
      "smaller": 8667,
      "Mex": 8668,
      "stream": 8669,
      "instru": 8670,
      "immune": 8671,
      "iately": 8672,
      "sec": 8673,
      "standards": 8674,
      "allowed": 8675,
      "users": 8676,
      "ining": 8677,
      "Are": 8678,
      "DNA": 8679,
      "billion": 8680,
      "opportunity": 8681,
      "shape": 8682,
      "rules": 8683,
      "changed": 8684,
      "enh": 8685,
      ");": 8686,
      "collection": 8687,
      "confl": 8688,
      "receive": 8689,
      "completely": 8690,
      "Sol": 8691,
      "discovered": 8692,
      "burn": 8693,
      "door": 8694,
      "iction": 8695,
      "Bu": 8696,
      "Tod": 8697,
      "conce": 8698,
      "ils": 8699,
      "Str": 8700,
      "aling": 8701,
      "establish": 8702,
      "conduct": 8703,
      "phone": 8704,
      "wrote": 8705,
      "Under": 8706,
      "orts": 8707,
      "hair": 8708,
      "charge": 8709,
      "encies": 8710,
      "pregn": 8711,
      "ught": 8712,
      "die": 8713,
      "32": 8714,
      "2015": 8715,
      "exe": 8716,
      "spring": 8717,
      "classroom": 8718,
      "length": 8719,
      "mut": 8720,
      "neigh": 8721,
      "tellig": 8722,
      "Bl": 8723,
      "Cour": 8724,
      "trying": 8725,
      "preh": 8726,
      "empor": 8727,
      "cro": 8728,
      "yourself": 8729,
      "effort": 8730,
      "scr": 8731,
      "plies": 8732,
      "swe": 8733,
      "Program": 8734,
      "nic": 8735,
      "visual": 8736,
      "differences": 8737,
      "worth": 8738,
      "olic": 8739,
      "ker": 8740,
      "shap": 8741,
      "equipment": 8742,
      "rat": 8743,
      "professional": 8744,
      "Web": 8745,
      "steps": 8746,
      "tribute": 8747,
      "commonly": 8748,
      "perhaps": 8749,
      "electr": 8750,
      "peace": 8751,
      "interesting": 8752,
      "administr": 8753,
      "ull": 8754,
      "suit": 8755,
      "iest": 8756,
      "everyone": 8757,
      "weather": 8758,
      "preci": 8759,
      "buy": 8760,
      "seven": 8761,
      "drugs": 8762,
      "alcohol": 8763,
      "beg": 8764,
      "75": 8765,
      "subst": 8766,
      "gene": 8767,
      "County": 8768,
      "models": 8769,
      "occurs": 8770,
      "Mr": 8771,
      "identified": 8772,
      "leave": 8773,
      "ulated": 8774,
      "cret": 8775,
      "Every": 8776,
      "transl": 8777,
      "measures": 8778,
      "constant": 8779,
      "earlier": 8780,
      "Thus": 8781,
      "teeth": 8782,
      "purch": 8783,
      "La": 8784,
      "defined": 8785,
      "recommend": 8786,
      "hosp": 8787,
      "edia": 8788,
      "extra": 8789,
      "stim": 8790,
      "iles": 8791,
      "comfort": 8792,
      "categ": 8793,
      "190": 8794,
      "church": 8795,
      "historical": 8796,
      "500": 8797,
      "rule": 8798,
      "erson": 8799,
      "copy": 8800,
      "bone": 8801,
      "tu": 8802,
      "Social": 8803,
      "reser": 8804,
      "Sch": 8805,
      "ister": 8806,
      "names": 8807,
      "map": 8808,
      "zy": 8809,
      "option": 8810,
      "balance": 8811,
      "ost": 8812,
      "plor": 8813,
      "Tur": 8814,
      "cycle": 8815,
      "gal": 8816,
      "Ca": 8817,
      "reduced": 8818,
      "atom": 8819,
      "applied": 8820,
      "ester": 8821,
      "cities": 8822,
      "vill": 8823,
      "ensity": 8824,
      "hear": 8825,
      "poses": 8826,
      "overall": 8827,
      "unit": 8828,
      "river": 8829,
      "cords": 8830,
      "aks": 8831,
      "appears": 8832,
      "OS": 8833,
      "kin": 8834,
      "Their": 8835,
      "Society": 8836,
      "Australia": 8837,
      "mod": 8838,
      "figure": 8839,
      "themat": 8840,
      "isl": 8841,
      "destroy": 8842,
      "rome": 8843,
      "kers": 8844,
      "Environment": 8845,
      "isn": 8846,
      "gold": 8847,
      "style": 8848,
      "Govern": 8849,
      "equal": 8850,
      "Febr": 8851,
      "phas": 8852,
      "gave": 8853,
      "bran": 8854,
      "tele": 8855,
      "letter": 8856,
      "House": 8857,
      "powerful": 8858,
      "dire": 8859,
      "aters": 8860,
      "orge": 8861,
      "bes": 8862,
      "existing": 8863,
      "Lab": 8864,
      "ibly": 8865,
      "MS": 8866,
      "ximately": 8867,
      "IP": 8868,
      "mir": 8869,
      "February": 8870,
      "context": 8871,
      "2016": 8872,
      "belief": 8873,
      "glass": 8874,
      "choice": 8875,
      "majority": 8876,
      "gypt": 8877,
      "Bud": 8878,
      "Medic": 8879,
      "nutr": 8880,
      "cand": 8881,
      "ios": 8882,
      "Children": 8883,
      "assign": 8884,
      "iety": 8885,
      "Vol": 8886,
      "ored": 8887,
      "prefer": 8888,
      "onto": 8889,
      "factor": 8890,
      "Hy": 8891,
      "connected": 8892,
      "sac": 8893,
      "grass": 8894,
      "didn": 8895,
      "Rev": 8896,
      "presence": 8897,
      "ulty": 8898,
      "cod": 8899,
      "root": 8900,
      "worked": 8901,
      "2014": 8902,
      "relatively": 8903,
      "umb": 8904,
      "tor": 8905,
      "philosoph": 8906,
      "mitted": 8907,
      "blue": 8908,
      "65": 8909,
      "Pal": 8910,
      "Germany": 8911,
      "Up": 8912,
      "ram": 8913,
      "colog": 8914,
      "tou": 8915,
      "status": 8916,
      "Thom": 8917,
      "friends": 8918,
      "showed": 8919,
      "vant": 8920,
      "deliver": 8921,
      "presents": 8922,
      "atmosph": 8923,
      "Phil": 8924,
      "Today": 8925,
      "illness": 8926,
      "trig": 8927,
      "Jewish": 8928,
      "compar": 8929,
      "antib": 8930,
      "Au": 8931,
      "nutri": 8932,
      "Mid": 8933,
      "situ": 8934,
      "Lu": 8935,
      "capacity": 8936,
      "virt": 8937,
      "iful": 8938,
      "illustr": 8939,
      "increases": 8940,
      "anx": 8941,
      "machine": 8942,
      "transfer": 8943,
      "acking": 8944,
      "Congress": 8945,
      "hydr": 8946,
      "bio": 8947,
      "Food": 8948,
      "William": 8949,
      "crit": 8950,
      "fresh": 8951,
      "trieved": 8952,
      "native": 8953,
      "\",": 8954,
      "lt": 8955,
      "ware": 8956,
      "Israel": 8957,
      "limit": 8958,
      "functions": 8959,
      "properties": 8960,
      "Span": 8961,
      "UK": 8962,
      "distance": 8963,
      "Egypt": 8964,
      "Lat": 8965,
      "surpr": 8966,
      "patterns": 8967,
      "creation": 8968,
      "stories": 8969,
      "acade": 8970,
      "Sal": 8971,
      "moment": 8972,
      "Japanese": 8973,
      "maxim": 8974,
      "Internet": 8975,
      "Cam": 8976,
      "ica": 8977,
      "cycl": 8978,
      "absor": 8979,
      "dat": 8980,
      "archite": 8981,
      "signs": 8982,
      "custom": 8983,
      "Rel": 8984,
      "modif": 8985,
      "thesis": 8986,
      "grade": 8987,
      "element": 8988,
      "Mal": 8989,
      "female": 8990,
      "aces": 8991,
      "48": 8992,
      "Human": 8993,
      "David": 8994,
      "expand": 8995,
      "oxy": 8996,
      "educational": 8997,
      "passed": 8998,
      "running": 8999,
      "2004": 9000,
      "offers": 9001,
      "court": 9002,
      "trict": 9003,
      "baby": 9004,
      "Green": 9005,
      "survey": 9006,
      "2017": 9007,
      "neuro": 9008,
      "gender": 9009,
      "Students": 9010,
      "Council": 9011,
      "journal": 9012,
      "accom": 9013,
      "direction": 9014,
      "pts": 9015,
      "plications": 9016,
      "party": 9017,
      "trust": 9018,
      "dol": 9019,
      "”,": 9020,
      "arian": 9021,
      "insect": 9022,
      "crim": 9023,
      "tro": 9024,
      "Western": 9025,
      "ctors": 9026,
      "emplo": 9027,
      "iny": 9028,
      "iot": 9029,
      "consci": 9030,
      "aign": 9031,
      "CC": 9032,
      "stro": 9033,
      "Association": 9034,
      "James": 9035,
      "regions": 9036,
      "wit": 9037,
      "organic": 9038,
      "ato": 9039,
      "foreign": 9040,
      "topic": 9041,
      "kid": 9042,
      "revol": 9043,
      "price": 9044,
      "tissue": 9045,
      "gi": 9046,
      "attract": 9047,
      "rout": 9048,
      "plastic": 9049,
      "istry": 9050,
      "picture": 9051,
      "Union": 9052,
      "gery": 9053,
      "France": 9054,
      "Public": 9055,
      "Miss": 9056,
      "instance": 9057,
      "eight": 9058,
      "staff": 9059,
      "Sub": 9060,
      "divid": 9061,
      "wanted": 9062,
      "favor": 9063,
      "gent": 9064,
      "disorder": 9065,
      "office": 9066,
      "muscle": 9067,
      "bridge": 9068,
      "Lin": 9069,
      "pi": 9070,
      "libr": 9071,
      "details": 9072,
      "inner": 9073,
      "findings": 9074,
      "opportunities": 9075,
      "learned": 9076,
      "fields": 9077,
      "Air": 9078,
      "Scot": 9079,
      "breath": 9080,
      "Fed": 9081,
      "resistance": 9082,
      "owners": 9083,
      "challenges": 9084,
      "chance": 9085,
      "changing": 9086,
      "thousands": 9087,
      "rock": 9088,
      "distribution": 9089,
      "Art": 9090,
      "wrong": 9091,
      "commercial": 9092,
      "famous": 9093,
      "fear": 9094,
      "huge": 9095,
      "components": 9096,
      "alle": 9097,
      "forced": 9098,
      "ordin": 9099,
      "believed": 9100,
      "faith": 9101,
      "articles": 9102,
      "reports": 9103,
      "Common": 9104,
      "emphas": 9105,
      "soft": 9106,
      "layer": 9107,
      "ultim": 9108,
      "wonder": 9109,
      "consumption": 9110,
      "emissions": 9111,
      "2003": 9112,
      "core": 9113,
      "Mor": 9114,
      "options": 9115,
      "aled": 9116,
      "setting": 9117,
      "contract": 9118,
      "aller": 9119,
      "95": 9120,
      "walk": 9121,
      "nuclear": 9122,
      "attach": 9123,
      "vas": 9124,
      "freedom": 9125,
      "Lord": 9126,
      "lived": 9127,
      "breast": 9128,
      "isol": 9129,
      "accoun": 9130,
      "util": 9131,
      "alg": 9132,
      "approximately": 9133,
      "itude": 9134,
      "separate": 9135,
      "suggests": 9136,
      "mountain": 9137,
      "hour": 9138,
      "Bel": 9139,
      "Retrieved": 9140,
      "ternal": 9141,
      "Teach": 9142,
      "apply": 9143,
      "clinical": 9144,
      "George": 9145,
      "notes": 9146,
      "estimated": 9147,
      "97": 9148,
      "Mary": 9149,
      "milk": 9150,
      "planning": 9151,
      "reference": 9152,
      "cin": 9153,
      "El": 9154,
      "parent": 9155,
      "eventually": 9156,
      "square": 9157,
      "vary": 9158,
      "ille": 9159,
      "igation": 9160,
      "vitamin": 9161,
      "structures": 9162,
      "strain": 9163,
      "Sam": 9164,
      "ships": 9165,
      "ifically": 9166,
      "industrial": 9167,
      "compreh": 9168,
      "Nat": 9169,
      "oles": 9170,
      "igen": 9171,
      "technologies": 9172,
      "liqu": 9173,
      "ET": 9174,
      "carried": 9175,
      "arrow": 9176,
      "organizations": 9177,
      "lls": 9178,
      "strength": 9179,
      "male": 9180,
      "geo": 9181,
      "kept": 9182,
      "Two": 9183,
      "highest": 9184,
      "bodies": 9185,
      "EM": 9186,
      "president": 9187,
      "infr": 9188,
      "sexual": 9189,
      "pow": 9190,
      "strategies": 9191,
      "immediately": 9192,
      "sufficient": 9193,
      "eding": 9194,
      "isation": 9195,
      "yl": 9196,
      "challenge": 9197,
      "auth": 9198,
      "Plan": 9199,
      "heavy": 9200,
      "excess": 9201,
      "exhib": 9202,
      "Ben": 9203,
      "Bas": 9204,
      "ju": 9205,
      "actual": 9206,
      "collabor": 9207,
      "prop": 9208,
      "decades": 9209,
      "Spanish": 9210,
      "metal": 9211,
      "observed": 9212,
      "opin": 9213,
      "nur": 9214,
      "goals": 9215,
      "Therefore": 9216,
      "task": 9217,
      "instruct": 9218,
      "EC": 9219,
      "extremely": 9220,
      "iron": 9221,
      "garden": 9222,
      "lu": 9223,
      "plans": 9224,
      "oxide": 9225,
      "medicine": 9226,
      "Using": 9227,
      "gather": 9228,
      "initi": 9229,
      "Av": 9230,
      "experiences": 9231,
      "tradition": 9232,
      "rol": 9233,
      "western": 9234,
      "chronic": 9235,
      "vul": 9236,
      "Sou": 9237,
      "dent": 9238,
      "happen": 9239,
      "combination": 9240,
      "proto": 9241,
      "Phys": 9242,
      "reality": 9243,
      "populations": 9244,
      "Organ": 9245,
      "bow": 9246,
      "turned": 9247,
      "feature": 9248,
      "Cr": 9249,
      "ingu": 9250,
      "wealth": 9251,
      "Colle": 9252,
      "film": 9253,
      "slight": 9254,
      "causing": 9255,
      "enty": 9256,
      "introduced": 9257,
      "intellig": 9258,
      "disci": 9259,
      "assu": 9260,
      "mentioned": 9261,
      "decisions": 9262,
      "rid": 9263,
      "becoming": 9264,
      "Greek": 9265,
      "employe": 9266,
      "save": 9267,
      "optim": 9268,
      "faces": 9269,
      "resource": 9270,
      "Found": 9271,
      "ries": 9272,
      "ogle": 9273,
      "Like": 9274,
      "radio": 9275,
      "shop": 9276,
      "Paul": 9277,
      "valu": 9278,
      "Republic": 9279,
      "urally": 9280,
      "eco": 9281,
      "disorders": 9282,
      "frequently": 9283,
      "dre": 9284,
      "las": 9285,
      "household": 9286,
      "Get": 9287,
      "god": 9288,
      "Government": 9289,
      "improv": 9290,
      "independent": 9291,
      "store": 9292,
      "significantly": 9293,
      "excl": 9294,
      "ule": 9295,
      "items": 9296,
      "legisl": 9297,
      "alternative": 9298,
      "expression": 9299,
      "prec": 9300,
      "College": 9301,
      "Further": 9302,
      "restrict": 9303,
      "2001": 9304,
      "depression": 9305,
      "apers": 9306,
      "release": 9307,
      "games": 9308,
      "batter": 9309,
      "clearly": 9310,
      "presented": 9311,
      "sand": 9312,
      "track": 9313,
      "screen": 9314,
      "mand": 9315,
      "aspects": 9316,
      "osis": 9317,
      "race": 9318,
      "RO": 9319,
      "Budd": 9320,
      "truth": 9321,
      "ror": 9322,
      "adult": 9323,
      "starting": 9324,
      "chain": 9325,
      "exc": 9326,
      "ias": 9327,
      "determined": 9328,
      "ocean": 9329,
      "descrip": 9330,
      "discussion": 9331,
      "coll": 9332,
      "interpret": 9333,
      "upper": 9334,
      "connection": 9335,
      "conducted": 9336,
      "55": 9337,
      "violence": 9338,
      "ky": 9339,
      "Cath": 9340,
      "0s": 9341,
      "assessment": 9342,
      "Hol": 9343,
      "schol": 9344,
      "operations": 9345,
      "homes": 9346,
      "tooth": 9347,
      "output": 9348,
      "astr": 9349,
      "dim": 9350,
      "easier": 9351,
      "fortun": 9352,
      "partners": 9353,
      "perspect": 9354,
      "About": 9355,
      "bottom": 9356,
      "ching": 9357,
      "electricity": 9358,
      "iment": 9359,
      "ston": 9360,
      "advantage": 9361,
      "requirements": 9362,
      "PD": 9363,
      "killed": 9364,
      "liber": 9365,
      "Museum": 9366,
      "2002": 9367,
      "rent": 9368,
      "novel": 9369,
      "tour": 9370,
      "email": 9371,
      "Life": 9372,
      "relevant": 9373,
      "Development": 9374,
      "east": 9375,
      "buildings": 9376,
      "44": 9377,
      "wash": 9378,
      "genes": 9379,
      "thin": 9380,
      "records": 9381,
      "ov": 9382,
      "drive": 9383,
      "cers": 9384,
      "participants": 9385,
      "Project": 9386,
      "unders": 9387,
      "numerous": 9388,
      "coal": 9389,
      "wards": 9390,
      "norm": 9391,
      "sample": 9392,
      "released": 9393,
      "emporary": 9394,
      "ulum": 9395,
      "volume": 9396,
      "oxygen": 9397,
      "PC": 9398,
      "remove": 9399,
      "widely": 9400,
      "circum": 9401,
      "Emp": 9402,
      "Mac": 9403,
      "mist": 9404,
      "ager": 9405,
      "Second": 9406,
      "noted": 9407,
      "tren": 9408,
      "contrast": 9409,
      "master": 9410,
      "Hen": 9411,
      "battle": 9412,
      "univers": 9413,
      "anyone": 9414,
      "Figure": 9415,
      "sav": 9416,
      "minor": 9417,
      "Hel": 9418,
      "linked": 9419,
      "spot": 9420,
      "radiation": 9421,
      "policies": 9422,
      "Its": 9423,
      "DA": 9424,
      "186": 9425,
      "physic": 9426,
      "fundam": 9427,
      "Test": 9428,
      "Profess": 9429,
      "appoint": 9430,
      "island": 9431,
      "push": 9432,
      "risks": 9433,
      "Post": 9434,
      "performed": 9435,
      "campaign": 9436,
      "ida": 9437,
      "tum": 9438,
      "ape": 9439,
      "99": 9440,
      "views": 9441,
      "Pho": 9442,
      "literature": 9443,
      "PS": 9444,
      "referred": 9445,
      "finding": 9446,
      "grees": 9447,
      "meat": 9448,
      "Both": 9449,
      "annual": 9450,
      "resulting": 9451,
      "lease": 9452,
      "bird": 9453,
      "plat": 9454,
      "Old": 9455,
      "toxic": 9456,
      "Ir": 9457,
      "hypo": 9458,
      "speech": 9459,
      "message": 9460,
      "affic": 9461,
      "Rich": 9462,
      "whom": 9463,
      "experiment": 9464,
      "White": 9465,
      "feeling": 9466,
      "Scient": 9467,
      "college": 9468,
      "HIV": 9469,
      "Google": 9470,
      "recommended": 9471,
      "appeared": 9472,
      "territ": 9473,
      "encing": 9474,
      "edge": 9475,
      "prison": 9476,
      "storage": 9477,
      "Dan": 9478,
      "Jer": 9479,
      "formal": 9480,
      "technique": 9481,
      "Fore": 9482,
      "relationships": 9483,
      "temperatures": 9484,
      "NO": 9485,
      "plate": 9486,
      "internal": 9487,
      "mostly": 9488,
      "processing": 9489,
      "citizens": 9490,
      "pes": 9491,
      "seed": 9492,
      "allowing": 9493,
      "units": 9494,
      "properly": 9495,
      "reducing": 9496,
      "beautiful": 9497,
      "lock": 9498,
      "NASA": 9499,
      "fine": 9500,
      "ado": 9501,
      "degrees": 9502,
      "authors": 9503,
      "stic": 9504,
      "bud": 9505,
      "principles": 9506,
      "regarding": 9507,
      "km": 9508,
      "heard": 9509,
      "divers": 9510,
      "anks": 9511,
      "Tex": 9512,
      "jour": 9513,
      "credit": 9514,
      "consul": 9515,
      "please": 9516,
      "Treat": 9517,
      "official": 9518,
      "Mart": 9519,
      "jun": 9520,
      "injury": 9521,
      "characteristics": 9522,
      "explor": 9523,
      "statement": 9524,
      "prepar": 9525,
      "Class": 9526,
      "grant": 9527,
      "waters": 9528,
      "liver": 9529,
      "distinct": 9530,
      "meeting": 9531,
      "northern": 9532,
      "religion": 9533,
      "surgery": 9534,
      "flood": 9535,
      "controlled": 9536,
      "interested": 9537,
      "EL": 9538,
      "volun": 9539,
      "ctic": 9540,
      "victim": 9541,
      "Thomas": 9542,
      "Wal": 9543,
      "vessel": 9544,
      "replace": 9545,
      "excell": 9546,
      "motion": 9547,
      "2018": 9548,
      "experienced": 9549,
      "Island": 9550,
      "ara": 9551,
      "helped": 9552,
      "300": 9553,
      "stra": 9554,
      "served": 9555,
      "happens": 9556,
      "phase": 9557,
      "belong": 9558,
      "fee": 9559,
      "lip": 9560,
      "adapt": 9561,
      "rob": 9562,
      "solutions": 9563,
      "mort": 9564,
      "exactly": 9565,
      "anxiety": 9566,
      "occas": 9567,
      "conservation": 9568,
      "Prote": 9569,
      "prepared": 9570,
      "input": 9571,
      "bank": 9572,
      "Direct": 9573,
      "invent": 9574,
      "usual": 9575,
      "Wil": 9576,
      "Bal": 9577,
      "Ter": 9578,
      "mathemat": 9579,
      "Def": 9580,
      "Em": 9581,
      "ula": 9582,
      "iling": 9583,
      "foc": 9584,
      "background": 9585,
      "ga": 9586,
      "https": 9587,
      "initial": 9588,
      "looked": 9589,
      "ilit": 9590,
      "solid": 9591,
      "nine": 9592,
      "possess": 9593,
      "Elect": 9594,
      "adjust": 9595,
      "Mag": 9596,
      "previously": 9597,
      "supported": 9598,
      "depending": 9599,
      "keeping": 9600,
      "da": 9601,
      "dynam": 9602,
      "dangerous": 9603,
      "embr": 9604,
      "netic": 9605,
      "exposed": 9606,
      "News": 9607,
      "iance": 9608,
      "Cap": 9609,
      "infections": 9610,
      "oph": 9611,
      "ologist": 9612,
      "omb": 9613,
      "thetic": 9614,
      "Who": 9615,
      "sla": 9616,
      "discover": 9617,
      "classes": 9618,
      "pages": 9619,
      "removed": 9620,
      "Cy": 9621,
      "iff": 9622,
      "orial": 9623,
      "47": 9624,
      "ii": 9625,
      "advanced": 9626,
      "Civil": 9627,
      "bell": 9628,
      "Learning": 9629,
      "chemicals": 9630,
      "failure": 9631,
      "southern": 9632,
      "Mexico": 9633,
      "Sha": 9634,
      "sin": 9635,
      "engineering": 9636,
      "udes": 9637,
      "involve": 9638,
      "sustainable": 9639,
      "elimin": 9640,
      "46": 9641,
      "Net": 9642,
      "emotional": 9643,
      "uters": 9644,
      "conflict": 9645,
      "adequ": 9646,
      "Glo": 9647,
      "hur": 9648,
      "arms": 9649,
      "obvious": 9650,
      "pieces": 9651,
      "fly": 9652,
      "promote": 9653,
      "lung": 9654,
      "reaction": 9655,
      "Fol": 9656,
      "surance": 9657,
      "involves": 9658,
      "Mod": 9659,
      "ander": 9660,
      "pover": 9661,
      "Space": 9662,
      "andom": 9663,
      "Medical": 9664,
      "gs": 9665,
      "math": 9666,
      "pick": 9667,
      "Asia": 9668,
      "describe": 9669,
      "Any": 9670,
      "leads": 9671,
      "urs": 9672,
      "Pac": 9673,
      "riage": 9674,
      "Service": 9675,
      "intended": 9676,
      "Make": 9677,
      "Off": 9678,
      "frequency": 9679,
      "gic": 9680,
      "thick": 9681,
      "effectively": 9682,
      "nav": 9683,
      "riculum": 9684,
      "yellow": 9685,
      "tructure": 9686,
      "dogs": 9687,
      "strugg": 9688,
      "strategy": 9689,
      "Jews": 9690,
      "experts": 9691,
      "expert": 9692,
      "angle": 9693,
      "incorpor": 9694,
      "meant": 9695,
      "opy": 9696,
      "decided": 9697,
      "tributed": 9698,
      "umn": 9699,
      "Data": 9700,
      "joint": 9701,
      "saying": 9702,
      "pollution": 9703,
      "seeds": 9704,
      "188": 9705,
      "zz": 9706,
      "ano": 9707,
      "iverse": 9708,
      "sort": 9709,
      "Book": 9710,
      "song": 9711,
      "manage": 9712,
      "oth": 9713,
      "Port": 9714,
      "Women": 9715,
      "familiar": 9716,
      "shr": 9717,
      "brother": 9718,
      "explore": 9719,
      "detect": 9720,
      "academic": 9721,
      "Central": 9722,
      "uration": 9723,
      "Ver": 9724,
      "rang": 9725,
      "lose": 9726,
      "mainly": 9727,
      "conscious": 9728,
      "CH": 9729,
      "spent": 9730,
      "helping": 9731,
      "wet": 9732,
      "Sen": 9733,
      "farmers": 9734,
      "closed": 9735,
      "multi": 9736,
      "Mem": 9737,
      "eggs": 9738,
      "station": 9739,
      "hit": 9740,
      "sell": 9741,
      "proposed": 9742,
      "Islam": 9743,
      "Note": 9744,
      "LE": 9745,
      "looks": 9746,
      "institutions": 9747,
      "focused": 9748,
      "Bra": 9749,
      "settle": 9750,
      "ya": 9751,
      "eties": 9752,
      "scen": 9753,
      "zone": 9754,
      "essay": 9755,
      "Arab": 9756,
      "ologists": 9757,
      "amounts": 9758,
      "signal": 9759,
      "continues": 9760,
      "awareness": 9761,
      "vegetables": 9762,
      "Information": 9763,
      "abol": 9764,
      "profession": 9765,
      "facts": 9766,
      "pun": 9767,
      "Bur": 9768,
      "cription": 9769,
      "Through": 9770,
      "concern": 9771,
      "definition": 9772,
      "2020": 9773,
      "Histor": 9774,
      "Libr": 9775,
      "ek": 9776,
      "concerns": 9777,
      "va": 9778,
      "traffic": 9779,
      "cris": 9780,
      "flowers": 9781,
      "aughter": 9782,
      "Medicine": 9783,
      "ags": 9784,
      "mm": 9785,
      "Ken": 9786,
      "grand": 9787,
      "existence": 9788,
      "Bay": 9789,
      "Mos": 9790,
      "SS": 9791,
      "iders": 9792,
      "Energy": 9793,
      "sky": 9794,
      "iced": 9795,
      "technical": 9796,
      "arent": 9797,
      "Lou": 9798,
      "Cons": 9799,
      "identity": 9800,
      "phenomen": 9801,
      "atmosphere": 9802,
      "trial": 9803,
      "expensive": 9804,
      "practical": 9805,
      "democr": 9806,
      "Virgin": 9807,
      "berg": 9808,
      "Del": 9809,
      "marine": 9810,
      "haz": 9811,
      "Que": 9812,
      "enem": 9813,
      "icial": 9814,
      "taught": 9815,
      "vulner": 9816,
      "adop": 9817,
      "manner": 9818,
      "reached": 9819,
      "pon": 9820,
      "cert": 9821,
      "renew": 9822,
      "completed": 9823,
      "Britain": 9824,
      "finally": 9825,
      "ny": 9826,
      "diagnosis": 9827,
      "satis": 9828,
      "Grou": 9829,
      "concepts": 9830,
      "AI": 9831,
      "py": 9832,
      "atell": 9833,
      "fluid": 9834,
      "osph": 9835,
      "motor": 9836,
      "Well": 9837,
      "Russian": 9838,
      "Stand": 9839,
      "Court": 9840,
      "filled": 9841,
      "links": 9842,
      "fal": 9843,
      "thes": 9844,
      "recorded": 9845,
      "datab": 9846,
      "hospital": 9847,
      "encourage": 9848,
      "notice": 9849,
      "motiv": 9850,
      "perman": 9851,
      "youth": 9852,
      "Such": 9853,
      "ell": 9854,
      "grav": 9855,
      "remained": 9856,
      "Mil": 9857,
      "Texas": 9858,
      "chief": 9859,
      "Wind": 9860,
      "Where": 9861,
      "reduction": 9862,
      "Year": 9863,
      "agon": 9864,
      "nutrition": 9865,
      "Kore": 9866,
      "execut": 9867,
      "Cre": 9868,
      "houses": 9869,
      "wife": 9870,
      "III": 9871,
      "drome": 9872,
      "extensive": 9873,
      "mel": 9874,
      "leader": 9875,
      "iled": 9876,
      "flex": 9877,
      "2019": 9878,
      "iger": 9879,
      "invas": 9880,
      "Mass": 9881,
      "ba": 9882,
      "morning": 9883,
      "Technology": 9884,
      "improved": 9885,
      "foss": 9886,
      "professor": 9887,
      "electrical": 9888,
      "dated": 9889,
      "sector": 9890,
      "conver": 9891,
      "1999": 9892,
      "Fam": 9893,
      "compe": 9894,
      "justice": 9895,
      "begins": 9896,
      "protected": 9897,
      "comment": 9898,
      "click": 9899,
      "Muslim": 9900,
      "ague": 9901,
      "Those": 9902,
      "raised": 9903,
      "Latin": 9904,
      "indicate": 9905,
      "ads": 9906,
      "izon": 9907,
      "cognitive": 9908,
      "collected": 9909,
      "shar": 9910,
      "procedure": 9911,
      "combined": 9912,
      "languages": 9913,
      "liquid": 9914,
      "Out": 9915,
      "biological": 9916,
      "rupt": 9917,
      "vital": 9918,
      "authority": 9919,
      "fing": 9920,
      "mode": 9921,
      "shared": 9922,
      "primarily": 9923,
      "rum": 9924,
      "TO": 9925,
      "gment": 9926,
      "centuries": 9927,
      "bright": 9928,
      "poverty": 9929,
      "hearing": 9930,
      "playing": 9931,
      "pred": 9932,
      "49": 9933,
      "icy": 9934,
      "ogen": 9935,
      "hyper": 9936,
      "Know": 9937,
      "Instead": 9938,
      "profit": 9939,
      "girls": 9940,
      "fif": 9941,
      "kinds": 9942,
      "aches": 9943,
      "particles": 9944,
      "containing": 9945,
      "pup": 9946,
      "oting": 9947,
      "Smith": 9948,
      "efficiency": 9949,
      "Ze": 9950,
      "lesson": 9951,
      "accurate": 9952,
      "convers": 9953,
      "crete": 9954,
      "offered": 9955,
      "brief": 9956,
      "voice": 9957,
      "purposes": 9958,
      "letters": 9959,
      "UR": 9960,
      "rogen": 9961,
      "tested": 9962,
      "hop": 9963,
      "Bible": 9964,
      "Commission": 9965,
      "mobile": 9966,
      "persons": 9967,
      "revolution": 9968,
      "asp": 9969,
      "felt": 9970,
      "wear": 9971,
      "Pacific": 9972,
      "cook": 9973,
      "phr": 9974,
      "snow": 9975,
      "ideal": 9976,
      "matic": 9977,
      "army": 9978,
      "Before": 9979,
      "circu": 9980,
      "Sum": 9981,
      "explained": 9982,
      "THE": 9983,
      "occurred": 9984,
      "despite": 9985,
      "Yet": 9986,
      "specifically": 9987,
      "Good": 9988,
      "fro": 9989,
      "mph": 9990,
      "trou": 9991,
      "Jose": 9992,
      "ern": 9993,
      "drinking": 9994,
      "largely": 9995,
      "conv": 9996,
      "san": 9997,
      "explan": 9998,
      "paid": 9999,
      "Army": 10000,
      "divided": 10001,
      "rail": 10002,
      "ounced": 10003,
      "clim": 10004,
      "straight": 10005,
      "nations": 10006,
      "spl": 10007,
      "yield": 10008,
      "sight": 10009,
      "seek": 10010,
      "responsibility": 10011,
      "samples": 10012,
      "Ant": 10013,
      "MD": 10014,
      "pressed": 10015,
      "cis": 10016,
      "rural": 10017,
      "Artic": 10018,
      "send": 10019,
      "claims": 10020,
      "spend": 10021,
      "grown": 10022,
      "sion": 10023,
      "thoughts": 10024,
      "agricultural": 10025,
      "oted": 10026,
      "mere": 10027,
      "odes": 10028,
      "Tor": 10029,
      "Home": 10030,
      "iring": 10031,
      "certainly": 10032,
      "extent": 10033,
      "height": 10034,
      "hi": 10035,
      "situations": 10036,
      "neut": 10037,
      "hes": 10038,
      "yn": 10039,
      "salt": 10040,
      "Publ": 10041,
      "bing": 10042,
      "oppos": 10043,
      "treatments": 10044,
      "muscles": 10045,
      "employment": 10046,
      "Econom": 10047,
      "contribute": 10048,
      "Ef": 10049,
      "wish": 10050,
      "lets": 10051,
      "police": 10052,
      "operating": 10053,
      "lie": 10054,
      "HO": 10055,
      "sched": 10056,
      "1998": 10057,
      "Bre": 10058,
      "speaking": 10059,
      "discipl": 10060,
      "pray": 10061,
      "feeding": 10062,
      "Catholic": 10063,
      "iveness": 10064,
      "dollar": 10065,
      "wid": 10066,
      "gun": 10067,
      "Bir": 10068,
      "consequences": 10069,
      "typical": 10070,
      "Met": 10071,
      "subjects": 10072,
      "Charles": 10073,
      "cide": 10074,
      "fare": 10075,
      "Mat": 10076,
      "emergency": 10077,
      "excellent": 10078,
      "producing": 10079,
      "explains": 10080,
      "convent": 10081,
      "Federal": 10082,
      "aph": 10083,
      "zo": 10084,
      "cel": 10085,
      "jobs": 10086,
      "aran": 10087,
      "moral": 10088,
      "recognized": 10089,
      "mi": 10090,
      "showing": 10091,
      "oma": 10092,
      "TI": 10093,
      "Micro": 10094,
      "otherwise": 10095,
      "Environmental": 10096,
      "tery": 10097,
      "Please": 10098,
      "random": 10099,
      "inher": 10100,
      "career": 10101,
      "Dise": 10102,
      "doub": 10103,
      "title": 10104,
      "played": 10105,
      "vaccine": 10106,
      "Cle": 10107,
      "refers": 10108,
      "files": 10109,
      "Studies": 10110,
      "Mer": 10111,
      "PM": 10112,
      "advance": 10113,
      "advice": 10114,
      "habitat": 10115,
      "ka": 10116,
      "itors": 10117,
      "Despite": 10118,
      "apping": 10119,
      "sides": 10120,
      "astern": 10121,
      "tons": 10122,
      "iday": 10123,
      "fundamental": 10124,
      "uded": 10125,
      "scan": 10126,
      "abuse": 10127,
      "neighbor": 10128,
      "domestic": 10129,
      "impacts": 10130,
      "Robert": 10131,
      "roots": 10132,
      "drink": 10133,
      "capable": 10134,
      "vast": 10135,
      "solute": 10136,
      "sounds": 10137,
      "faster": 10138,
      "measured": 10139,
      "positions": 10140,
      "Rem": 10141,
      "returned": 10142,
      "detailed": 10143,
      "Power": 10144,
      "acters": 10145,
      "suggested": 10146,
      "Exam": 10147,
      "Russia": 10148,
      "aint": 10149,
      "double": 10150,
      "maximum": 10151,
      "ensus": 10152,
      "monitoring": 10153,
      "igenous": 10154,
      "nutrients": 10155,
      "Henry": 10156,
      "Nature": 10157,
      "stars": 10158,
      "CS": 10159,
      "governments": 10160,
      "greatest": 10161,
      "attacks": 10162,
      "Flor": 10163,
      "Lake": 10164,
      "Ve": 10165,
      "Vis": 10166,
      "Atl": 10167,
      "Fort": 10168,
      "calls": 10169,
      "immigr": 10170,
      "Sea": 10171,
      "assum": 10172,
      "valid": 10173,
      "apparent": 10174,
      "42": 10175,
      "substant": 10176,
      "walls": 10177,
      "iel": 10178,
      "Middle": 10179,
      "gro": 10180,
      "85": 10181,
      "pin": 10182,
      "server": 10183,
      "ception": 10184,
      "Pan": 10185,
      "Fl": 10186,
      "stated": 10187,
      "crop": 10188,
      "increasingly": 10189,
      "Acade": 10190,
      "CA": 10191,
      "doi": 10192,
      "dependent": 10193,
      "tasks": 10194,
      "Bet": 10195,
      "depth": 10196,
      "crops": 10197,
      "ifying": 10198,
      "studied": 10199,
      "CE": 10200,
      "fle": 10201,
      "dram": 10202,
      "surrounding": 10203,
      "external": 10204,
      "minimum": 10205,
      "Only": 10206,
      "potentially": 10207,
      "greg": 10208,
      "helpful": 10209,
      "slightly": 10210,
      "director": 10211,
      "marks": 10212,
      "component": 10213,
      "hundreds": 10214,
      "index": 10215,
      "fold": 10216,
      "destru": 10217,
      "spiritual": 10218,
      "happened": 10219,
      "Last": 10220,
      "topics": 10221,
      "roll": 10222,
      "Photo": 10223,
      "celer": 10224,
      "TS": 10225,
      "visible": 10226,
      "perspective": 10227,
      "interests": 10228,
      "Rights": 10229,
      "Foundation": 10230,
      "voc": 10231,
      "creative": 10232,
      "crisis": 10233,
      "smart": 10234,
      "infected": 10235,
      "astro": 10236,
      "affects": 10237,
      "moist": 10238,
      "approaches": 10239,
      "investment": 10240,
      "enses": 10241,
      "vehicle": 10242,
      "constit": 10243,
      "rou": 10244,
      "discovery": 10245,
      "Review": 10246,
      "floor": 10247,
      "Long": 10248,
      "secret": 10249,
      "Stre": 10250,
      "adding": 10251,
      "crib": 10252,
      "Gl": 10253,
      "couple": 10254,
      "officials": 10255,
      "Time": 10256,
      "icon": 10257,
      "cium": 10258,
      "sensitive": 10259,
      "logical": 10260,
      "Library": 10261,
      "marked": 10262,
      "Ox": 10263,
      "Find": 10264,
      "ecolog": 10265,
      "listed": 10266,
      "consists": 10267,
      "follows": 10268,
      "flight": 10269,
      "PR": 10270,
      "Int": 10271,
      "orient": 10272,
      "astructure": 10273,
      "comput": 10274,
      "tun": 10275,
      "characters": 10276,
      "knew": 10277,
      "tood": 10278,
      "400": 10279,
      "tension": 10280,
      "uff": 10281,
      "Have": 10282,
      "instruction": 10283,
      "productive": 10284,
      "tage": 10285,
      "umin": 10286,
      "paint": 10287,
      "brown": 10288,
      "selected": 10289,
      "proteins": 10290,
      "goods": 10291,
      "pa": 10292,
      "naturally": 10293,
      "appearance": 10294,
      "pha": 10295,
      "wave": 10296,
      "prepare": 10297,
      "icated": 10298,
      "regul": 10299,
      "normally": 10300,
      "ING": 10301,
      "ammation": 10302,
      "fortunately": 10303,
      "represents": 10304,
      "digest": 10305,
      "secure": 10306,
      "185": 10307,
      "rier": 10308,
      "horse": 10309,
      "fib": 10310,
      "facilities": 10311,
      "Carol": 10312,
      "forming": 10313,
      "substance": 10314,
      "Bro": 10315,
      "tried": 10316,
      "apart": 10317,
      "ota": 10318,
      "claimed": 10319,
      "bear": 10320,
      "ody": 10321,
      "documents": 10322,
      "Ham": 10323,
      "inations": 10324,
      "atever": 10325,
      "prices": 10326,
      "understood": 10327,
      "ville": 10328,
      "depends": 10329,
      "periods": 10330,
      "dial": 10331,
      "Learn": 10332,
      "BN": 10333,
      "nest": 10334,
      "?”": 10335,
      "CR": 10336,
      "request": 10337,
      "Psych": 10338,
      "pleas": 10339,
      "stret": 10340,
      "rapidly": 10341,
      "suffering": 10342,
      "error": 10343,
      "organisms": 10344,
      "stable": 10345,
      "Constitution": 10346,
      "concerned": 10347,
      "Sat": 10348,
      "Tra": 10349,
      "tips": 10350,
      "Guide": 10351,
      "98": 10352,
      "Rad": 10353,
      "closely": 10354,
      "Global": 10355,
      "frag": 10356,
      "AB": 10357,
      "Men": 10358,
      "llect": 10359,
      "park": 10360,
      "phy": 10361,
      "lights": 10362,
      "itage": 10363,
      "Nav": 10364,
      "usive": 10365,
      "concentration": 10366,
      "narrow": 10367,
      "pel": 10368,
      "exts": 10369,
      "stock": 10370,
      "azing": 10371,
      "funding": 10372,
      "employees": 10373,
      "crucial": 10374,
      "Professor": 10375,
      "catch": 10376,
      "discussed": 10377,
      "Gold": 10378,
      "generate": 10379,
      "doors": 10380,
      "Ann": 10381,
      "43": 10382,
      "feelings": 10383,
      "medium": 10384,
      "correspond": 10385,
      "Pers": 10386,
      "Writ": 10387,
      "Main": 10388,
      "Control": 10389,
      "photograph": 10390,
      "wire": 10391,
      "Agr": 10392,
      "curriculum": 10393,
      "burg": 10394,
      "tical": 10395,
      "driving": 10396,
      "Keep": 10397,
      "ules": 10398,
      "bles": 10399,
      "pil": 10400,
      "bones": 10401,
      "ificial": 10402,
      "viet": 10403,
      "leaving": 10404,
      "residents": 10405,
      "fertil": 10406,
      "inches": 10407,
      "subsequ": 10408,
      "neur": 10409,
      "MA": 10410,
      "medications": 10411,
      "moon": 10412,
      "Engine": 10413,
      "cars": 10414,
      "argument": 10415,
      "diversity": 10416,
      "weap": 10417,
      "orm": 10418,
      "movements": 10419,
      "pig": 10420,
      "Follow": 10421,
      "41": 10422,
      "raise": 10423,
      "agreement": 10424,
      "harvest": 10425,
      "Mill": 10426,
      "advoc": 10427,
      "toler": 10428,
      "rig": 10429,
      "Canadian": 10430,
      "library": 10431,
      "dut": 10432,
      "outcomes": 10433,
      "secondary": 10434,
      "76": 10435,
      "cope": 10436,
      "1997": 10437,
      "happy": 10438,
      "insp": 10439,
      "ault": 10440,
      "consistent": 10441,
      "Clim": 10442,
      "aqu": 10443,
      "Take": 10444,
      "regularly": 10445,
      "regional": 10446,
      "distingu": 10447,
      "introduction": 10448,
      "fruits": 10449,
      "opened": 10450,
      "Group": 10451,
      "touch": 10452,
      "alk": 10453,
      "Ire": 10454,
      "Div": 10455,
      "pictures": 10456,
      "narr": 10457,
      "Soviet": 10458,
      "prevention": 10459,
      "chapter": 10460,
      "Roy": 10461,
      "Study": 10462,
      "forests": 10463,
      "Alex": 10464,
      "Free": 10465,
      "parties": 10466,
      "150": 10467,
      "mov": 10468,
      "Though": 10469,
      "exchange": 10470,
      "accompl": 10471,
      "circumst": 10472,
      "cm": 10473,
      "generated": 10474,
      "ordinary": 10475,
      "originally": 10476,
      "zer": 10477,
      "depos": 10478,
      "ald": 10479,
      "computers": 10480,
      "Louis": 10481,
      "dden": 10482,
      "willing": 10483,
      "internet": 10484,
      "Management": 10485,
      "procedures": 10486,
      "precise": 10487,
      "shot": 10488,
      "colors": 10489,
      "derived": 10490,
      "possibly": 10491,
      "clar": 10492,
      "crow": 10493,
      "Di": 10494,
      "obtained": 10495,
      "wing": 10496,
      "recovery": 10497,
      "usal": 10498,
      "talking": 10499,
      "constitution": 10500,
      "satell": 10501,
      "Finally": 10502,
      "museum": 10503,
      "USA": 10504,
      "amed": 10505,
      "electro": 10506,
      "OF": 10507,
      "istan": 10508,
      "Jud": 10509,
      "dust": 10510,
      "Francis": 10511,
      "latest": 10512,
      "Num": 10513,
      "millions": 10514,
      "zing": 10515,
      "edition": 10516,
      "apped": 10517,
      "gone": 10518,
      "Rome": 10519,
      "Table": 10520,
      "pure": 10521,
      "sures": 10522,
      "reci": 10523,
      "advis": 10524,
      "’.": 10525,
      "Early": 10526,
      "village": 10527,
      "solve": 10528,
      "adequate": 10529,
      "tenance": 10530,
      ".|": 10531,
      "Gal": 10532,
      "leadership": 10533,
      "ancing": 10534,
      "impossible": 10535,
      "dates": 10536,
      "Design": 10537,
      "valuable": 10538,
      "lessons": 10539,
      "agriculture": 10540,
      "hael": 10541,
      "principle": 10542,
      "Natural": 10543,
      "77": 10544,
      "recognize": 10545,
      "mur": 10546,
      "pit": 10547,
      "sper": 10548,
      "opinion": 10549,
      "otic": 10550,
      "Work": 10551,
      "anda": 10552,
      "possibility": 10553,
      "1996": 10554,
      "ingred": 10555,
      "IL": 10556,
      "sole": 10557,
      "labe": 10558,
      "enzy": 10559,
      "cules": 10560,
      "Office": 10561,
      "ean": 10562,
      "organized": 10563,
      "Peter": 10564,
      "ml": 10565,
      "leaf": 10566,
      "comprehensive": 10567,
[...]
