{
  "version": "1.0",
  "truncation": null,
  "padding": null,
  "added_tokens": [
    {
      "id": 0,
      "content": "[UNK]",
      "single_word": false,
      "lstrip": false,
      "rstrip": false,
      "normalized": false,
      "special": true
    },
    {
      "id": 1,
      "content": "[CLS]",
      "single_word": false,
      "lstrip": false,
      "rstrip": false,
      "normalized": false,
      "special": true
    },
    {
      "id": 2,
      "content": "[SEP]",
      "single_word": false,
      "lstrip": false,
      "rstrip": false,
      "normalized": false,
      "special": true
    },
    {
      "id": 3,
      "content": "[PAD]",
      "single_word": false,
      "lstrip": false,
      "rstrip": false,
      "normalized": false,
      "special": true
    },
    {
      "id": 4,
      "content": "[MASK]",
      "single_word": false,
      "lstrip": false,
      "rstrip": false,
      "normalized": false,
      "special": true
    },
    {
      "id": 5,
      "content": "[EOS]",
      "single_word": false,
      "lstrip": false,
      "rstrip": false,
      "normalized": false,
      "special": true
    }
  ],
  "normalizer": null,
  "pre_tokenizer": {
    "type": "ByteLevel",
    "add_prefix_space": false,
    "trim_offsets": true,
    "use_regex": true
  },
  "post_processor": null,
  "decoder": {
    "type": "ByteLevel",
    "add_prefix_space": true,
    "trim_offsets": true,
    "use_regex": true
  },
  "model": {
    "type": "BPE",
    "dropout": null,
    "unk_token": "[UNK]",
    "continuing_subword_prefix": null,
    "end_of_word_suffix": null,
    "fuse_unk": false,
    "byte_fallback": false,
    "ignore_merges": false,
    "vocab": {
      "[UNK]": 0,
      "[CLS]": 1,
      "[SEP]": 2,
      "[PAD]": 3,
      "[MASK]": 4,
      "[EOS]": 5,
      "!": 6,
      "\"": 7,
      "#": 8,
      "$": 9,
      "%": 10,
      "&": 11,
      "'": 12,
      "(": 13,
      ")": 14,
      "*": 15,
      "+": 16,
      ",": 17,
      "-": 18,
      ".": 19,
      "/": 20,
      "0": 21,
      "1": 22,
      "2": 23,
      "3": 24,
      "4": 25,
      "5": 26,
      "6": 27,
      "7": 28,
      "8": 29,
      "9": 30,
      ":": 31,
      ";": 32,
      "<": 33,
      "=": 34,
      ">": 35,
      "?": 36,
      "@": 37,
      "A": 38,
      "B": 39,
      "C": 40,
      "D": 41,
      "E": 42,
      "F": 43,
      "G": 44,
      "H": 45,
      "I": 46,
      "J": 47,
      "K": 48,
      "L": 49,
      "M": 50,
      "N": 51,
      "O": 52,
      "P": 53,
      "Q": 54,
      "R": 55,
      "S": 56,
      "T": 57,
      "U": 58,
      "V": 59,
      "W": 60,
      "X": 61,
      "Y": 62,
      "Z": 63,
      "[": 64,
      "\\": 65,
      "]": 66,
      "^": 67,
      "_": 68,
      "`": 69,
      "a": 70,
      "b": 71,
      "c": 72,
      "d": 73,
      "e": 74,
      "f": 75,
      "g": 76,
      "h": 77,
      "i": 78,
      "j": 79,
      "k": 80,
      "l": 81,
      "m": 82,
      "n": 83,
      "o": 84,
      "p": 85,
      "q": 86,
      "r": 87,
      "s": 88,
      "t": 89,
      "u": 90,
      "v": 91,
      "w": 92,
      "x": 93,
      "y": 94,
      "z": 95,
      "|": 96,
      "~": 97,
      "¢": 98,
      "£": 99,
      "¦": 100,
      "§": 101,
      "¨": 102,
      "©": 103,
      "®": 104,
      "¯": 105,
      "°": 106,
      "±": 107,
      "³": 108,
      "¶": 109,
      "·": 110,
      "º": 111,
      "»": 112,
      "Â": 113,
      "Ã": 114,
      "×": 115,
      "â": 116,
      "å": 117,
      "æ": 118,
      "ç": 119,
      "è": 120,
      "Ċ": 121,
      "Ġ": 122,
      "Ģ": 123,
      "Ħ": 124,
      "Ĩ": 125,
      "ĩ": 126,
      "ı": 127,
      "Ĳ": 128,
      "ĳ": 129,
      "Ĵ": 130,
      "ĵ": 131,
      "Ķ": 132,
      "ķ": 133,
      "ĸ": 134,
      "Ĺ": 135,
      "ĺ": 136,
      "Ļ": 137,
      "ļ": 138,
      "Ľ": 139,
      "ľ": 140,
      "Ŀ": 141,
      "ŀ": 142,
      "Ł": 143,
      "Ń": 144,
      "Ġt": 145,
      "Ġa": 146,
      "he": 147,
      "in": 148,
      "re": 149,
      "Ġo": 150,
      "Ġthe": 151,
      "er": 152,
      "at": 153,
      "Ġs": 154,
      "on": 155,
      "en": 156,
      "is": 157,
      "Ġc": 158,
      "Ġw": 159,
      "es": 160,
      "an": 161,
      "Ġp": 162,
      "or": 163,
      "it": 164,
      "ed": 165,
      "Ġof": 166,
      "Ġan": 167,
      "Ġb": 168,
      "al": 169,
      "Ġf": 170,
      "ing": 171,
      "ou": 172,
      "Ġin": 173,
      "Ġm": 174,
      "ic": 175,
      "Ġto": 176,
      "ar": 177,
      "Ġd": 178,
      "Ġand": 179,
      "ion": 180,
      "le": 181,
      "ro": 182,
      "as": 183,
      "Ġth": 184,
      "Ġh": 185,
      "ct": 186,
      "ent": 187,
      "Ġe": 188,
      "Ġre": 189,
      "il": 190,
      "st": 191,
      "ve": 192,
      "Ġl": 193,
      "om": 194,
      "Ġn": 195,
      "ly": 196,
      "Ġis": 197,
      "Ġbe": 198,
      "se": 199,
      "ce": 200,
      "Ġg": 201,
      "im": 202,
      "ow": 203,
      "ĠT": 204,
      "ur": 205,
      "id": 206,
      "ation": 207,
      "ra": 208,
      "âĢ": 209,
      "ut": 210,
      "ol": 211,
      "ĠA": 212,
      "ot": 213,
      "Ġon": 214,
      "Ġfor": 215,
      "ig": 216,
      "ch": 217,
      "Ġthat": 218,
      "ĠI": 219,
      "ĠS": 220,
      "ĠC": 221,
      "Ġu": 222,
      "et": 223,
      "ver": 224,
      "ay": 225,
      "Ġst": 226,
      "ul": 227,
      "ir": 228,
      "Ġy": 229,
      "Ġas": 230,
      "Ġpro": 231,
      "Ġor": 232,
      "am": 233,
      "if": 234,
      "ith": 235,
      "ĠM": 236,
      "her": 237,
      "Ġwith": 238,
      "em": 239,
      "el": 240,
      "ter": 241,
      "Ġwh": 242,
      "ad": 243,
      "Ġare": 244,
      "Ġcon": 245,
      "Ġyou": 246,
      "od": 247,
      "ĠB": 248,
      "ri": 249,
      "nd": 250,
      "ts": 251,
      "ĠP": 252,
      "op": 253,
      "Ġal": 254,
      "Ġ(": 255,
      "ge": 256,
      "ore": 257,
      "ect": 258,
      "ers": 259,
      "ate": 260,
      "ain": 261,
      "Ġit": 262,
      "ies": 263,
      "Ġhe": 264,
      "os": 265,
      "ment": 266,
      "Ġwe": 267,
      "Ġsu": 268,
      "Ġex": 269,
      "ĠThe": 270,
      "res": 271,
      "ity": 272,
      "Ġat": 273,
      "ill": 274,
      "Ġ1": 275,
      "us": 276,
      "ess": 277,
      "Ġde": 278,
      "Ġha": 279,
      "ist": 280,
      "ĠF": 281,
      "ĠH": 282,
      "Ġcom": 283,
      "qu": 284,
      "pp": 285,
      "igh": 286,
      "ive": 287,
      "Ġr": 288,
      "ab": 289,
      "ort": 290,
      "ld": 291,
      "Ġby": 292,
      "ke": 293,
      "rom": 294,
      "oc": 295,
      "um": 296,
      "ĠE": 297,
      "nt": 298,
      "ĠW": 299,
      "and": 300,
      "Ġv": 301,
      "ud": 302,
      "âĢĻ": 303,
      "Ġle": 304,
      "ĠR": 305,
      "Ġch": 306,
      "ac": 307,
      "Ġhave": 308,
      "iv": 309,
      "th": 310,
      "est": 311,
      "Ġne": 312,
      "Ġ2": 313,
      "all": 314,
      "ĠG": 315,
      "Ġwas": 316,
      "du": 317,
      "ĠD": 318,
      "Ġfrom": 319,
      "ical": 320,
      "Ġse": 321,
      "Ġnot": 322,
      "ant": 323,
      "ure": 324,
      "ich": 325,
      "ĠL": 326,
      "un": 327,
      "Ġsh": 328,
      "ard": 329,
      "ions": 330,
      "pt": 331,
      "rou": 332,
      "ther": 333,
      "Ġthis": 334,
      "The": 335,
      "Ġus": 336,
      "are": 337,
      "ere": 338,
      "Ġwor": 339,
      "gh": 340,
      "Ġwhich": 341,
      "end": 342,
      "ff": 343,
      "our": 344,
      "ine": 345,
      "00": 346,
      "ĠN": 347,
      "Ġim": 348,
      "Ġcan": 349,
      "Ġpl": 350,
      "art": 351,
      "ag": 352,
      "ial": 353,
      "pe": 354,
      "Ġk": 355,
      "ated": 356,
      "ance": 357,
      "ould": 358,
      "ip": 359,
      "ĠâĢ": 360,
      "out": 361,
      "Ġwhe": 362,
      "Ġab": 363,
      "og": 364,
      "'s": 365,
      "ome": 366,
      "ost": 367,
      "ĠJ": 368,
      "ĠIn": 369,
      "ight": 370,
      "ĠO": 371,
      "per": 372,
      "ĠU": 373,
      "Ġen": 374,
      "Ġma": 375,
      "orm": 376,
      "Ġac": 377,
      "ous": 378,
      "Ġmore": 379,
      "iz": 380,
      "ire": 381,
      "ood": 382,
      "ru": 383,
      "ell": 384,
      "Ġso": 385,
      "ew": 386,
      "Ġtheir": 387,
      "Ġint": 388,
      "Ġbut": 389,
      "Ġdis": 390,
      "so": 391,
      "Ġad": 392,
      "Ġres": 393,
      "ust": 394,
      "Ġper": 395,
      "Ġcont": 396,
      "vel": 397,
      "Ġcomp": 398,
      "ran": 399,
      "ations": 400,
      "ction": 401,
      "ia": 402,
      "Ġall": 403,
      "ast": 404,
      "ents": 405,
      "Ġ\"": 406,
      "ide": 407,
      "ear": 408,
      "au": 409,
      "ild": 410,
      "Ġwill": 411,
      "ition": 412,
      "ress": 413,
      "Ġimp": 414,
      "age": 415,
      "ater": 416,
      "ary": 417,
      "Ġone": 418,
      "iff": 419,
      "Ġinc": 420,
      "Ġman": 421,
      "Ġhas": 422,
      "now": 423,
      "ice": 424,
      "ft": 425,
      "Ġother": 426,
      "Ġdo": 427,
      "ign": 428,
      "Ġwere": 429,
      "Ġthey": 430,
      "ence": 431,
      "cess": 432,
      "âĢĿ": 433,
      "ong": 434,
      "ose": 435,
      "Ġhis": 436,
      "ib": 437,
      "ĠTh": 438,
      "act": 439,
      "ind": 440,
      "Ġ19": 441,
      "ep": 442,
      "ry": 443,
      "ric": 444,
      "Ġcl": 445,
      "ally": 446,
      "ens": 447,
      "Ġpre": 448,
      "ount": 449,
      "Ġdes": 450,
      "ame": 451,
      "ory": 452,
      "Ġdiff": 453,
      "ass": 454,
      "Ġar": 455,
      "Ġpe": 456,
      "ach": 457,
      "yst": 458,
      "lect": 459,
      "ap": 460,
      "Ġthere": 461,
      "Ġun": 462,
      "able": 463,
      "av": 464,
      "Ġknow": 465,
      "Ġapp": 466,
      "ult": 467,
      "Ġme": 468,
      "Ġprodu": 469,
      "ace": 470,
      "ber": 471,
      "ces": 472,
      "pl": 473,
      "ĠK": 474,
      "ase": 475,
      "ause": 476,
      "Ġabout": 477,
      "ystem": 478,
      "ak": 479,
      "form": 480,
      "ject": 481,
      "Ġrec": 482,
      "Ġalso": 483,
      "ĠâĢľ": 484,
      "Ġtim": 485,
      "Ġout": 486,
      "Ġbec": 487,
      "ities": 488,
      "very": 489,
      "Ġwho": 490,
      "Ġ200": 491,
      "rough": 492,
      "ons": 493,
      "ound": 494,
      "Ġbeen": 495,
      "Ġwhen": 496,
      "ile": 497,
      "Ġj": 498,
      "Ġmay": 499,
      "vers": 500,
      "Ġwork": 501,
      "hy": 502,
      "led": 503,
      "ple": 504,
      "ĠSt": 505,
      "Ġstud": 506,
      "ord": 507,
      "Ġpat": 508,
      "Ġcomm": 509,
      "Ġyour": 510,
      "Ġpart": 511,
      "Ġev": 512,
      "Ġeff": 513,
      "Ġgo": 514,
      "wn": 515,
      "ating": 516,
      "Ġif": 517,
      "Ġfl": 518,
      "Ġtra": 519,
      "fter": 520,
      "mer": 521,
      "Ġag": 522,
      "Ġsp": 523,
      "con": 524,
      "Ġsome": 525,
      "ople": 526,
      "ok": 527,
      "Ġsa": 528,
      "ays": 529,
      ").": 530,
      "cis": 531,
      "ian": 532,
      "Ġqu": 533,
      "ren": 534,
      "Ġob": 535,
      "ish": 536,
      "Ġthan": 537,
      "ĠIt": 538,
      "Ġup": 539,
      "ang": 540,
      "ors": 541,
      "ware": 542,
      "ning": 543,
      "Ġte": 544,
      "ree": 545,
      "Ġthem": 546,
      "ite": 547,
      "velop": 548,
      "erv": 549,
      "Ġbet": 550,
      "olog": 551,
      "ack": 552,
      "Ġany": 553,
      "Ġneed": 554,
      "reat": 555,
      "Ġpo": 556,
      "Ġinto": 557,
      "cri": 558,
      "ough": 559,
      "Ġtime": 560,
      "Ġam": 561,
      "Ġonly": 562,
      "Ġchild": 563,
      "Ġpeople": 564,
      "ike": 565,
      "Ġ-": 566,
      "Ġhow": 567,
      "ments": 568,
      "lic": 569,
      "ue": 570,
      "Ġspe": 571,
      "Ġact": 572,
      "one": 573,
      "Ġmem": 574,
      "aint": 575,
      "Ġthese": 576,
      "ative": 577,
      "ane": 578,
      "Ġthrough": 579,
      "Ġhad": 580,
      "irst": 581,
      "tern": 582,
      "oss": 583,
      "ĠThis": 584,
      "ll": 585,
      "erm": 586,
      "ings": 587,
      "ract": 588,
      "Ġyear": 589,
      "ific": 590,
      "Ġdevelop": 591,
      "Ġtw": 592,
      "ĠCh": 593,
      "ub": 594,
      "we": 595,
      "Ġbl": 596,
      "Ġatt": 597,
      "Ġdiffere": 598,
      "ient": 599,
      "Ġreg": 600,
      "Ġrep": 601,
      "Ġcons": 602,
      "ious": 603,
      "Ġro": 604,
      "Ġwould": 605,
      "als": 606,
      "rit": 607,
      "ink": 608,
      "ĠHow": 609,
      "ense": 610,
      "ie": 611,
      "Ġmost": 612,
      "ular": 613,
      "Ġsuch": 614,
      "Ġused": 615,
      "ail": 616,
      "ds": 617,
      "lud": 618,
      "ove": 619,
      "Ġra": 620,
      "ates": 621,
      "oll": 622,
      "nder": 623,
      "),": 624,
      "ook": 625,
      "Ġ3": 626,
      "Ġcount": 627,
      "Ġrel": 628,
      "Ġlic": 629,
      "Ġnew": 630,
      "Ġdescri": 631,
      "19": 632,
      "ĠY": 633,
      "own": 634,
      "Ġoff": 635,
      "ade": 636,
      "Ġsupp": 637,
      "irect": 638,
      "Ġeffect": 639,
      "ced": 640,
      "ful": 641,
      "hed": 642,
      "hes": 643,
      "Ġsc": 644,
      "ans": 645,
      "Ġadd": 646,
      "ck": 647,
      "Ġover": 648,
      "Ġsur": 649,
      "ased": 650,
      "Ġelect": 651,
      "Ġno": 652,
      "ram": 653,
      "Ġuse": 654,
      "Ġhel": 655,
      "Th": 656,
      "fore": 657,
      "Ġ4": 658,
      "iss": 659,
      "Ġbot": 660,
      "Ġinclud": 661,
      "Ġsystem": 662,
      "Ġref": 663,
      "Ġmake": 664,
      "Ġbecause": 665,
      "Ġhelp": 666,
      "ten": 667,
      "hen": 668,
      "Ġcould": 669,
      "Ġway": 670,
      "ftware": 671,
      "Ġtwo": 672,
      "int": 673,
      "ower": 674,
      "Ġexam": 675,
      "ĠRe": 676,
      "Ġdisc": 677,
      "ied": 678,
      "Ġem": 679,
      "ility": 680,
      "Ġproduct": 681,
      "ov": 682,
      "ph": 683,
      "Ġafter": 684,
      "ener": 685,
      "Ġfirst": 686,
      "ark": 687,
      "Ġprov": 688,
      "Ġwhere": 689,
      "ledge": 690,
      "hing": 691,
      "ature": 692,
      "Ġsub": 693,
      "ug": 694,
      "ual": 695,
      "ĠV": 696,
      "Ġher": 697,
      "Ġinst": 698,
      "Ġlike": 699,
      "Ġ20": 700,
      "Ġcall": 701,
      "sel": 702,
      "uring": 703,
      "ational": 704,
      ".\"": 705,
      "hat": 706,
      "les": 707,
      "ures": 708,
      "Ġour": 709,
      "Ġsame": 710,
      "ond": 711,
      "Ġind": 712,
      "ices": 713,
      "ows": 714,
      "ural": 715,
      "Ġunder": 716,
      "Ġmany": 717,
      "ob": 718,
      "row": 719,
      "ily": 720,
      "old": 721,
      "Ġits": 722,
      "Ġimport": 723,
      "Ġsaid": 724,
      "ween": 725,
      "cc": 726,
      "ivers": 727,
      "ron": 728,
      "Ġcre": 729,
      "Ġmet": 730,
      "Ġmod": 731,
      "Ġthose": 732,
      "ption": 733,
      "round": 734,
      "Ġbetween": 735,
      "gan": 736,
      "hip": 737,
      "ism": 738,
      "Ġpers": 739,
      "Ġexp": 740,
      "ights": 741,
      "Ġleg": 742,
      "Ġplay": 743,
      "iew": 744,
      "uch": 745,
      "ery": 746,
      "orn": 747,
      "its": 748,
      "itt": 749,
      "Ġnum": 750,
      "cho": 751,
      "iron": 752,
      "Ġsoftware": 753,
      "Ġinf": 754,
      "ĠAl": 755,
      "Ġprob": 756,
      "Ġart": 757,
      "co": 758,
      "ever": 759,
      "Ġpar": 760,
      "ĠCA": 761,
      "Ġass": 762,
      "Ġwhat": 763,
      "Ġknowledge": 764,
      "ex": 765,
      "ng": 766,
      "viron": 767,
      "Ġsign": 768,
      "ĠUn": 769,
      "'t": 770,
      ".,": 771,
      "vent": 772,
      "Ġtri": 773,
      "ath": 774,
      "enc": 775,
      "Ġcol": 776,
      "Ġwell": 777,
      "Ġwater": 778,
      "rain": 779,
      "ered": 780,
      "Ġser": 781,
      "Ġsim": 782,
      "Ġdirect": 783,
      "Ġhum": 784,
      "Ġloc": 785,
      "Ġform": 786,
      "Ġdec": 787,
      "rans": 788,
      "ible": 789,
      "Ġpartic": 790,
      "Ġdifferent": 791,
      "Ġpr": 792,
      "ited": 793,
      "ement": 794,
      "Ġexample": 795,
      "vironment": 796,
      "oy": 797,
      "ists": 798,
      "Ġrem": 799,
      "urn": 800,
      "Ġresp": 801,
      "Ġjust": 802,
      "meric": 803,
      "Ġspec": 804,
      "Ġimportant": 805,
      "ix": 806,
      "Ġ5": 807,
      "red": 808,
      "ange": 809,
      "arch": 810,
      "Ġlong": 811,
      "ident": 812,
      "ĠHe": 813,
      "In": 814,
      "ake": 815,
      "ss": 816,
      "ually": 817,
      "Ġ~": 818,
      "Ġvery": 819,
      "ines": 820,
      "ata": 821,
      "Ġpract": 822,
      "alth": 823,
      "Ġget": 824,
      "urs": 825,
      "oci": 826,
      "Ġcommun": 827,
      "ology": 828,
      "gy": 829,
      "Ġke": 830,
      "Ġown": 831,
      "Ġfind": 832,
      "ĠAr": 833,
      "ĠFor": 834,
      "ives": 835,
      "Ġshould": 836,
      "hys": 837,
      "uc": 838,
      "Ġinter": 839,
      "Ġmade": 840,
      "lem": 841,
      "ically": 842,
      "Ġperform": 843,
      "Ġincre": 844,
      "Ġeven": 845,
      "Ġlicens": 846,
      "land": 847,
      "Ġsm": 848,
      "Ġshe": 849,
      "Ġdist": 850,
      "Ġhigh": 851,
      "omet": 852,
      "ĠAmeric": 853,
      "ruct": 854,
      "Ġstudents": 855,
      "Ġchildren": 856,
      "dition": 857,
      "te": 858,
      "Ġthen": 859,
      "Ġpress": 860,
      "ict": 861,
      "Ġdown": 862,
      "Ġread": 863,
      "other": 864,
      "ĠInd": 865,
      "Ġlear": 866,
      "Ġyears": 867,
      "Ġ201": 868,
      "chool": 869,
      "..": 870,
      "ne": 871,
      "Ġmy": 872,
      "ars": 873,
      "Ġprocess": 874,
      "Ġsee": 875,
      "Ġpatch": 876,
      "This": 877,
      "ics": 878,
      "Ġthink": 879,
      "Ġhim": 880,
      "Ġgener": 881,
      "Ġprog": 882,
      "Ġdef": 883,
      "Ġacqu": 884,
      "Ġagain": 885,
      "Ġcalled": 886,
      "iversity": 887,
      "iod": 888,
      "Ġocc": 889,
      "rop": 890,
      "Ġrese": 891,
      "ution": 892,
      "vern": 893,
      "ife": 894,
      "Ġcontin": 895,
      "conom": 896,
      "Ġmemb": 897,
      "ave": 898,
      "ward": 899,
      "Ġed": 900,
      "Ġtrans": 901,
      "Ġcent": 902,
      "iti": 903,
      "Ġoften": 904,
      "Ġeach": 905,
      "Ġlist": 906,
      "ĠCal": 907,
      "roup": 908,
      "ources": 909,
      "ize": 910,
      "ah": 911,
      "sh": 912,
      "ues": 913,
      "ince": 914,
      "ert": 915,
      "ont": 916,
      "ise": 917,
      "Ġco": 918,
      "ork": 919,
      "itive": 920,
      "Ġfre": 921,
      "Ġfam": 922,
      "Ġrequ": 923,
      "Ġbefore": 924,
      "Ġperson": 925,
      "Ġhuman": 926,
      "io": 927,
      "nce": 928,
      "Ġpres": 929,
      "Ġdet": 930,
      "uth": 931,
      "Ġstate": 932,
      "osis": 933,
      "Ġexper": 934,
      "ĠFran": 935,
      "Ġrights": 936,
      "ĠWe": 937,
      "Ġsupport": 938,
      "oid": 939,
      "Ġoil": 940,
      "Ġsol": 941,
      "Ġpol": 942,
      "Ġpub": 943,
      "Ġfe": 944,
      "Ġmon": 945,
      "Ġmuch": 946,
      "ases": 947,
      "Ġrest": 948,
      "Ġgra": 949,
      "owing": 950,
      "ĠBe": 951,
      "Ġusing": 952,
      "Ġplan": 953,
      "Ġnumber": 954,
      "gg": 955,
      "ience": 956,
      "Ġca": 957,
      "ick": 958,
      "Ġduring": 959,
      "Ġchar": 960,
      "Ġcomple": 961,
      "Ġpressure": 962,
      "ym": 963,
      "ins": 964,
      "ern": 965,
      "Ġfound": 966,
      "ash": 967,
      "Ġlar": 968,
      "ĠIf": 969,
      "ters": 970,
      "Ġacc": 971,
      "ĠHoward": 972,
      "Ġdescription": 973,
      "the": 974,
      "Ġty": 975,
      "Ġsomet": 976,
      "Ġcur": 977,
      "edic": 978,
      "Ġback": 979,
      "Ġdon": 980,
      "rol": 981,
      "Ġevery": 982,
      "omm": 983,
      "cept": 984,
      "Ġgroup": 985,
      "Ġright": 986,
      "Ġwords": 987,
      "Ġenvironment": 988,
      "formation": 989,
      "Ġobject": 990,
      "Ġboth": 991,
      "Ġprovid": 992,
      ",\"": 993,
      "oh": 994,
      "ved": 995,
      "ĠÂ": 996,
      "Ġoper": 997,
      "Ġche": 998,
      "Ġthings": 999,
      "Ġbeing": 1000,
      "ock": 1001,
      "Ġdoes": 1002,
      "Ġproblem": 1003,
      ",âĢĿ": 1004,
      "aw": 1005,
      "cent": 1006,
      "cial": 1007,
      "ather": 1008,
      "Ġmin": 1009,
      "Ġdid": 1010,
      "rot": 1011,
      "Ġele": 1012,
      "urric": 1013,
      "ĠAs": 1014,
      "uss": 1015,
      "ands": 1016,
      "ource": 1017,
      "Ġappro": 1018,
      "Ġstudy": 1019,
      "Ġproducts": 1020,
      "ef": 1021,
      "ination": 1022,
      "ercis": 1023,
      "Ġserv": 1024,
      "Ġcour": 1025,
      "anes": 1026,
      "itions": 1027,
      "Ġiniti": 1028,
      "imate": 1029,
      "rap": 1030,
      "Ġstr": 1031,
      "rib": 1032,
      "Ġhealth": 1033,
      "Ġext": 1034,
      "ized": 1035,
      "hysical": 1036,
      "Ġacquaint": 1037,
      "ier": 1038,
      "ness": 1039,
      "ting": 1040,
      "tosis": 1041,
      "Ġfu": 1042,
      "Ġindu": 1043,
      "Ġinformation": 1044,
      "Ġequ": 1045,
      "ute": 1046,
      "Ġorgan": 1047,
      "Ġaccess": 1048,
      "Ġmanag": 1049,
      "Ġgovern": 1050,
      "ency": 1051,
      "Ġparticular": 1052,
      "der": 1053,
      "view": 1054,
      "Ġ8": 1055,
      "Ġfew": 1056,
      "iforn": 1057,
      "ization": 1058,
      "Ġactiv": 1059,
      "Ġsurf": 1060,
      "10": 1061,
      "king": 1062,
      "Ġterm": 1063,
      "Ġsl": 1064,
      "isl": 1065,
      "Ġwant": 1066,
      "Ġmove": 1067,
      "arly": 1068,
      "Ġless": 1069,
      "Ġgay": 1070,
      "ĠAd": 1071,
      "Ġstill": 1072,
      "ified": 1073,
      "ection": 1074,
      "Ġexercis": 1075,
      "ocial": 1076,
      "ĠWhat": 1077,
      "Ġlead": 1078,
      "Ġeng": 1079,
      "Ġmeas": 1080,
      "Ġquest": 1081,
      "ission": 1082,
      "ifornia": 1083,
      ".âĢĿ": 1084,
      "ax": 1085,
      "line": 1086,
      "ven": 1087,
      "ering": 1088,
      "Ġsay": 1089,
      "Ġcr": 1090,
      "Ġcor": 1091,
      "outh": 1092,
      "Ġmust": 1093,
      "Ġdata": 1094,
      "stand": 1095,
      "Ġbel": 1096,
      "Ġgrow": 1097,
      "ults": 1098,
      "ify": 1099,
      "ains": 1100,
      "ocus": 1101,
      "ude": 1102,
      "Ġworld": 1103,
      "Ġdevelopment": 1104,
      "Ġblood": 1105,
      "Ġconsid": 1106,
      "Ġelectr": 1107,
      "Ġindust": 1108,
      "uk": 1109,
      "ished": 1110,
      "Ġcar": 1111,
      "Ġpower": 1112,
      "eder": 1113,
      "Ġbu": 1114,
      "Ġfood": 1115,
      "Ġtoo": 1116,
      "Ġthough": 1117,
      "ilities": 1118,
      "âĢĶ": 1119,
      "ĠSe": 1120,
      "ĠSan": 1121,
      "ety": 1122,
      "Ġwithin": 1123,
      "ĠPro": 1124,
      "Ġvar": 1125,
      "Ġchange": 1126,
      "self": 1127,
      "Ġprogram": 1128,
      "ĠCalifornia": 1129,
      "air": 1130,
      "to": 1131,
      "vol": 1132,
      "Ġ6": 1133,
      "Ġend": 1134,
      "Ġav": 1135,
      "Ġcause": 1136,
      "Ġpos": 1137,
      "Ġpass": 1138,
      "Ġanother": 1139,
      "Ġdam": 1140,
      "Ġeconom": 1141,
      "Ġreal": 1142,
      "Ġlook": 1143,
      "Ġgre": 1144,
      "Ġgiv": 1145,
      "Ġwithout": 1146,
      "elf": 1147,
      "osed": 1148,
      "ages": 1149,
      "Ġflood": 1150,
      "ĠYou": 1151,
      "Ġrequire": 1152,
      "ccess": 1153,
      "rat": 1154,
      "atural": 1155,
      "Ġsocial": 1156,
      "Ġph": 1157,
      "Ġphysical": 1158,
      "ories": 1159,
      "Ġbrain": 1160,
      "Ġfin": 1161,
      "Ġfac": 1162,
      "Ġmight": 1163,
      "Ġgreat": 1164,
      "ĠSc": 1165,
      "irc": 1166,
      "Ġprot": 1167,
      "Ġwhile": 1168,
      "ected": 1169,
      "Ġdep": 1170,
      "Ġrun": 1171,
      "ards": 1172,
      "ells": 1173,
      "Ġclass": 1174,
      "Ġreport": 1175,
      "Ġinclude": 1176,
      "Ġdiscuss": 1177,
      "Ġinfl": 1178,
      "ĠCAL": 1179,
      "Ġcaus": 1180,
      "cher": 1181,
      "oot": 1182,
      "ving": 1183,
      "Ġ&": 1184,
      "rent": 1185,
      "Ġhome": 1186,
      "ury": 1187,
      "Ġrul": 1188,
      "orth": 1189,
      "ĠDe": 1190,
      "ĠLe": 1191,
      "Ġusually": 1192,
      "ĠâĢĵ": 1193,
      "aking": 1194,
      "Ġrecord": 1195,
      "Ġ2008": 1196,
      "Ġobs": 1197,
      "Ġlegisl": 1198,
      "ittle": 1199,
      "Ġsignific": 1200,
      "Ġsmall": 1201,
      "ertain": 1202,
      "Ġsurface": 1203,
      ".)": 1204,
      "be": 1205,
      "day": 1206,
      "fess": 1207,
      "gery": 1208,
      "ients": 1209,
      "ner": 1210,
      "Ġ7": 1211,
      "Ġair": 1212,
      "Ġaff": 1213,
      "ined": 1214,
      "Ġopp": 1215,
      "Ġschool": 1216,
      "ants": 1217,
      "Ġposs": 1218,
      "Ġfore": 1219,
      "Ġfact": 1220,
      "Ġfocus": 1221,
      "oun": 1222,
      "Ġreas": 1223,
      "Ġlim": 1224,
      "ote": 1225,
      "ĠCor": 1226,
      "Ġproject": 1227,
      "Ġconst": 1228,
      "ĠPl": 1229,
      "ĠThey": 1230,
      "Ġvol": 1231,
      "ĠGod": 1232,
      "ĠNew": 1233,
      "Ġimm": 1234,
      "Ġable": 1235,
      "ĠOct": 1236,
      "angu": 1237,
      "ological": 1238,
      "Ġmemory": 1239,
      "Ġbott": 1240,
      "ohn": 1241,
      "iel": 1242,
      "pr": 1243,
      "pre": 1244,
      "Ġent": 1245,
      "Ġtreat": 1246,
      "Ġcap": 1247,
      "itle": 1248,
      "Ġbr": 1249,
      "ional": 1250,
      "Ġthree": 1251,
      "Ġlittle": 1252,
      "Ġstorm": 1253,
      "ody": 1254,
      "opat": 1255,
      "Ġexpl": 1256,
      "ĠThere": 1257,
      "Ġdev": 1258,
      "Ġlevel": 1259,
      "Ġleft": 1260,
      "Ġshow": 1261,
      "Ġtradition": 1262,
      "Ġlicensing": 1263,
      "Ġoccur": 1264,
      "Ġmembran": 1265,
      "ĠFrancis": 1266,
      "cos": 1267,
      "de": 1268,
      "for": 1269,
      "man": 1270,
      "par": 1271,
      "side": 1272,
      "ty": 1273,
      "uro": 1274,
      "ves": 1275,
      "way": 1276,
      "Ġtem": 1277,
      "Ġtest": 1278,
      "Ġsat": 1279,
      "Ġsit": 1280,
      "Ġsince": 1281,
      "edical": 1282,
      "Ġfoll": 1283,
      "icult": 1284,
      "Ġdue": 1285,
      "Ġret": 1286,
      "Ġlast": 1287,
      "Ġloss": 1288,
      "Ġlife": 1289,
      "Ġiss": 1290,
      "ĠShe": 1291,
      "ĠCent": 1292,
      "ivid": 1293,
      "Ġcomput": 1294,
      "aterial": 1295,
      "ĠHowever": 1296,
      "Ġrelations": 1297,
      "Ġlocal": 1298,
      "Ġkey": 1299,
      "Ġsomething": 1300,
      "Ġcurrent": 1301,
      "rapy": 1302,
      "Ġacquaintance": 1303,
      "anguage": 1304,
      "ĠFrancisco": 1305,
      "ape": 1306,
      "cl": 1307,
      "ek": 1308,
      "pect": 1309,
      "sw": 1310,
      "ways": 1311,
      "Ġide": 1312,
      "here": 1313,
      "Ġsound": 1314,
      "Ġsense": 1315,
      "Ġcoc": 1316,
      "Ġcost": 1317,
      "any": 1318,
      "orts": 1319,
      "Ġball": 1320,
      "Ġfun": 1321,
      "Ġmus": 1322,
      "icle": 1323,
      "ask": 1324,
      "Ġhand": 1325,
      "Ġeas": 1326,
      "Ġnatural": 1327,
      "lying": 1328,
      "Ġgas": 1329,
      "urther": 1330,
      "âĢľ": 1331,
      "ĠIs": 1332,
      "ĠCle": 1333,
      "Ġstat": 1334,
      "Ġorder": 1335,
      "Ġhere": 1336,
      "Ġhead": 1337,
      "Ġsuccess": 1338,
      "Ġris": 1339,
      "ability": 1340,
      "ĠEx": 1341,
      "ĠRes": 1342,
      "Ġdise": 1343,
      "Ġpercent": 1344,
      "Ġpoint": 1345,
      "Ġincluding": 1346,
      "Ġsubject": 1347,
      "Ġparrot": 1348,
      "Ġserver": 1349,
      "ĠAmerican": 1350,
      "Ġlearning": 1351,
      "Ġcontinu": 1352,
      "Ġpublic": 1353,
      "Ġlarge": 1354,
      "Ġgiven": 1355,
      "bo": 1356,
      "com": 1357,
      "me": 1358,
      "nal": 1359,
      "use": 1360,
      "Ġ[": 1361,
      "Ġturn": 1362,
      "Ġaround": 1363,
      "Ġself": 1364,
      "eng": 1365,
      "Ġcle": 1366,
      "ale": 1367,
      "Ġdem": 1368,
      "rodu": 1369,
      "Ġhard": 1370,
      "Ġhurric": 1371,
      "ential": 1372,
      "iles": 1373,
      "oman": 1374,
      "ĠSo": 1375,
      "eter": 1376,
      "ulf": 1377,
      "Ġask": 1378,
      "ĠBut": 1379,
      "ĠâĢĺ": 1380,
      "Ġ199": 1381,
      "Ġdesign": 1382,
      "Ġdifficult": 1383,
      "Ġknown": 1384,
      "Ġcommon": 1385,
      "Ġsaf": 1386,
      "Ġqual": 1387,
      "Ġlicense": 1388,
      "ĠUniversity": 1389,
      "Ġagainst": 1390,
      "Ġfamily": 1391,
      "uthor": 1392,
      "Ġindustry": 1393,
      "cing": 1394,
      "cle": 1395,
      "fric": 1396,
      "get": 1397,
      "min": 1398,
      "ted": 1399,
      "yl": 1400,
      "Ġtake": 1401,
      "ina": 1402,
      "inc": 1403,
      "erver": 1404,
      "Ġcare": 1405,
      "Ġpast": 1406,
      "icro": 1407,
      "Ġday": 1408,
      "Ġlight": 1409,
      "Ġgood": 1410,
      "ĠCol": 1411,
      "Ġarea": 1412,
      "Ġalways": 1413,
      "ateg": 1414,
      "Ġweek": 1415,
      "une": 1416,
      "Ġproduction": 1417,
      "Ġrecent": 1418,
      "Ġtimes": 1419,
      "Ġbetter": 1420,
      "Ġunderstand": 1421,
      "Ġprim": 1422,
      "Ġpractice": 1423,
      "Ġresearch": 1424,
      "Ġmonth": 1425,
      "ĠÂ·": 1426,
      "opatra": 1427,
      "Ġmembrane": 1428,
      "AS": 1429,
      "IS": 1430,
      "ech": 1431,
      "jor": 1432,
      "kis": 1433,
      "lished": 1434,
      "uid": 1435,
      "ators": 1436,
      "Ġsk": 1437,
      "Ġsend": 1438,
      "Ġcop": 1439,
      "Ġwar": 1440,
      "Ġben": 1441,
      "Ġbody": 1442,
      "Ġmult": 1443,
      "Ġtop": 1444,
      "Ġdi": 1445,
      "ross": 1446,
      "Ġredu": 1447,
      "ilar": 1448,
      "Ġland": 1449,
      "Ġlanguage": 1450,
      "Ġbeh": 1451,
      "Ġgr": 1452,
      "imes": 1453,
      "ĠAn": 1454,
      "ĠAfric": 1455,
      "igin": 1456,
      "amp": 1457,
      "Ġconf": 1458,
      "ately": 1459,
      "osp": 1460,
      "ume": 1461,
      "ĠEn": 1462,
      "ĠWhen": 1463,
      "Ġvis": 1464,
      "Ġchang": 1465,
      "Ġseem": 1466,
      "Ġshort": 1467,
      "ogn": 1468,
      "Ġdisas": 1469,
      "Ġperiod": 1470,
      "Ġimpro": 1471,
      "Ġcounty": 1472,
      "Ġcountry": 1473,
      "Ġeffective": 1474,
      "hips": 1475,
      "Ġpresent": 1476,
      "kisi": 1477,
      "ches": 1478,
      "po": 1479,
      "ration": 1480,
      "up": 1481,
      "vious": 1482,
      "Ġ9": 1483,
      "Ġtak": 1484,
      "ining": 1485,
      "Ġold": 1486,
      "ergy": 1487,
      "Ġsent": 1488,
      "Ġsym": 1489,
      "Ġcertain": 1490,
      "Ġpur": 1491,
      "Ġpri": 1492,
      "Ġpop": 1493,
      "Ġmaterial": 1494,
      "lex": 1495,
      "Ġlow": 1496,
      "oms": 1497,
      "idence": 1498,
      "ĠII": 1499,
      "ames": 1500,
      "Ġconc": 1501,
      "ained": 1502,
      "ĠThese": 1503,
      "Ġ18": 1504,
      "Ġdecis": 1505,
      "Ġhapp": 1506,
      "ably": 1507,
      "ĠEng": 1508,
      "Ġview": 1509,
      "Ġlet": 1510,
      "ived": 1511,
      "ĠDo": 1512,
      "ĠDep": 1513,
      "ournal": 1514,
      "aged": 1515,
      "Ġmajor": 1516,
      "Ġallow": 1517,
      "acter": 1518,
      "aves": 1519,
      "ording": 1520,
      "Ġgoing": 1521,
      "Ġaddition": 1522,
      "Ġcreate": 1523,
      "Ġmanagement": 1524,
      "Ġobserv": 1525,
      "Ġsignificant": 1526,
      "It": 1527,
      "We": 1528,
      "by": 1529,
      "xt": 1530,
      "Ġident": 1531,
      "Ġauthor": 1532,
      "Ġsw": 1533,
      "Ġset": 1534,
      "iter": 1535,
      "itor": 1536,
      "iting": 1537,
      "Ġbal": 1538,
      "Ġfree": 1539,
      "lease": 1540,
      "Ġline": 1541,
      "ĠSh": 1542,
      "Ġstand": 1543,
      "ull": 1544,
      "elines": 1545,
      "Ġareas": 1546,
      "ĠPh": 1547,
      "Ġ10": 1548,
      "ĠFr": 1549,
      "Ġround": 1550,
      "iving": 1551,
      "ivil": 1552,
      "thing": 1553,
      "ared": 1554,
      "ĠUS": 1555,
      "Ġresist": 1556,
      "Ġcontrol": 1557,
      "epend": 1558,
      "Ġapplic": 1559,
      "Ġmean": 1560,
      "Ġ2009": 1561,
      "Ġ--": 1562,
      "Ġregion": 1563,
      "Ġprovide": 1564,
      "Ġarticle": 1565,
      "Ġcommunity": 1566,
      "Ġlearn": 1567,
      "Ġcourse": 1568,
      "Ġgovernment": 1569,
      "Ġelectrons": 1570,
      "chers": 1571,
      "ield": 1572,
      "urope": 1573,
      "ĠCleopatra": 1574,
      "50": 1575,
      "ead": 1576,
      "pen": 1577,
      "son": 1578,
      "ton": 1579,
      "zon": 1580,
      "Ġtr": 1581,
      "Ġtre": 1582,
      "enn": 1583,
      "Ġcult": 1584,
      "Ġbro": 1585,
      "Ġbook": 1586,
      "Ġbased": 1587,
      "Ġburs": 1588,
      "alf": 1589,
      "Ġfar": 1590,
      "Ġfive": 1591,
      "Ġfall": 1592,
      "ouse": 1593,
      "Ġtown": 1594,
      "Ġet": 1595,
      "Ġey": 1596,
      "Ġrece": 1597,
      "Ġla": 1598,
      "Ġnow": 1599,
      "Ġground": 1600,
      "raph": 1601,
      "ĠAnd": 1602,
      "ĠCa": 1603,
      "ets": 1604,
      "Ġprofess": 1605,
      "ored": 1606,
      "oses": 1607,
      "ills": 1608,
      "Ġ12": 1609,
      "Ġhaving": 1610,
      "ortun": 1611,
      "ĠWh": 1612,
      "ĠWind": 1613,
      "Ġval": 1614,
      "Ġword": 1615,
      "ends": 1616,
      "ended": 1617,
      "000": 1618,
      "artment": 1619,
      "ĠJohn": 1620,
      "rug": 1621,
      "berg": 1622,
      "Ġtech": 1623,
      "Ġrepres": 1624,
      "Ġsystems": 1625,
      "Ġsimilar": 1626,
      "ĠArt": 1627,
      "Ġexercises": 1628,
      "Ġpositive": 1629,
      "Ġdamage": 1630,
      "Ġtraditional": 1631,
      "cosystem": 1632,
      "Ġtemper": 1633,
      "If": 1634,
      "aper": 1635,
      "ger": 1636,
      "iqu": 1637,
      "ys": 1638,
      "Ġut": 1639,
      "indu": 1640,
      "Ġcells": 1641,
      "Ġput": 1642,
      "Ġansw": 1643,
      "Ġintern": 1644,
      "Ġmen": 1645,
      "icate": 1646,
      "Ġdest": 1647,
      "ental": 1648,
      "Ġearly": 1649,
      "Ġgl": 1650,
      "ides": 1651,
      "ĠAt": 1652,
      "ĠServer": 1653,
      "Ġstart": 1654,
      "Ġstep": 1655,
      "Ġprom": 1656,
      "Ġprop": 1657,
      "Ġconn": 1658,
      "ode": 1659,
      "ĠPtosis": 1660,
      "aining": 1661,
      "Ġ16": 1662,
      "ĠEurope": 1663,
      "Ġvac": 1664,
      "Ġsecon": 1665,
      "Ġsepar": 1666,
      "ptions": 1667,
      "Ġplace": 1668,
      "iple": 1669,
      "ĠJan": 1670,
      "ĠJournal": 1671,
      "Ġenergy": 1672,
      "Ġmap": 1673,
      "Ġmaking": 1674,
      "ormal": 1675,
      "ressed": 1676,
      "Ġimpact": 1677,
      "Ġpred": 1678,
      "Ġamong": 1679,
      "Ġamount": 1680,
      "Ġeffects": 1681,
      "Ġelectron": 1682,
      "Ġemail": 1683,
      "Ġkeep": 1684,
      "Ġperformance": 1685,
      "Ġincrease": 1686,
      "Ġlicenses": 1687,
      "Ġeduc": 1688,
      "shore": 1689,
      "Ġtyp": 1690,
      "Ġinitiative": 1691,
      "Ġcrude": 1692,
      "Ġeconomic": 1693,
      "Ġgreater": 1694,
      "ĠWindows": 1695,
      "Ġtechn": 1696,
      "ires": 1697,
      "ium": 1698,
      "ma": 1699,
      "ral": 1700,
      "unt": 1701,
      "Ġill": 1702,
      "Ġsource": 1703,
      "Ġcirc": 1704,
      "Ġcivil": 1705,
      "Ġwrit": 1706,
      "esar": 1707,
      "ests": 1708,
      "Ġport": 1709,
      "Ġpip": 1710,
      "ital": 1711,
      "Ġbas": 1712,
      "Ġbir": 1713,
      "Ġfurther": 1714,
      "Ġmix": 1715,
      "icial": 1716,
      "Ġred": 1717,
      "ilit": 1718,
      "Ġlot": 1719,
      "ĠComm": 1720,
      "Ġunt": 1721,
      "ulation": 1722,
      "Ġorigin": 1723,
      "ĠMedic": 1724,
      "Ġheav": 1725,
      "osition": 1726,
      "Ġexist": 1727,
      "illion": 1728,
      "ĠFl": 1729,
      "Ġnever": 1730,
      "Ġsec": 1731,
      "Ġsever": 1732,
      "erest": 1733,
      "agn": 1734,
      "ĠInst": 1735,
      "ĠOne": 1736,
      "soft": 1737,
      "Ġadv": 1738,
      "Ġresult": 1739,
      "ibr": 1740,
      "Ġarg": 1741,
      "Ġmeans": 1742,
      "Ġbecame": 1743,
      "ĠIndian": 1744,
      "Ġ2012": 1745,
      "Ġgeneral": 1746,
      "Ġresear": 1747,
      "Ġpolit": 1748,
      "Ġtype": 1749,
      "Ġactivities": 1750,
      "Ġmeasure": 1751,
      "Ġquestions": 1752,
      "Ġforest": 1753,
      "Ġrisk": 1754,
      "Ġbenef": 1755,
      "ĠCaesar": 1756,
      "Ġtemperature": 1757,
      "DE": 1758,
      "cological": 1759,
      "ditions": 1760,
      "ee": 1761,
      "fer": 1762,
      "kes": 1763,
      "less": 1764,
      "most": 1765,
      "over": 1766,
      "rm": 1767,
      "ĠZ": 1768,
      "Ġast": 1769,
      "Ġaut": 1770,
      "Ġage": 1771,
      "Ġsal": 1772,
      "Ġsays": 1773,
      "Ġcrit": 1774,
      "Ġways": 1775,
      "Ġpain": 1776,
      "itis": 1777,
      "Ġanal": 1778,
      "Ġbig": 1779,
      "Ġbest": 1780,
      "Ġmov": 1781,
      "Ġtoward": 1782,
      "aruk": 1783,
      "Ġdel": 1784,
      "Ġdri": 1785,
      "Ġhom": 1786,
      "Ġel": 1787,
      "Ġnon": 1788,
      "ĠCon": 1789,
      "Ġproper": 1790,
      "Ġcondu": 1791,
      "Ġweight": 1792,
      "Ġsuff": 1793,
      "ĠHis": 1794,
      "pper": 1795,
      "Ġrating": 1796,
      "ĠEm": 1797,
      "Ġneg": 1798,
      "Ġnear": 1799,
      "Ġkind": 1800,
      "Ġresources": 1801,
      "Ġresults": 1802,
      "Ġappear": 1803,
      "ĠStud": 1804,
      "Ġpatients": 1805,
      "ĠChile": 1806,
      "Ġindepend": 1807,
      "Ġrespons": 1808,
      "ociety": 1809,
      "Ġpolic": 1810,
      "Ġcomplete": 1811,
      "Ġproblems": 1812,
      "Ġbottom": 1813,
      "ĠCenter": 1814,
      "Ġfunction": 1815,
      "Ġdisease": 1816,
      "icrosoft": 1817,
      "Ġbalance": 1818,
      "12": 1819,
      "An": 1820,
      "PI": 1821,
      "What": 1822,
      "ged": 1823,
      "hod": 1824,
      "ling": 1825,
      "rim": 1826,
      "uary": 1827,
      "val": 1828,
      "wing": 1829,
      "Ã©": 1830,
      "Ġ0": 1831,
      "Ġ=": 1832,
      "ĠX": 1833,
      "Ġve": 1834,
      "Ġtherm": 1835,
      "atic": 1836,
      "Ġsing": 1837,
      "onse": 1838,
      "onents": 1839,
      "ised": 1840,
      "ances": 1841,
      "Ġpot": 1842,
      "Ġpoll": 1843,
      "Ġbat": 1844,
      "Ġbul": 1845,
      "Ġbus": 1846,
      "Ġinj": 1847,
      "Ġmain": 1848,
      "Ġmice": 1849,
      "Ġmaint": 1850,
      "arb": 1851,
      "Ġdom": 1852,
      "Ġdays": 1853,
      "Ġlater": 1854,
      "Ġnation": 1855,
      "Ġname": 1856,
      "Ġbeg": 1857,
      "utes": 1858,
      "ĠAri": 1859,
      "Ġonline": 1860,
      "ĠSur": 1861,
      "ĠCo": 1862,
      "ĠCar": 1863,
      "ĠMay": 1864,
      "ĠMicrosoft": 1865,
      "ember": 1866,
      "ĠBrit": 1867,
      "ries": 1868,
      "Ġsust": 1869,
      "Ġ14": 1870,
      "quent": 1871,
      "abor": 1872,
      "Ġleast": 1873,
      "ograph": 1874,
      "ĠOn": 1875,
      "ĠUs": 1876,
      "Ġaccept": 1877,
      "rict": 1878,
      "ĠKaruk": 1879,
      "Ġrecogn": 1880,
      "rought": 1881,
      "Ġjo": 1882,
      "Ġdifference": 1883,
      "ief": 1884,
      "Ġaddress": 1885,
      "Ġindivid": 1886,
      "Ġmethod": 1887,
      "ĠUnited": 1888,
      "Ġspecific": 1889,
      "Ġpractices": 1890,
      "Ġmembers": 1891,
      "Ġelements": 1892,
      "Ġapproach": 1893,
      "Ġfund": 1894,
      "Ġterms": 1895,
      "ederal": 1896,
      "Ġbuild": 1897,
      "Ġvarious": 1898,
      "Ġpossible": 1899,
      "ĠPlan": 1900,
      "Ġuntil": 1901,
      "Ġseveral": 1902,
      "az": 1903,
      "based": 1904,
      "cul": 1905,
      "gr": 1906,
      "ging": 1907,
      "hib": 1908,
      "por": 1909,
      "und": 1910,
      "work": 1911,
      "yr": 1912,
      "Ġest": 1913,
      "Ġtru": 1914,
      "Ġtable": 1915,
      "Ġtask": 1916,
      "iness": 1917,
      "read": 1918,
      "ator": 1919,
      "atter": 1920,
      "ences": 1921,
      "Ġcity": 1922,
      "Ġpet": 1923,
      "ites": 1924,
      "Ġbo": 1925,
      "lep": 1926,
      "ley": 1927,
      "Ġever": 1928,
      "Ġlaw": 1929,
      "omen": 1930,
      "Ġgu": 1931,
      "rake": 1932,
      "ĠAnt": 1933,
      "ĠIX": 1934,
      "amed": 1935,
      "ĠMor": 1936,
      "ĠMar": 1937,
      "Ġwhy": 1938,
      "Ġalong": 1939,
      "ĠHindu": 1940,
      "Ġcomb": 1941,
      "ldrake": 1942,
      "ĠWest": 1943,
      "ĠRoman": 1944,
      "Ġcho": 1945,
      "though": 1946,
      "ĠGulf": 1947,
      "ĠNational": 1948,
      "ĠâĢ¢": 1949,
      "Ġwhether": 1950,
      "ired": 1951,
      "Ġintrodu": 1952,
      "Ġinterest": 1953,
      "ression": 1954,
      "Ġpeer": 1955,
      "ploy": 1956,
      "ĠKDE": 1957,
      "Ġteam": 1958,
      "Ġrole": 1959,
      "Ġrad": 1960,
      "Ġ30": 1961,
      "Ġcounties": 1962,
      "Ġscient": 1963,
      "selves": 1964,
      "encies": 1965,
      "Ġcolor": 1966,
      "ĠAmerica": 1967,
      "ĠIndia": 1968,
      "...": 1969,
      "Ġdeterm": 1970,
      "Ġfeel": 1971,
      "Ġcharacter": 1972,
      "Ġconsider": 1973,
      "Ġavail": 1974,
      "Ġinflu": 1975,
      "ooth": 1976,
      "Ġreasons": 1977,
      "Ġfollowing": 1978,
      "ĠDepartment": 1979,
      "Ġpolitical": 1980,
      "20": 1981,
      "St": 1982,
      "action": 1983,
      "gest": 1984,
      "gency": 1985,
      "ior": 1986,
      "ipp": 1987,
      "lish": 1988,
      "port": 1989,
      "pire": 1990,
      "vn": 1991,
      "ww": 1992,
      "ĠQ": 1993,
      "Ġes": 1994,
      "Ġtax": 1995,
      "ret": 1996,
      "rection": 1997,
      "Ġtherapy": 1998,
      "atives": 1999,
      "Ġside": 2000,
      "Ġsources": 2001,
      "ony": 2002,
      "Ġcame": 2003,
      "Ġcase": 2004,
      "Ġwide": 2005,
      "Ġpost": 2006,
      "itute": 2007,
      "Ġfri": 2008,
      "Ġfour": 2009,
      "Ġmar": 2010,
      "Ġmark": 2011,
      "ici": 2012,
      "asing": 2013,
      "Ġthing": 2014,
      "Ġecological": 2015,
      "Ġrele": 2016,
      "Ġreview": 2017,
      "Ġreaction": 2018,
      "Ġled": 2019,
      "Ġlay": 2020,
      "sell": 2021,
      "ĠTitle": 2022,
      "ĠTech": 2023,
      "urning": 2024,
      "ĠAfter": 2025,
      "ĠAlex": 2026,
      "ĠSud": 2027,
      "ĠCan": 2028,
      "ĠMan": 2029,
      "ĠMary": 2030,
      "ĠMuse": 2031,
      "Ġyoung": 2032,
      "Ġ15": 2033,
      "Ġ17": 2034,
      "ĠEgy": 2035,
      "Ġvi": 2036,
      "allery": 2037,
      "unch": 2038,
      "There": 2039,
      "ips": 2040,
      "Ġens": 2041,
      "Ġenough": 2042,
      "ĠThat": 2043,
      "Ġclimate": 2044,
      "Ġappl": 2045,
      "ples": 2046,
      "Ġoutside": 2047,
      "Ġworks": 2048,
      "Ġtelep": 2049,
      "Ġneeds": 2050,
      "Ġpoly": 2051,
      "Ġregul": 2052,
      "ieve": 2053,
      "Ġdescrib": 2054,
      "Ġrefere": 2055,
      "vention": 2056,
      "Ġsimple": 2057,
      "Ġdirectly": 2058,
      "Ġcentury": 2059,
      "Ġexperience": 2060,
      "Ġprovides": 2061,
      "Ġservices": 2062,
      "Ġengine": 2063,
      "ĠCALs": 2064,
      "Ġvolume": 2065,
      "ĠAfrica": 2066,
      "Ġconcern": 2067,
      "Ġdecision": 2068,
      "Ġroundab": 2069,
      "ĠEuropean": 2070,
      "ĠArizon": 2071,
      "ĠMuseum": 2072,
      "ĠEgypt": 2073,
      "'re": 2074,
      "Al": 2075,
      "As": 2076,
      "Ex": 2077,
      "How": 2078,
      "ai": 2079,
      "aim": 2080,
      "ges": 2081,
      "hood": 2082,
      "hap": 2083,
      "ki": 2084,
      "ko": 2085,
      "like": 2086,
      "not": 2087,
      "pro": 2088,
      "Ġ'": 2089,
      "Ġ?": 2090,
      "Ġur": 2091,
      "Ġtend": 2092,
      "atin": 2093,
      "atch": 2094,
      "atory": 2095,
      "Ġson": 2096,
      "ene": 2097,
      "ision": 2098,
      "Ġwild": 2099,
      "Ġpare": 2100,
      "Ġpaper": 2101,
      "ither": 2102,
      "Ġbug": 2103,
      "alk": 2104,
      "Ġins": 2105,
      "Ġmedic": 2106,
      "Ġmiles": 2107,
      "ico": 2108,
      "Ġtool": 2109,
      "aring": 2110,
      "Ġdr": 2111,
      "Ġdra": 2112,
      "Ġdrug": 2113,
      "let": 2114,
      "rown": 2115,
      "ashing": 2116,
      "iling": 2117,
      "Ġliving": 2118,
      "imm": 2119,
      "ids": 2120,
      "raz": 2121,
      "utions": 2122,
      "ĠAS": 2123,
      "ĠServ": 2124,
      "ĠSchool": 2125,
      "ĠCl": 2126,
      "ĠMr": 2127,
      "ĠMex": 2128,
      "els": 2129,
      "Ġconditions": 2130,
      "ĠPe": 2131,
      "Ġalmost": 2132,
      "Ġsure": 2133,
      "resp": 2134,
      "ush": 2135,
      "ussell": 2136,
      "Ġdeg": 2137,
      "istory": 2138,
      "romko": 2139,
      "Ġleaves": 2140,
      "aches": 2141,
      "ĠGo": 2142,
      "ĠGIS": 2143,
      "ĠGallery": 2144,
      "ending": 2145,
      "pecial": 2146,
      "rugg": 2147,
      "elling": 2148,
      "Ġcontain": 2149,
      "Ġothers": 2150,
      "ibility": 2151,
      "actly": 2152,
      "Ġprep": 2153,
      "avian": 2154,
      "Ġbecome": 2155,
      "Ġpath": 2156,
      "Ġevidence": 2157,
      "Ġflow": 2158,
      "Ġtravel": 2159,
      "Ġspace": 2160,
      "Ġthemselves": 2161,
      "Ġassoci": 2162,
      "Ġdecre": 2163,
      "Ġparticip": 2164,
      "Ġspecies": 2165,
      "ructure": 2166,
      "iodiversity": 2167,
      "Ġgrav": 2168,
      "Ġgroups": 2169,
      "Ġstrong": 2170,
      "Ġpassed": 2171,
      "Ġphot": 2172,
      "Ġaffect": 2173,
      "ĠCorrection": 2174,
      "Ġsati": 2175,
      "Ġreturn": 2176,
      "Ġissues": 2177,
      "Ġcurrently": 2178,
      "Ġsafe": 2179,
      "Ġquality": 2180,
      "minist": 2181,
      "yloid": 2182,
      "Ġmonths": 2183,
      "ĠJanuary": 2184,
      "Ġtypes": 2185,
      "Ġconduct": 2186,
      "Ã©e": 2187,
      "Ġthermal": 2188,
      "ĠMexico": 2189,
      "11": 2190,
      "cer": 2191,
      "ched": 2192,
      "data": 2193,
      "go": 2194,
      "iver": 2195,
      "mosp": 2196,
      "ned": 2197,
      "nces": 2198,
      "pite": 2199,
      "van": 2200,
      "Ġ/": 2201,
      "rel": 2202,
      "Ġopen": 2203,
      "erous": 2204,
      "atform": 2205,
      "atures": 2206,
      "Ġsection": 2207,
      "enous": 2208,
      "Ġcamp": 2209,
      "estern": 2210,
      "Ġpaint": 2211,
      "itiz": 2212,
      "edi": 2213,
      "Ġfile": 2214,
      "Ġfish": 2215,
      "oup": 2216,
      "Ġmur": 2217,
      "Ġmedical": 2218,
      "ication": 2219,
      "ari": 2220,
      "aries": 2221,
      "room": 2222,
      "Ġhig": 2223,
      "Ġhour": 2224,
      "ctane": 2225,
      "Ġemer": 2226,
      "imÃ©e": 2227,
      "ĠTo": 2228,
      "ĠTem": 2229,
      "ĠAss": 2230,
      "ĠAimÃ©e": 2231,
      "igenous": 2232,
      "ĠMoses": 2233,
      "term": 2234,
      "ĠBl": 2235,
      "ĠPres": 2236,
      "Ġheat": 2237,
      "Ġ100": 2238,
      "ively": 2239,
      "ĠEconom": 2240,
      "aces": 2241,
      "Ġuses": 2242,
      "Ġplatform": 2243,
      "ĠOff": 2244,
      "Ġsoon": 2245,
      "Ġ198": 2246,
      "Ġclose": 2247,
      "Ġmeet": 2248,
      "Ġrecomm": 2249,
      "reng": 2250,
      "Ġthroughout": 2251,
      "Ġ40": 2252,
      "Ġpublished": 2253,
      "Ġcomplex": 2254,
      "Ġenvironmental": 2255,
      "Ġobjects": 2256,
      "Ġchem": 2257,
      "Ġcheck": 2258,
      "Ġthought": 2259,
      "Ġrequired": 2260,
      "Ġfacilities": 2261,
      "Ġtreatment": 2262,
      "Ġsitu": 2263,
      "Ġhurricanes": 2264,
      "Ġprimary": 2265,
      "Ġchanges": 2266,
      "Ġsentence": 2267,
      "ĠFrance": 2268,
      "Ġvacc": 2269,
      "Ġseparate": 2270,
      "Ġresearchers": 2271,
      "Ġsingle": 2272,
      "ĠSurgery": 2273,
      "ĠBritish": 2274,
      "ĠArizona": 2275,
      "30": 2276,
      "CL": 2277,
      "af": 2278,
      "bit": 2279,
      "bers": 2280,
      "dom": 2281,
      "mb": 2282,
      "of": 2283,
      "system": 2284,
      "vate": 2285,
      "vest": 2286,
      "yrat": 2287,
      "Ġvers": 2288,
      "Ġter": 2289,
      "Ġtry": 2290,
      "heim": 2291,
      "inary": 2292,
      "Ġsite": 2293,
      "Ġsouth": 2294,
      "ison": 2295,
      "Ġcet": 2296,
      "Ġwomen": 2297,
      "Ġpict": 2298,
      "eds": 2299,
      "aling": 2300,
      "Ġfederal": 2301,
      "outher": 2302,
      "Ġmor": 2303,
      "Ġmot": 2304,
      "Ġmiss": 2305,
      "Ġmillion": 2306,
      "Ġtoday": 2307,
      "arck": 2308,
      "Ġdone": 2309,
      "ason": 2310,
      "Ġhy": 2311,
      "ilt": 2312,
      "Ġlog": 2313,
      "Ġlands": 2314,
      "Ġnorth": 2315,
      "Ġnormal": 2316,
      "Ġbegan": 2317,
      "ĠTri": 2318,
      "uture": 2319,
      "ĠApr": 2320,
      "ots": 2321,
      "Ġforce": 2322,
      "ĠSp": 2323,
      "ĠCount": 2324,
      "Ġstory": 2325,
      "Ġstreng": 2326,
      "hern": 2327,
      "ada": 2328,
      "ried": 2329,
      "Ġsun": 2330,
      "Ġatmosp": 2331,
      "Ġdeath": 2332,
      "Ġcome": 2333,
      "orthern": 2334,
      "ĠWashing": 2335,
      "ĠRussell": 2336,
      "acher": 2337,
      "Ġnext": 2338,
      "ĠLatin": 2339,
      "Ġusers": 2340,
      "ender": 2341,
      "Ġimag": 2342,
      "Ġimage": 2343,
      "Ġplant": 2344,
      "ĠIntern": 2345,
      "Ġmailing": 2346,
      "Ġacross": 2347,
      "ruction": 2348,
      "Ġ194": 2349,
      "ricity": 2350,
      "Ġprevious": 2351,
      "Ġ2004": 2352,
      "Ġ2007": 2353,
      "Ġworking": 2354,
      "ĠStates": 2355,
      "Ġstudies": 2356,
      "Ġteach": 2357,
      "Ġneeded": 2358,
      "Ġamyloid": 2359,
      "ĠChr": 2360,
      "198": 2361,
      "Ġofficial": 2362,
      "Ġsurgery": 2363,
      "Ġemploy": 2364,
      "Ġlikely": 2365,
      "obal": 2366,
      "ront": 2367,
      "Ġcreated": 2368,
      "ismarck": 2369,
      "ĠAlso": 2370,
      "Ġartist": 2371,
      "ext": 2372,
      "athic": 2373,
      "Ġcolle": 2374,
      "Ġdecl": 2375,
      "Ġresponse": 2376,
      "Ġlonger": 2377,
      "Ġgetting": 2378,
      "Ġcommunities": 2379,
      "ucle": 2380,
      "Ġdefin": 2381,
      "Ġdetail": 2382,
      "Ġservice": 2383,
      "Ġextre": 2384,
      "Ġquestion": 2385,
      "Ġgrowing": 2386,
      "volution": 2387,
      "Ġprotect": 2388,
      "Ġcaused": 2389,
      "Ġrecorded": 2390,
      "Ġopportun": 2391,
      "ĠSheldrake": 2392,
      "ĠResear": 2393,
      "Ġcopy": 2394,
      "Ġmultiple": 2395,
      "Ġdisaster": 2396,
      "Ġhappen": 2397,
      "Ġresistance": 2398,
      "Ġrepresent": 2399,
      "Ġtechnology": 2400,
      "Ġoriginal": 2401,
      "ĠInstitute": 2402,
      "Ġargu": 2403,
      "Ġbusiness": 2404,
      "ĠAntony": 2405,
      "Ġavailable": 2406,
      "razil": 2407,
      "respond": 2408,
      "pecially": 2409,
      "outhern": 2410,
      "ĠWashington": 2411,
      "HE": 2412,
      "HO": 2413,
      "OHO": 2414,
      "To": 2415,
      "When": 2416,
      "ae": 2417,
      "bs": 2418,
      "cular": 2419,
      "ders": 2420,
      "eb": 2421,
      "ec": 2422,
      "ey": 2423,
      "hold": 2424,
      "iet": 2425,
      "ler": 2426,
      "mber": 2427,
      "nts": 2428,
      "pts": 2429,
      "ring": 2430,
      "ych": 2431,
      "Ġaware": 2432,
      "inct": 2433,
      "ream": 2434,
      "Ġsqu": 2435,
      "Ġsize": 2436,
      "Ġsvn": 2437,
      "Ġcode": 2438,
      "edia": 2439,
      "Ġant": 2440,
      "Ġban": 2441,
      "Ġborn": 2442,
      "Ġinvol": 2443,
      "Ġmo": 2444,
      "arm": 2445,
      "arth": 2446,
      "Ġdign": 2447,
      "Ġhalf": 2448,
      "Ġhouse": 2449,
      "ention": 2450,
      "Ġeco": 2451,
      "Ġlive": 2452,
      "Ġliter": 2453,
      "Ġnucle": 2454,
      "Ġgive": 2455,
      "urke": 2456,
      "ĠAll": 2457,
      "ĠAug": 2458,
      "ĠSome": 2459,
      "ĠSystem": 2460,
      "ĠCont": 2461,
      "Ġaspect": 2462,
      "amm": 2463,
      "ĠMin": 2464,
      "ĠBismarck": 2465,
      "ndum": 2466,
      "ĠPer": 2467,
      "ĠPeter": 2468,
      "ope": 2469,
      "Ġheld": 2470,
      "Ġsugg": 2471,
      "Ġ13": 2472,
      "ĠEcosystem": 2473,
      "Ġvir": 2474,
      "Ġvict": 2475,
      "ached": 2476,
      "ivity": 2477,
      "Ġ23": 2478,
      "ĠDr": 2479,
      "Ġshows": 2480,
      "ptoms": 2481,
      "ĠNorth": 2482,
      "agement": 2483,
      "ĠJap": 2484,
      "Ġmakes": 2485,
      "Ġperm": 2486,
      "Ġcontent": 2487,
      "Ġallows": 2488,
      "Ġdoing": 2489,
      "Ġprevent": 2490,
      "Ġtherefore": 2491,
      "ĠKromko": 2492,
      "Ġbecom": 2493,
      "Ġwhole": 2494,
      "order": 2495,
      "ians": 2496,
      "Ġupd": 2497,
      "ĠRead": 2498,
      "Ġinstead": 2499,
      "ccording": 2500,
      "Ġrespect": 2501,
      "Ġgenerally": 2502,
      "Ġexperi": 2503,
      "Ġexperim": 2504,
      "Ġsometimes": 2505,
      "Ġminutes": 2506,
      "Ġstrateg": 2507,
      "ribut": 2508,
      "Ġequip": 2509,
      "Ġmovement": 2510,
      "Ġbelow": 2511,
      "Ġconsidered": 2512,
      "Ġavoid": 2513,
      "Ġcauses": 2514,
      "Ġlegislature": 2515,
      "Ġreason": 2516,
      "Ġimmedi": 2517,
      "ĠOctavian": 2518,
      "Ġlevels": 2519,
      "Ġcomputer": 2520,
      "Ġballot": 2521,
      "Ġdesigned": 2522,
      "ĠColor": 2523,
      "Ġdiagn": 2524,
      "ĠEnvironment": 2525,
      "Ġseems": 2526,
      "Ġimprove": 2527,
      "Ġtakes": 2528,
      "Ġidentify": 2529,
      "Ġanswer": 2530,
      "Ġsecond": 2531,
      "Ġpipelines": 2532,
      "ĠEmpire": 2533,
      "Ġnegative": 2534,
      "Ġindependence": 2535,
      "Ġcompletely": 2536,
      "Ġbullying": 2537,
      "Ġsustain": 2538,
      "Ġradi": 2539,
      "ruggle": 2540,
      "Ġgravity": 2541,
      "ĠTemple": 2542,
      "ĠPresident": 2543,
      "Ġcetane": 2544,
      "))": 2545,
      "PO": 2546,
      "PS": 2547,
      "You": 2548,
      "che": 2549,
      "fect": 2550,
      "ht": 2551,
      "iology": 2552,
      "lers": 2553,
      "made": 2554,
      "nes": 2555,
      "overy": 2556,
      "ps": 2557,
      "ply": 2558,
      "rate": 2559,
      "rite": 2560,
      "yz": 2561,
      "zheim": 2562,
      "Ġaway": 2563,
      "inter": 2564,
      "ints": 2565,
      "inated": 2566,
      "erve": 2567,
      "atre": 2568,
      "athy": 2569,
      "Ġsy": 2570,
      "Ġsens": 2571,
      "Ġcut": 2572,
      "oration": 2573,
      "alt": 2574,
      "Ġfru": 2575,
      "Ġfuture": 2576,
      "arily": 2577,
      "roy": 2578,
      "Ġthus": 2579,
      "Ġhold": 2580,
      "Ġreact": 2581,
      "Ġreally": 2582,
      "Ġlower": 2583,
      "omiting": 2584,
      "Ġnorthern": 2585,
      "sex": 2586,
      "cean": 2587,
      "Ġgen": 2588,
      "Ġgyrat": 2589,
      "rad": 2590,
      "oln": 2591,
      "ĠAc": 2592,
      "oted": 2593,
      "Ġforces": 2594,
      "ĠSociety": 2595,
      "Ġyet": 2596,
      "ĠMarch": 2597,
      "ĠMedical": 2598,
      "ado": 2599,
      "ĠBro": 2600,
      "ĠBrazil": 2601,
      "ops": 2602,
      "Ġitself": 2603,
      "illing": 2604,
      "Ġrig": 2605,
      "ĠElect": 2606,
      "ĠWhy": 2607,
      "Ġvill": 2608,
      "ĠGerm": 2609,
      "ĠDis": 2610,
      "Ġsex": 2611,
      "ĠLinc": 2612,
      "Ġshut": 2613,
      "Ġkids": 2614,
      "Ġabove": 2615,
      "Ġability": 2616,
      "ĠJane": 2617,
      "ĠJames": 2618,
      "Ġenh": 2619,
      "Ġadop": 2620,
      "Ġadults": 2621,
      "Ġcomplic": 2622,
      "rants": 2623,
      "Ġ197": 2624,
      "Ġclaim": 2625,
      "Ġarm": 2626,
      "avid": 2627,
      "Ġeffort": 2628,
      "Ġtrack": 2629,
      "Ġquick": 2630,
      "Ġupon": 2631,
      "ternal": 2632,
      "ublic": 2633,
      "Ġblack": 2634,
      "Ġblock": 2635,
      "Ġattach": 2636,
      "Ġroom": 2637,
      "Ġroad": 2638,
      "Ġrelig": 2639,
      "ĠYork": 2640,
      "tenberg": 2641,
      "Ġinstall": 2642,
      "Ġlegal": 2643,
      "Ġtrials": 2644,
      "Ġremov": 2645,
      "Ġincreased": 2646,
      "Ġreading": 2647,
      "Ġprogress": 2648,
      "Ġoccurs": 2649,
      "Ġfrequent": 2650,
      "Ġsolar": 2651,
      "anese": 2652,
      "Ġinitiatives": 2653,
      "Ġequal": 2654,
      "Ġexercise": 2655,
      "Ġmeasures": 2656,
      "Ġcorrespond": 2657,
      "Ġ60": 2658,
      "Ġlimited": 2659,
      "Ġstorms": 2660,
      "Ġshowed": 2661,
      "Ġcomputers": 2662,
      "Ġrelationships": 2663,
      "Ġcoca": 2664,
      "Ġcosts": 2665,
      "Ġsuccessful": 2666,
      "Ġcontinued": 2667,
      "Ġclear": 2668,
      "Ġhurricane": 2669,
      "pox": 2670,
      "Ġsymptoms": 2671,
      "Ġapplications": 2672,
      "Ġbursa": 2673,
      "Ġetc": 2674,
      "ĠWhile": 2675,
      "Ġinternational": 2676,
      "Ġdestroy": 2677,
      "Ġeducation": 2678,
      "Ġpotential": 2679,
      "Ġpetition": 2680,
      "Ġespecially": 2681,
      "Ġreleased": 2682,
      "ĠMaryland": 2683,
      "Ġroundabout": 2684,
      "Ġassociated": 2685,
      "Ġstrategies": 2686,
      "zheimer": 2687,
      "ĠLincoln": 2688,
      "13": 2689,
      "18": 2690,
      "22": 2691,
      "EB": 2692,
      "For": 2693,
      "II": 2694,
      "Le": 2695,
      "ON": 2696,
      "On": 2697,
      "Soup": 2698,
      "app": 2699,
      "aign": 2700,
      "cy": 2701,
      "ele": 2702,
      "fere": 2703,
      "fits": 2704,
      "met": 2705,
      "new": 2706,
      "oes": 2707,
      "tle": 2708,
      "uals": 2709,
      "water": 2710,
      "wise": 2711,
      "Ġtell": 2712,
      "Ġach": 2713,
      "reen": 2714,
      "ats": 2715,
      "Ġsix": 2716,
      "onst": 2717,
      "ister": 2718,
      "Ġcy": 2719,
      "Ġcards": 2720,
      "Ġwid": 2721,
      "ann": 2722,
      "Ġpay": 2723,
      "Ġptosis": 2724,
      "orf": 2725,
      "itude": 2726,
      "eding": 2727,
      "Ġanim": 2728,
      "Ġbre": 2729,
      "Ġbit": 2730,
      "Ġbar": 2731,
      "Ġbrought": 2732,
      "Ġfull": 2733,
      "Ġfront": 2734,
      "Ġmind": 2735,
      "Ġmass": 2736,
      "icles": 2737,
      "Ġeld": 2738,
      "Ġeither": 2739,
      "Ġepox": 2740,
      "Ġnature": 2741,
      "Ġgender": 2742,
      "urch": 2743,
      "âĢĺ": 2744,
      "olic": 2745,
      "ĠCour": 2746,
      "Ġupper": 2747,
      "Ġstar": 2748,
      "iring": 2749,
      "eline": 2750,
      "Ġwhite": 2751,
      "Ġconvers": 2752,
      "ĠBooth": 2753,
      "rie": 2754,
      "ĠPark": 2755,
      "ership": 2756,
      "Ġexternal": 2757,
      "illed": 2758,
      "ĠHurric": 2759,
      "Ġcomes": 2760,
      "ĠRed": 2761,
      "ĠRep": 2762,
      "ĠGe": 2763,
      "ĠDes": 2764,
      "ĠLang": 2765,
      "Ġshare": 2766,
      "ffic": 2767,
      "Ġcannot": 2768,
      "ĠInc": 2769,
      "ously": 2770,
      "izes": 2771,
      "izations": 2772,
      "Ġcomponents": 2773,
      "augh": 2774,
      "Ġ196": 2775,
      "Ġclient": 2776,
      "Ġunions": 2777,
      "Ġproduce": 2778,
      "Ġproduced": 2779,
      "ĠKing": 2780,
      "Ġstudent": 2781,
      "Ġflo": 2782,
      "Ġtraining": 2783,
      "Ġagre": 2784,
      "Ġagencies": 2785,
      "Ġquite": 2786,
      "Ġteacher": 2787,
      "Ġpoet": 2788,
      "ought": 2789,
      "Ġactive": 2790,
      "Ġdeveloper": 2791,
      "Ġattem": 2792,
      "Ġattention": 2793,
      "Ġsubst": 2794,
      "ugg": 2795,
      "Ġmetals": 2796,
      "Ġmode": 2797,
      "Ġmodern": 2798,
      "ĠAlzheimer": 2799,
      "Ġassass": 2800,
      "raining": 2801,
      "Ġsimply": 2802,
      "Ġprinc": 2803,
      "Ġspecial": 2804,
      "Ġperformed": 2805,
      "Ġincreasing": 2806,
      "Ġready": 2807,
      "Ġ2010": 2808,
      "Ġ2011": 2809,
      "Ġhimself": 2810,
      "ropri": 2811,
      "Ġtransport": 2812,
      "Ġcenter": 2813,
      "Ġaccording": 2814,
      "Ġeverything": 2815,
      "Ġoperations": 2816,
      "Ġoperating": 2817,
      "Ġfuel": 2818,
      "Ġparticularly": 2819,
      "Ġvari": 2820,
      "Ġfinan": 2821,
      "Ġreported": 2822,
      "Ġrules": 2823,
      "ounts": 2824,
      "Ġrelationship": 2825,
      "Ġideas": 2826,
      "Ġsounds": 2827,
      "ĠResources": 2828,
      "Ġskills": 2829,
      "Ġtaken": 2830,
      "Ġveh": 2831,
      "Ġpollut": 2832,
      "Ġmaintain": 2833,
      "ĠUser": 2834,
      "Ġindividual": 2835,
      "Ġscientists": 2836,
      "Ġfriends": 2837,
      "ĠTechSoup": 2838,
      "ĠSudan": 2839,
      "Ġapplied": 2840,
      "Ġpolymer": 2841,
      "Ġdrugs": 2842,
      "Ġcampaign": 2843,
      "Ġhours": 2844,
      "Ġemergency": 2845,
      "ĠApril": 2846,
      "Ġextreme": 2847,
      "ĠResearch": 2848,
      "Ġdignities": 2849,
      "Ġequipment": 2850,
      "ĠColorado": 2851,
      "'ll": 2852,
      "16": 2853,
      "200": 2854,
      "ID": 2855,
      "OT": 2856,
      "bol": 2857,
      "cious": 2858,
      "ees": 2859,
      "gram": 2860,
      "ik": 2861,
      "ira": 2862,
      "lim": 2863,
      "mon": 2864,
      "more": 2865,
      "off": 2866,
      "ober": 2867,
      "rated": 2868,
      "rast": 2869,
      "sych": 2870,
      "tt": 2871,
      "tty": 2872,
      "uild": 2873,
      "Ġ.": 2874,
      "Ġer": 2875,
      "Ġri": 2876,
      "Ġign": 2877,
      "Ġturke": 2878,
      "iny": 2879,
      "inal": 2880,
      "inity": 2881,
      "Ġoptions": 2882,
      "Ġoctane": 2883,
      "Ġtheory": 2884,
      "erly": 2885,
      "onut": 2886,
      "ising": 2887,
      "isation": 2888,
      "Ġcases": 2889,
      "Ġwent": 2890,
      "Ġwall": 2891,
      "Ġpack": 2892,
      "eded": 2893,
      "Ġanc": 2894,
      "Ġang": 2895,
      "Ġann": 2896,
      "Ġburning": 2897,
      "ali": 2898,
      "Ġfig": 2899,
      "Ġfoss": 2900,
      "Ġfix": 2901,
      "Ġfiles": 2902,
      "oura": 2903,
      "Ġmis": 2904,
      "Ġmid": 2905,
      "Ġmess": 2906,
      "Ġmount": 2907,
      "Ġmouth": 2908,
      "ara": 2909,
      "arrow": 2910,
      "Ġdram": 2911,
      "Ġdark": 2912,
      "Ġdivid": 2913,
      "aster": 2914,
      "Ġhands": 2915,
      "Ġhistory": 2916,
      "ctor": 2917,
      "Ġreve": 2918,
      "Ġrepe": 2919,
      "ili": 2920,
      "vere": 2921,
      "omb": 2922,
      "omp": 2923,
      "Ġnut": 2924,
      "Ġnamed": 2925,
      "semb": 2926,
      "ime": 2927,
      "imum": 2928,
      "oline": 2929,
      "ĠAre": 2930,
      "ĠAust": 2931,
      "Ġonce": 2932,
      "ching": 2933,
      "ĠSOHO": 2934,
      "ĠCO": 2935,
      "Ġund": 2936,
      "etary": 2937,
      "Ġstars": 2938,
      "ample": 2939,
      "ĠMod": 2940,
      "ĠMus": 2941,
      "ĠMost": 2942,
      "Ġwhose": 2943,
      "ores": 2944,
      "erson": 2945,
      "Ġheel": 2946,
      "Ġheart": 2947,
      "Ġexactly": 2948,
      "illi": 2949,
      "used": 2950,
      "essions": 2951,
      "essential": 2952,
      "istor": 2953,
      "istic": 2954,
      "ĠFirst": 2955,
      "ocu": 2956,
      "ocated": 2957,
      "ĠWar": 2958,
      "ĠWith": 2959,
      "ĠWork": 2960,
      "Ġvomiting": 2961,
      "acy": 2962,
      "ivision": 2963,
      "Ġnecess": 2964,
      "Ġseen": 2965,
      "ĠLic": 2966,
      "arden": 2967,
      "ardio": 2968,
      "These": 2969,
      "ĠJu": 2970,
      "ĠOther": 2971,
      "ĠUK": 2972,
      "ellow": 2973,
      "cession": 2974,
      "Ġprec": 2975,
      "lected": 2976,
      "apes": 2977,
      "apter": 2978,
      "ĠKnow": 2979,
      "Ġrecovery": 2980,
      "Ġ2006": 2981,
      "Ġpatches": 2982,
      "Ġevent": 2983,
      "Ġevents": 2984,
      "Ġefforts": 2985,
      "Ġspent": 2986,
      "rench": 2987,
      "Ġpoor": 2988,
      "Ġpoem": 2989,
      "Ġhowever": 2990,
      "Ġspeak": 2991,
      "oney": 2992,
      "ĠChar": 2993,
      "Ġattack": 2994,
      "Ġconsum": 2995,
      "Ġconsists": 2996,
      "overed": 2997,
      "Ġrafter": 2998,
      "ĠYour": 2999,
      "Ġoffer": 3000,
      "Ġsuppl": 3001,
      "Ġadded": 3002,
      "Ġuseful": 3003,
      "Ġrefer": 3004,
      "Ġdiscrim": 3005,
      "Ġinstruct": 3006,
      "Ġcreating": 3007,
      "Ġexpand": 3008,
      "Ġexpressed": 3009,
      "Ġnumbers": 3010,
      "Ġprobably": 3011,
      "Ġtrib": 3012,
      "Ġhumans": 3013,
      "Ġlocated": 3014,
      "Ġgets": 3015,
      "ociation": 3016,
      "Ġfindings": 3017,
      "Ġshell": 3018,
      "Ġcontinue": 3019,
      "Ġlisten": 3020,
      "Ġcover": 3021,
      "Ġfreigh": 3022,
      "ĠWeb": 3023,
      "Ġcharge": 3024,
      "rolog": 3025,
      "Ġprovided": 3026,
      "Ġproviding": 3027,
      "Ġdoesn": 3028,
      "Ġacquainted": 3029,
      "Ġleading": 3030,
      "Ġgrowth": 3031,
      "Ġclassroom": 3032,
      "Ġdiscussion": 3033,
      "Ġimmune": 3034,
      "Ġdevice": 3035,
      "Ġissue": 3036,
      "Ġidea": 3037,
      "Ġcoconut": 3038,
      "Ġmusic": 3039,
      "Ġmuscle": 3040,
      "Ġeasily": 3041,
      "Ġgasoline": 3042,
      "board": 3043,
      "ASA": 3044,
      "Ġbehav": 3045,
      "Ġdisasters": 3046,
      "Ġolder": 3047,
      "ĠEnglish": 3048,
      "Ġletter": 3049,
      "ĠDoes": 3050,
      "Ġapplication": 3051,
      "Ġculture": 3052,
      "Ġbrother": 3053,
      "Ġbursitis": 3054,
      "Ġtowns": 3055,
      "Ġreceived": 3056,
      "Ġbasic": 3057,
      "Ġbird": 3058,
      "Ġdrive": 3059,
      "Ġhomes": 3060,
      "Ġpolicy": 3061,
      "Ġinjury": 3062,
      "Ġbegin": 3063,
      "ĠCarol": 3064,
      "Ġinfluence": 3065,
      "Ġlayer": 3066,
      "ĠManagement": 3067,
      "Ġensure": 3068,
      "haps": 3069,
      "profits": 3070,
      "Ġparents": 3071,
      "ministration": 3072,
      "ĠAssociation": 3073,
      "Ġvaccine": 3074,
      "ĠTripp": 3075,
      "Ġstrength": 3076,
      "ĠChrist": 3077,
      "Ġupdated": 3078,
      "htm": 3079,
      "Ġelderly": 3080,
      "ĠCourt": 3081,
      "Ġfossil": 3082,
      "//": 3083,
      "14": 3084,
      "15": 3085,
      "17": 3086,
      "://": 3087,
      "But": 3088,
      "Ds": 3089,
      "IN": 3090,
      "Now": 3091,
      "bl": 3092,
      "ble": 3093,
      "cause": 3094,
      "cape": 3095,
      "dorf": 3096,
      "egr": 3097,
      "gment": 3098,
      "ks": 3099,
      "lam": 3100,
      "oad": 3101,
      "pid": 3102,
      "tered": 3103,
      "vf": 3104,
      "vation": 3105,
      "vice": 3106,
      "what": 3107,
      "where": 3108,
      "zz": 3109,
      "Ġvel": 3110,
      "Ġtitle": 3111,
      "Ġtests": 3112,
      "Ġtalk": 3113,
      "iner": 3114,
      "rect": 3115,
      "era": 3116,
      "Ġsle": 3117,
      "Ġsouthern": 3118,
      "ened": 3119,
      "enced": 3120,
      "Ġcat": 3121,
      "Ġcal": 3122,
      "Ġcoll": 3123,
      "ana": 3124,
      "Ġpie": 3125,
      "org": 3126,
      "itable": 3127,
      "itual": 3128,
      "alu": 3129,
      "ales": 3130,
      "Ġfil": 3131,
      "Ġfather": 3132,
      "Ġfield": 3133,
      "outs": 3134,
      "Ġmom": 3135,
      "Ġdies": 3136,
      "Ġdocu": 3137,
      "rots": 3138,
      "asc": 3139,
      "cts": 3140,
      "Ġlat": 3141,
      "Ġisn": 3142,
      "cember": 3143,
      "cepts": 3144,
      "Ġge": 3145,
      "Ġgot": 3146,
      "Ġgold": 3147,
      "Ġgrants": 3148,
      "rab": 3149,
      "ray": 3150,
      "raft": 3151,
      "âĢ¦": 3152,
      "olation": 3153,
      "oliv": 3154,
      "ĠAng": 3155,
      "ĠInt": 3156,
      "ett": 3157,
      "etwork": 3158,
      "verse": 3159,
      "Ġstim": 3160,
      "Ġstop": 3161,
      "Ġstates": 3162,
      "ird": 3163,
      "heric": 3164,
      "ellect": 3165,
      "ades": 3166,
      "Ġcondition": 3167,
      "ĠBy": 3168,
      "ĠBer": 3169,
      "ĠBiodiversity": 3170,
      "ĠPan": 3171,
      "ĠPlease": 3172,
      "oph": 3173,
      "Ġalread": 3174,
      "aine": 3175,
      "Ġhear": 3176,
      "Ġheight": 3177,
      "oser": 3178,
      "Ġexce": 3179,
      "usion": 3180,
      "istry": 3181,
      "ĠFeb": 3182,
      "ĠFrench": 3183,
      "Ġrate": 3184,
      "Ġrange": 3185,
      "abb": 3186,
      "ocrat": 3187,
      "umb": 3188,
      "ĠEach": 3189,
      "ĠEPO": 3190,
      "ander": 3191,
      "Ġvot": 3192,
      "Ġchall": 3193,
      "Ġ24": 3194,
      "Ġ26": 3195,
      "ĠGl": 3196,
      "ĠGal": 3197,
      "ĠGuid": 3198,
      "ĠDavid": 3199,
      "Ġimages": 3200,
      "Ġplans": 3201,
      "ĠâĢ¦": 3202,
      "ĠJune": 3203,
      "ĠUt": 3204,
      "irection": 3205,
      "Ġdoctor": 3206,
      "Ġpretty": 3207,
      "Ġarch": 3208,
      "Ġpattern": 3209,
      "Ġpatient": 3210,
      "Ġtraffic": 3211,
      "Ġanything": 3212,
      "Ġpoints": 3213,
      "Ġamend": 3214,
      "Ġactually": 3215,
      "ossible": 3216,
      "ification": 3217,
      "Ġdeveloped": 3218,
      "Ġdifferences": 3219,
      "Ġconsist": 3220,
      "192": 3221,
      "199": 3222,
      "Ġscience": 3223,
      "oven": 3224,
      "ugs": 3225,
      "Ġinstru": 3226,
      "ondon": 3227,
      "Ġmodel": 3228,
      "gana": 3229,
      "Ġplayed": 3230,
      "Ġforms": 3231,
      "Ġformed": 3232,
      "Ġprint": 3233,
      "Ġremember": 3234,
      "ĠArts": 3235,
      "Ġdistance": 3236,
      "Ġcentral": 3237,
      "Ġsupported": 3238,
      "Ġsolvent": 3239,
      "Ġmonitor": 3240,
      "ĠBecause": 3241,
      "Ġplants": 3242,
      "Ġlargest": 3243,
      "ceptions": 3244,
      "Ġcourt": 3245,
      "ribution": 3246,
      "Ġmanaged": 3247,
      "Ġslow": 3248,
      "ĠScience": 3249,
      "Ġsites": 3250,
      "Ġfollow": 3251,
      "Ġasked": 3252,
      "Ġunderstanding": 3253,
      "Ġgrass": 3254,
      "Ġprivate": 3255,
      "Ġmaterials": 3256,
      "Ġadditional": 3257,
      "Ġmeaning": 3258,
      "Ġglobal": 3259,
      "Ġpromote": 3260,
      "Ġconnect": 3261,
      "Ġillust": 3262,
      "Ġwriting": 3263,
      "Ġexisting": 3264,
      "Ġcritical": 3265,
      "ĠStudents": 3266,
      "porary": 3267,
      "Ġestab": 3268,
      "Ġtrue": 3269,
      "ĠMorgana": 3270,
      "Ġfeeling": 3271,
      "ĠQu": 3272,
      "ĠCanada": 3273,
      "Ġdescribed": 3274,
      "Ġreferendum": 3275,
      "itizens": 3276,
      "Ġhigher": 3277,
      "Ġplatforms": 3278,
      "ĠOffshore": 3279,
      "ĠCounty": 3280,
      "Ġinvolved": 3281,
      "ĠAugust": 3282,
      "Ġsuggest": 3283,
      "ĠElectricity": 3284,
      "Ġcomplicated": 3285,
      "Ġquickly": 3286,
      "aughter": 3287,
      "Ġfloor": 3288,
      "ugglers": 3289,
      "Ġfinancial": 3290,
      "Ġpollutants": 3291,
      "Ġdivided": 3292,
      "ĠCarolina": 3293,
      "Ġveloc": 3294,
      "Ġalready": 3295,
      "'ve": 3296,
      "04": 3297,
      "29": 3298,
      "43": 3299,
      "52": 3300,
      "56": 3301,
      "AN": 3302,
      "Ad": 3303,
      "At": 3304,
      "Ch": 3305,
      "EEB": 3306,
      "IV": 3307,
      "OB": 3308,
      "RE": 3309,
      "So": 3310,
      "ait": 3311,
      "aid": 3312,
      "aff": 3313,
      "awn": 3314,
      "bor": 3315,
      "free": 3316,
      "ground": 3317,
      "hab": 3318,
      "ius": 3319,
      "joy": 3320,
      "med": 3321,
      "no": 3322,
      "nam": 3323,
      "oint": 3324,
      "put": 3325,
      "part": 3326,
      "ship": 3327,
      "syl": 3328,
      "tic": 3329,
      "wide": 3330,
      "yond": 3331,
      "||": 3332,
      "Ġ$": 3333,
      "Ġz": 3334,
      "Ġion": 3335,
      "Ġessential": 3336,
      "Ġaim": 3337,
      "reg": 3338,
      "Ġopt": 3339,
      "aters": 3340,
      "atically": 3341,
      "onts": 3342,
      "onial": 3343,
      "Ġcru": 3344,
      "Ġcell": 3345,
      "Ġcust": 3346,
      "Ġwood": 3347,
      "Ġwind": 3348,
      "Ġwife": 3349,
      "anced": 3350,
      "Ġpsych": 3351,
      "ority": 3352,
      "Ġbad": 3353,
      "Ġface": 3354,
      "Ġfail": 3355,
      "Ġfont": 3356,
      "Ġfoot": 3357,
      "Ġinside": 3358,
      "Ġinvest": 3359,
      "Ġmm": 3360,
      "Ġmut": 3361,
      "Ġmoney": 3362,
      "icit": 3363,
      "icity": 3364,
      "icated": 3365,
      "icient": 3366,
      "Ġtot": 3367,
      "Ġtoget": 3368,
      "Ġdro": 3369,
      "Ġdry": 3370,
      "Ġdirection": 3371,
      "lecular": 3372,
      "Ġthin": 3373,
      "Ġhor": 3374,
      "Ġhit": 3375,
      "Ġhost": 3376,
      "Ġear": 3377,
      "Ġecosystem": 3378,
      "Ġlink": 3379,
      "Ġleng": 3380,
      "set": 3381,
      "imens": 3382,
      "ider": 3383,
      "âĢ¢": 3384,
      "oltenberg": 3385,
      "ĠAct": 3386,
      "ĠAPI": 3387,
      "chan": 3388,
      "ĠSu": 3389,
      "ĠSim": 3390,
      "ĠSouth": 3391,
      "Ġste": 3392,
      "Ġprote": 3393,
      "ĠMon": 3394,
      "ĠMill": 3395,
      "ĠMars": 3396,
      "emic": 3397,
      "Ġconcepts": 3398,
      "ĠBot": 3399,
      "ĠBugs": 3400,
      "oping": 3401,
      "erships": 3402,
      "Ġsum": 3403,
      "ĠTheir": 3404,
      "ĠTherapy": 3405,
      "Ġhabit": 3406,
      "istics": 3407,
      "ĠHim": 3408,
      "ĠHigh": 3409,
      "Ġcomets": 3410,
      "ighbor": 3411,
      "ables": 3412,
      "ĠWild": 3413,
      "ĠWater": 3414,
      "ĠWestern": 3415,
      "ĠWilli": 3416,
      "Ġleave": 3417,
      "ĠRiver": 3418,
      "aced": 3419,
      "Ġneighbor": 3420,
      "ĠGu": 3421,
      "Ġseason": 3422,
      "Ġnote": 3423,
      "Ġnothing": 3424,
      "Ġship": 3425,
      "Ġshown": 3426,
      "pted": 3427,
      "ĠNe": 3428,
      "ĠNo": 3429,
      "ĠNASA": 3430,
      "aging": 3431,
      "agues": 3432,
      "ĠInter": 3433,
      "ĠIniti": 3434,
      "ĠOver": 3435,
      "Ġacid": 3436,
      "Ġintended": 3437,
      "Ġresource": 3438,
      "Ġcontem": 3439,
      "Ġcontract": 3440,
      "ildren": 3441,
      "Ġmanage": 3442,
      "Ġdespite": 3443,
      "Ġarri": 3444,
      "Ġpeace": 3445,
      "Ġjud": 3446,
      "ĠStar": 3447,
      "ĠStoltenberg": 3448,
      "Ġcommission": 3449,
      "Ġflower": 3450,
      "Ġfluid": 3451,
      "Ġspir": 3452,
      "Ġobt": 3453,
      "Ġobvious": 3454,
      "velopment": 3455,
      "ervation": 3456,
      "Ġactions": 3457,
      "Ġdevelopers": 3458,
      "Ġtwent": 3459,
      "Ġregular": 3460,
      "Ġrelated": 3461,
      "Ġnews": 3462,
      "Ġsupply": 3463,
      "Ġscen": 3464,
      "Ġoverall": 3465,
      "Ġincludes": 3466,
      "hens": 3467,
      "ĠReher": 3468,
      "Ġdiscovered": 3469,
      "eneral": 3470,
      "Ġinstance": 3471,
      "sels": 3472,
      "Ġimportance": 3473,
      "Ġmetal": 3474,
      "itting": 3475,
      "Ġnumerous": 3476,
      "Ġparts": 3477,
      "Ġassess": 3478,
      "Ġcollect": 3479,
      "Ġservers": 3480,
      "Ġremain": 3481,
      "Ġrespond": 3482,
      "Ġ56": 3483,
      "ĠHealth": 3484,
      "Ġcommunication": 3485,
      "Ġincreases": 3486,
      "ructures": 3487,
      "Ġthinking": 3488,
      "Ġdefe": 3489,
      "Ġcontinues": 3490,
      "Ġcoast": 3491,
      "Ġfreed": 3492,
      "Ġfamous": 3493,
      "Ġplanet": 3494,
      "Ġaccount": 3495,
      "Ġelement": 3496,
      "Ġwanted": 3497,
      "Ġelectrical": 3498,
      "Ġcarry": 3499,
      "ĠProgram": 3500,
      "Ġprograms": 3501,
      "Ġrequirements": 3502,
      "Ġrunning": 3503,
      "Ġinflamm": 3504,
      "Ġlegislation": 3505,
      "Ġfactors": 3506,
      "Ġlimit": 3507,
      "Ġprojects": 3508,
      "Ġvolunt": 3509,
      "Ġenter": 3510,
      "Ġdevices": 3511,
      "Ġdiseases": 3512,
      "Ġsubjects": 3513,
      "Ġturned": 3514,
      "Ġcareful": 3515,
      "ĠColle": 3516,
      "Ġmulti": 3517,
      "Ġreduce": 3518,
      "ĠAfrican": 3519,
      "Ġperiodic": 3520,
      "Ġeffectively": 3521,
      "Ġsymbol": 3522,
      "Ġpopular": 3523,
      "Ġpopulation": 3524,
      "Ġsword": 3525,
      "Ġtruth": 3526,
      "ennsyl": 3527,
      "Ġeye": 3528,
      "Ġlaun": 3529,
      "Ġprofessor": 3530,
      "Ġprofessional": 3531,
      "ortunately": 3532,
      "Ġrepresents": 3533,
      "Ġutil": 3534,
      "Ġseconds": 3535,
      "Ġmaps": 3536,
      "Ġimpacts": 3537,
      "Ġwritten": 3538,
      "ĠMedicare": 3539,
      "ĠMedicine": 3540,
      "Ġheavy": 3541,
      "Ġheavily": 3542,
      "Ġbenefits": 3543,
      "Ġanalyz": 3544,
      "Ġtowards": 3545,
      "Ġresponsible": 3546,
      "Ġpolicies": 3547,
      "valence": 3548,
      "Ġmethods": 3549,
      "iciency": 3550,
      "Ġregulations": 3551,
      "Ġmedicine": 3552,
      "immolation": 3553,
      "Ġdegree": 3554,
      "ĠGovern": 3555,
      "Ġdecrease": 3556,
      "ĠEconomics": 3557,
      "Ġchemical": 3558,
      "CLA": 3559,
      "Ġversion": 3560,
      "Ġpicture": 3561,
      "Ġmorning": 3562,
      "Ġmotiv": 3563,
      "Ġatmospheric": 3564,
      "Ġemployees": 3565,
      "Ġaspects": 3566,
      "Ġpermission": 3567,
      "Ġbecomes": 3568,
      "Ġexperiment": 3569,
      "Ġimmediately": 3570,
      "Ġgyratory": 3571,
      "Ġvillage": 3572,
      "Ġepoxy": 3573,
      "ĠHurricane": 3574,
      "Ġvehicles": 3575,
      "Ġmessage": 3576,
      "Ġreveal": 3577,
      "ĠModern": 3578,
      "ĠJuly": 3579,
      "html": 3580,
      "Ġdiesel": 3581,
      "Ġstimul": 3582,
      "ellectual": 3583,
      "Ġchalleng": 3584,
      "ĠUtah": 3585,
      "ovenant": 3586,
      "Ġvelocity": 3587,
      "Ġtogether": 3588,
      "Ġlength": 3589,
      "ĠWilliam": 3590,
      "ĠInitiative": 3591,
      "ennsylvan": 3592,
      "'m": 3593,
      "40": 3594,
      "60": 3595,
      "By": 3596,
      "Bash": 3597,
      "DC": 3598,
      "De": 3599,
      "Elect": 3600,
      "He": 3601,
      "John": 3602,
      "Note": 3603,
      "One": 3604,
      "Some": 3605,
      "Un": 3606,
      "With": 3607,
      "bt": 3608,
      "bur": 3609,
      "bense": 3610,
      "cation": 3611,
      "coura": 3612,
      "gar": 3613,
      "iÃ": 3614,
      "iat": 3615,
      "know": 3616,
      "lant": 3617,
      "light": 3618,
      "ming": 3619,
      "pir": 3620,
      "rong": 3621,
      "spe": 3622,
      "such": 3623,
      "ximum": 3624,
      "yal": 3625,
      "year": 3626,
      "×Ķ": 3627,
      "Ġ+": 3628,
      "Ġ,": 3629,
      "Ġ|": 3630,
      "Ġver": 3631,
      "Ġtou": 3632,
      "Ġtar": 3633,
      "Ġtells": 3634,
      "Ġaid": 3635,
      "Ġaction": 3636,
      "Ġthera": 3637,
      "Ġtheatre": 3638,
      "athe": 3639,
      "Ġsell": 3640,
      "Ġsought": 3641,
      "ena": 3642,
      "Ġcam": 3643,
      "Ġcreat": 3644,
      "Ġcateg": 3645,
      "Ġcardio": 3646,
      "Ġcovenant": 3647,
      "Ġwon": 3648,
      "ank": 3649,
      "anies": 3650,
      "Ġpage": 3651,
      "Ġpurs": 3652,
      "Ġplease": 3653,
      "itz": 3654,
      "itial": 3655,
      "Ġbase": 3656,
      "Ġbreat": 3657,
      "Ġboy": 3658,
      "Ġburn": 3659,
      "Ġbinary": 3660,
      "alination": 3661,
      "Ġfight": 3662,
      "Ġfast": 3663,
      "Ġfib": 3664,
      "Ġfav": 3665,
      "ouds": 3666,
      "Ġtow": 3667,
      "Ġtook": 3668,
      "arter": 3669,
      "Ġdy": 3670,
      "Ġdou": 3671,
      "Ġdang": 3672,
      "leg": 3673,
      "lement": 3674,
      "Ġhot": 3675,
      "Ġhits": 3676,
      "Ġhtt": 3677,
      "Ġeast": 3678,
      "ils": 3679,
      "Ġlives": 3680,
      "Ġliqu": 3681,
      "Ġnational": 3682,
      "Ġnarrow": 3683,
      "see": 3684,
      "Ġgain": 3685,
      "Ġgave": 3686,
      "owers": 3687,
      "ĠTe": 3688,
      "ĠTest": 3689,
      "ĠTrans": 3690,
      "rade": 3691,
      "ola": 3692,
      "ĠAm": 3693,
      "ĠAut": 3694,
      "Ġformer": 3695,
      "ĠIm": 3696,
      "ĠSw": 3697,
      "ĠCong": 3698,
      "ĠCons": 3699,
      "ĠCath": 3700,
      "Ġstre": 3701,
      "Ġstage": 3702,
      "Ġstructure": 3703,
      "Ġstruggle": 3704,
      "Ġorb": 3705,
      "amples": 3706,
      "ift": 3707,
      "ĠMD": 3708,
      "ĠMich": 3709,
      "ĠMiss": 3710,
      "ĠMany": 3711,
      "ements": 3712,
      "eli": 3713,
      "elid": 3714,
      "Ġwhom": 3715,
      "ĠBay": 3716,
      "ĠBook": 3717,
      "ĠBrain": 3718,
      "ĠBarb": 3719,
      "ĠPr": 3720,
      "ĠPar": 3721,
      "ĠPto": 3722,
      "ĠPennsylvan": 3723,
      "oples": 3724,
      "opathic": 3725,
      "Ġheating": 3726,
      "osite": 3727,
      "Ġexhib": 3728,
      "resh": 3729,
      "using": 3730,
      "ĠHay": 3731,
      "ĠHum": 3732,
      "Ġrather": 3733,
      "umn": 3734,
      "ump": 3735,
      "ĠEd": 3736,
      "ĠEdu": 3737,
      "ĠEven": 3738,
      "ĠEarth": 3739,
      "ĠWars": 3740,
      "Ġves": 3741,
      "Ġvide": 3742,
      "Ġleaf": 3743,
      "ĠRome": 3744,
      "Ġchance": 3745,
      "acity": 3746,
      "throp": 3747,
      "Ġ21": 3748,
      "ĠGPS": 3749,
      "ĠDet": 3750,
      "ĠLondon": 3751,
      "unction": 3752,
      "Ġshot": 3753,
      "Ġshape": 3754,
      "ptive": 3755,
      "Then": 3756,
      "Ġuser": 3757,
      "ineering": 3758,
      "Ġplaces": 3759,
      "peut": 3760,
      "ograp": 3761,
      "ĠOak": 3762,
      "ĠOnce": 3763,
      "ĠUN": 3764,
      "ĠUnder": 3765,
      "ĠUCLA": 3766,
      "Ġenjoy": 3767,
      "Ġmaximum": 3768,
      "izing": 3769,
      "soe": 3770,
      "Ġadult": 3771,
      "Ġcompar": 3772,
      "Ġcompanies": 3773,
      "Ġimpossible": 3774,
      "oseki": 3775,
      "ĠThrough": 3776,
      "Ġ193": 3777,
      "Ġclot": 3778,
      "Ġprefer": 3779,
      "Ġpeoples": 3780,
      "Ġunivers": 3781,
      "Ġ2003": 3782,
      "ileo": 3783,
      "Ġjob": 3784,
      "Ġworked": 3785,
      "hyl": 3786,
      "ledsoe": 3787,
      "ĠState": 3788,
      "ĠStance": 3789,
      "Ġgoal": 3790,
      "Ġspect": 3791,
      "conf": 3792,
      "Ġsomeone": 3793,
      "Ġtext": 3794,
      "Ġspeed": 3795,
      "Ġdeveloping": 3796,
      "Ġattract": 3797,
      "ieved": 3798,
      "aily": 3799,
      "Ġrain": 3800,
      "Ġdescribe": 3801,
      "197": 3802,
      "Ġoffers": 3803,
      "Ġoffshore": 3804,
      "That": 3805,
      "Ġreflect": 3806,
      "ĠRevolution": 3807,
      "Ġdiscover": 3808,
      "Ġindigenous": 3809,
      "Ġmeter": 3810,
      "Ġmoder": 3811,
      "Ġmodified": 3812,
      "isms": 3813,
      "Ġexpect": 3814,
      "Ġexpans": 3815,
      "Ġinfrast": 3816,
      "ĠAlthough": 3817,
      "Ġtrial": 3818,
      "Ġcolonial": 3819,
      "Ġserious": 3820,
      "Ġ500": 3821,
      "Ġinterpre": 3822,
      "lemy": 3823,
      "Ġsmugglers": 3824,
      "Ġshel": 3825,
      "Ġprocessing": 3826,
      "Ġfreew": 3827,
      "Ġrequires": 3828,
      "ĠFrank": 3829,
      "ĠBebense": 3830,
      "gged": 3831,
      "imately": 3832,
      "Ġhealthy": 3833,
      "Ġextra": 3834,
      "Ġorganizations": 3835,
      "Ġorganisation": 3836,
      "Ġfewer": 3837,
      "Ġactivity": 3838,
      "Ġmovements": 3839,
      "Ġbelief": 3840,
      "ifying": 3841,
      "Ġpowerful": 3842,
      "Ġbuy": 3843,
      "ĠProfess": 3844,
      "Ġposition": 3845,
      "Ġdamaged": 3846,
      "Ġlooking": 3847,
      "Ġbrains": 3848,
      "Ġfinal": 3849,
      "Ġfacilit": 3850,
      "ĠScient": 3851,
      "ircus": 3852,
      "Ġsignificance": 3853,
      "Ġaffected": 3854,
      "Ġcapacity": 3855,
      "Ġexplore": 3856,
      "Ġsatell": 3857,
      "Ġeasier": 3858,
      "ĠIslam": 3859,
      "Ġstatement": 3860,
      "Ġclean": 3861,
      "Ġdemonst": 3862,
      "ĠSoftware": 3863,
      "Ġsafety": 3864,
      "Ġbehind": 3865,
      "Ġvisit": 3866,
      "Ġpurp": 3867,
      "Ġpurch": 3868,
      "ĠIII": 3869,
      "Ġallowed": 3870,
      "Ġobserved": 3871,
      "Ġcultural": 3872,
      "ique": 3873,
      "ysis": 3874,
      "Ġpredicate": 3875,
      "Ġsecure": 3876,
      "ibrary": 3877,
      "Ġforests": 3878,
      "Ġsalt": 3879,
      "Ġmoved": 3880,
      "Ġelse": 3881,
      "Ġdomains": 3882,
      "ĠCoit": 3883,
      "riction": 3884,
      "Ġjoint": 3885,
      "2012": 3886,
      "Ġmarket": 3887,
      "Ġtelepathy": 3888,
      "ĠEgyptian": 3889,
      "Ġdraw": 3890,
      "ĠService": 3891,
      "Ġprepared": 3892,
      "Ġrecommend": 3893,
      "Ġsituations": 3894,
      "systems": 3895,
      "Ġtrying": 3896,
      "Ġofficials": 3897,
      "Ġcolleagues": 3898,
      "Ġdetailed": 3899,
      "Ġopportunities": 3900,
      "dersdorf": 3901,
      "Ġnucleus": 3902,
      "ĠEcosystems": 3903,
      "Ġvirt": 3904,
      "Ġsustainable": 3905,
      "ĠBrodersdorf": 3906,
      "Ġreligion": 3907,
      "Legged": 3908,
      "Ġachieve": 3909,
      "Ġwidows": 3910,
      "Ġextremely": 3911,
      "Ġsupplies": 3912,
      "Ġdiscrimination": 3913,
      "Ġbehavior": 3914,
      "block": 3915,
      "Ġcollabor": 3916,
      "Ġmoment": 3917,
      "ocratic": 3918,
      "Ġamendment": 3919,
      "Ġinstrument": 3920,
      "Ġillustr": 3921,
      "OBJ": 3922,
      "Ġionization": 3923,
      "Ġtotal": 3924,
      "Ġfreedom": 3925,
      "Ġvolunte": 3926,
      "Ġlaunched": 3927,
      "Bashir": 3928,
      "lantic": 3929,
      "Ġtarget": 3930,
      "Ġtherapeut": 3931,
      "Ġhttp": 3932,
      "ĠCongress": 3933,
      "ĠCatholic": 3934,
      "ĠPtolemy": 3935,
      "ĠBebensee": 3936,
      "23": 3937,
      "81": 3938,
      "99": 3939,
      "According": 3940,
      "CO": 3941,
      "First": 3942,
      "HA": 3943,
      "Located": 3944,
      "Most": 3945,
      "OL": 3946,
      "PA": 3947,
      "Pro": 3948,
      "Re": 3949,
      "Se": 3950,
      "aut": 3951,
      "ban": 3952,
      "bem": 3953,
      "cpp": 3954,
      "cles": 3955,
      "diff": 3956,
      "dered": 3957,
      "eed": 3958,
      "fact": 3959,
      "gent": 3960,
      "gener": 3961,
      "ha": 3962,
      "jo": 3963,
      "ken": 3964,
      "lor": 3965,
      "life": 3966,
      "ms": 3967,
      "mark": 3968,
      "name": 3969,
      "oom": 3970,
      "rs": 3971,
      "rum": 3972,
      "rance": 3973,
      "sc": 3974,
      "ties": 3975,
      "training": 3976,
      "uge": 3977,
      "uous": 3978,
      "wash": 3979,
      "âĨ": 3980,
      "Ġir": 3981,
      "ĠâĨ": 3982,
      "Ġaud": 3983,
      "hest": 3984,
      "head": 3985,
      "rehens": 3986,
      "Ġox": 3987,
      "Ġocean": 3988,
      "ercial": 3989,
      "Ġspl": 3990,
      "Ġsociety": 3991,
      "ones": 3992,
      "onation": 3993,
      "isc": 3994,
      "Ġcm": 3995,
      "Ġcitizens": 3996,
      "Ġwrite": 3997,
      "anish": 3998,
      "Ġpan": 3999,
      "Ġpric": 4000,
      "oring": 4001,
      "orld": 4002,
      "orah": 4003,
      "itution": 4004,
      "edum": 4005,
      "Ġbi": 4006,
      "Ġbed": 4007,
      "Ġbran": 4008,
      "Ġbunch": 4009,
      "Ġful": 4010,
      "Ġfire": 4011,
      "Ġfram": 4012,
      "Ġfaster": 4013,
      "oud": 4014,
      "Ġinject": 4015,
      "Ġmat": 4016,
      "Ġmed": 4017,
      "Ġmand": 4018,
      "Ġmural": 4019,
      "Ġmother": 4020,
      "Ġmicro": 4021,
      "Ġmental": 4022,
      "Ġmilit": 4023,
      "Ġmagn": 4024,
      "Ġmira": 4025,
      "Ġtowing": 4026,
      "arle": 4027,
      "arine": 4028,
      "Ġdrought": 4029,
      "Ġdaughter": 4030,
      "roll": 4031,
      "Ġthous": 4032,
      "Ġthreat": 4033,
      "Ġhon": 4034,
      "Ġhar": 4035,
      "Ġep": 4036,
      "Ġreach": 4037,
      "Ġrepl": 4038,
      "Ġrelease": 4039,
      "iled": 4040,
      "ilies": 4041,
      "vey": 4042,
      "Ġlate": 4043,
      "Ġlab": 4044,
      "Ġlost": 4045,
      "Ġlines": 4046,
      "Ġlanes": 4047,
      "ompl": 4048,
      "Ġnav": 4049,
      "Ġnative": 4050,
      "celer": 4051,
      "Ġgives": 4052,
      "Ġguid": 4053,
      "Ġgained": 4054,
      "ĠTra": 4055,
      "ĠTower": 4056,
      "ided": 4057,
      "rait": 4058,
      "rael": 4059,
      "raight": 4060,
      "oling": 4061,
      "ĠAccording": 4062,
      "Ġforg": 4063,
      "igg": 4064,
      "change": 4065,
      "ĠIll": 4066,
      "ĠSk": 4067,
      "ĠCity": 4068,
      "ĠCard": 4069,
      "ĠComp": 4070,
      "Ġstri": 4071,
      "Ġstable": 4072,
      "Ġstake": 4073,
      "Ġstories": 4074,
      "irl": 4075,
      "irs": 4076,
      "Ġproced": 4077,
      "Ġprohib": 4078,
      "Ġorient": 4079,
      "amental": 4080,
      "ĠMy": 4081,
      "ĠMer": 4082,
      "ĠMore": 4083,
      "ĠMake": 4084,
      "ĠMont": 4085,
      "emy": 4086,
      "Ġconvention": 4087,
      "ĠBr": 4088,
      "ĠBar": 4089,
      "rief": 4090,
      "ĠPre": 4091,
      "ĠPat": 4092,
      "ĠPress": 4093,
      "ĠPhys": 4094,
      "orest": 4095,
      "Ġweb": 4096,
      "Ġexc": 4097,
      "Ġexceptions": 4098,
      "Ġatom": 4099,
      "ĠFeder": 4100,
      "ĠHer": 4101,
      "ĠHug": 4102,
      "ĠHave": 4103,
      "Ġcoming": 4104,
      "quency": 4105,
      "pping": 4106,
      "Ġran": 4107,
      "Ġrand": 4108,
      "Ġrang": 4109,
      "ocal": 4110,
      "ĠEl": 4111,
      "udes": 4112,
      "ĠGeneral": 4113,
      "ĠDirect": 4114,
      "ĠDawn": 4115,
      "Ġsevere": 4116,
      "Ġnotice": 4117,
      "ĠLew": 4118,
      "ĠLear": 4119,
      "ĠLaw": 4120,
      "Ġshall": 4121,
      "Ġshield": 4122,
      "Ġworship": 4123,
      "ffect": 4124,
      "Ġcancer": 4125,
      "Ġplate": 4126,
      "Ġplays": 4127,
      "Ġking": 4128,
      "ĠOr": 4129,
      "Ġacceler": 4130,
      "Ġintegr": 4131,
      "Ġintellectual": 4132,
      "Ġdisp": 4133,
      "Ġdispl": 4134,
      "Ġdisorder": 4135,
      "ustion": 4136,
      "Ġperce": 4137,
      "Ġcontact": 4138,
      "Ġcompet": 4139,
      "Ġcompound": 4140,
      "Ġcomprehens": 4141,
      "Ġotherwise": 4142,
      "active": 4143,
      "Ġ192": 4144,
      "eps": 4145,
      "Ġclick": 4146,
      "enses": 4147,
      "Ġprevalence": 4148,
      "asses": 4149,
      "achari": 4150,
      "Ġunc": 4151,
      "Ġunlike": 4152,
      "Ġapply": 4153,
      "Ġappropri": 4154,
      "Ġmechan": 4155,
      "jective": 4156,
      "Ġrecover": 4157,
      "Ġworksh": 4158,
      "Ġcommercial": 4159,
      "Ġpartn": 4160,
      "Ġevol": 4161,
      "Ġevalu": 4162,
      "Ġefficiency": 4163,
      "Ġsomewhat": 4164,
      "Ġanyone": 4165,
      "ificial": 4166,
      "ĠChurch": 4167,
      "ĠChildren": 4168,
      "Ġregions": 4169,
      "Ġregional": 4170,
      "Ġregister": 4171,
      "Ġrepet": 4172,
      "Ġroyal": 4173,
      "ollowing": 4174,
      "Ġdescriptions": 4175,
      "193": 4176,
      "hesis": 4177,
      "Ġscreen": 4178,
      "Ġelected": 4179,
      "Ġincluded": 4180,
      "Ġrefers": 4181,
      "Ġhelps": 4182,
      "Ġhelpful": 4183,
      "ĠReview": 4184,
      "Ġemb": 4185,
      "Ġcred": 4186,
      "Ġperspect": 4187,
      "Ġexpected": 4188,
      "itted": 4189,
      "ĠAlbem": 4190,
      "Ġparrots": 4191,
      "Ġassist": 4192,
      "Ġserve": 4193,
      "Ġlocation": 4194,
      "Ġcommunicate": 4195,
      "Ġinteract": 4196,
      "Ġperforming": 4197,
      "Ġdistinct": 4198,
      "ditional": 4199,
      "Ġ2013": 4200,
      "ropical": 4201,
      "Ġtransfer": 4202,
      "Ġfamilies": 4203,
      "Ġpersonal": 4204,
      "Ġpresident": 4205,
      "Ġsolution": 4206,
      "Ġfeet": 4207,
      "Ġcharts": 4208,
      "Ġcompleted": 4209,
      "Ġdonor": 4210,
      "Ġminim": 4211,
      "Ġminute": 4212,
      "ĠAssemb": 4213,
      "Ġapproval": 4214,
      "Ġorganization": 4215,
      "Ġorganisms": 4216,
      "Ġgovernments": 4217,
      "standing": 4218,
      "airs": 4219,
      "Ġrealism": 4220,
      "Ġgreen": 4221,
      "Ġflooding": 4222,
      "Ġfacility": 4223,
      "Ġdepict": 4224,
      "Ġdiscussed": 4225,
      "Ġhomeopathic": 4226,
      "ĠDevice": 4227,
      "ĠDecember": 4228,
      "ĠDevelopment": 4229,
      "ĠLee": 4230,
      "ĠLeg": 4231,
      "Ġsmaller": 4232,
      "ounced": 4233,
      "Ġconstant": 4234,
      "Ġconstruct": 4235,
      "Ġbottled": 4236,
      "prise": 4237,
      "preme": 4238,
      "Ġbring": 4239,
      "Ġbrush": 4240,
      "Ġstatist": 4241,
      "boards": 4242,
      "Ġcareer": 4243,
      "Ġweeks": 4244,
      "Ġgrand": 4245,
      "Ġgrant": 4246,
      "Ġconflic": 4247,
      "ospital": 4248,
      "Ġdecisions": 4249,
      "ĠEngland": 4250,
      "Ġstanding": 4251,
      "Ġlearned": 4252,
      "Ġtrees": 4253,
      "Ġtreated": 4254,
      "Ġeyelid": 4255,
      "Ġvalence": 4256,
      "ĠAtlantic": 4257,
      "Ġsteps": 4258,
      "Ġconnection": 4259,
      "Ġpipeline": 4260,
      "Ġbirth": 4261,
      "ĠCommun": 4262,
      "ĠCommission": 4263,
      "Ġmeasured": 4264,
      "Ġastrolog": 4265,
      "Ġcritic": 4266,
      "ĠConf": 4267,
      "Ġproperties": 4268,
      "Ġindependent": 4269,
      "Ġfunctioning": 4270,
      "Ġ05": 4271,
      "ographic": 4272,
      "ographical": 4273,
      "Ġindividuals": 4274,
      "Ġfundamental": 4275,
      "Ġbuilding": 4276,
      "Ġestim": 4277,
      "Ġchoice": 4278,
      "www": 4279,
      "Ġtaxes": 4280,
      "Ġtelepathic": 4281,
      "Ġconcerns": 4282,
      "However": 4283,
      "Ġdrink": 4284,
      "Ġcontainer": 4285,
      "Ġcontainers": 4286,
      "Ġprepare": 4287,
      "Ġdecreases": 4288,
      "Ġmeeting": 4289,
      "Ġsituation": 4290,
      "Ġhyd": 4291,
      "Ġlogging": 4292,
      "Ġlandscape": 4293,
      "ĠSpanish": 4294,
      "Ġimagine": 4295,
      "ĠInternational": 4296,
      "Ġpreviously": 4297,
      "Ġdefinition": 4298,
      "Ġopportunity": 4299,
      "Ġarguments": 4300,
      "holders": 4301,
      "Ġsquare": 4302,
      "ĠJapan": 4303,
      "ĠJapanese": 4304,
      "Ġexperienced": 4305,
      "Ġdiagnosed": 4306,
      "ĠEnvironmental": 4307,
      "nesia": 4308,
      "Ġrigs": 4309,
      "ĠGermany": 4310,
      "Ġadopt": 4311,
      "Ġroads": 4312,
      "Ġremoved": 4313,
      "Ġfrequently": 4314,
      "Ġdestroyed": 4315,
      "eleb": 4316,
      "Ġbreak": 4317,
      "Ġconversation": 4318,
      "ĠLangley": 4319,
      "Ġprincip": 4320,
      "Ġvariety": 4321,
      "uilding": 4322,
      "Ġriver": 4323,
      "Ġfigure": 4324,
      "ĠAusten": 4325,
      "ĠCOX": 4326,
      "Ġnecessary": 4327,
      "Ġprecinct": 4328,
      "ĠCharles": 4329,
      "ineries": 4330,
      "Ġpiece": 4331,
      "olivia": 4332,
      "Ġestablished": 4333,
      "Ġhabitat": 4334,
      "Ġneighborhood": 4335,
      "Ġcontemporary": 4336,
      "Ġarrived": 4337,
      "Ġinflammation": 4338,
      "ĠCollege": 4339,
      "Ġanalyzed": 4340,
      "iatric": 4341,
      "Ġfavor": 4342,
      "ĠBarbara": 4343,
      "ĠEducation": 4344,
      "ography": 4345,
      "ĠOakland": 4346,
      "Ġcomparison": 4347,
      "Ġinfrastructure": 4348,
      "ĠProfessor": 4349,
      "Ġpurpose": 4350,
      "Ġfully": 4351,
      "Ġmilitary": 4352,
      "Ġstakeholders": 4353,
      "Ġorientation": 4354,
      "ĠHughes": 4355,
      "Ġrandom": 4356,
      "ĠLewis": 4357,
      "acharias": 4358,
      "Ġappropriate": 4359,
      "ĠAlbemarle": 4360,
      "ĠAssembly": 4361,
      "47": 4362,
      "51": 4363,
      "?\"": 4364,
      "API": 4365,
      "Be": 4366,
      "Des": 4367,
      "EN": 4368,
      "Here": 4369,
      "Ind": 4370,
      "ION": 4371,
      "MS": 4372,
      "More": 4373,
      "March": 4374,
      "Many": 4375,
      "OR": 4376,
      "OS": 4377,
      "Ptosis": 4378,
      "See": 4379,
      "TP": 4380,
      "VN": 4381,
      "Want": 4382,
      "Write": 4383,
      "ael": 4384,
      "back": 4385,
      "book": 4386,
      "cre": 4387,
      "can": 4388,
      "col": 4389,
      "come": 4390,
      "cology": 4391,
      "craft": 4392,
      "dd": 4393,
      "dn": 4394,
      "down": 4395,
      "equ": 4396,
      "fl": 4397,
      "fall": 4398,
      "field": 4399,
      "fortunately": 4400,
      "gin": 4401,
      "gen": 4402,
      "hile": 4403,
      "ii": 4404,
      "iers": 4405,
      "iant": 4406,
      "just": 4407,
      "la": 4408,
      "li": 4409,
      "long": 4410,
      "mes": 4411,
      "making": 4412,
      "nold": 4413,
      "ox": 4414,
      "pin": 4415,
      "pan": 4416,
      "ped": 4417,
      "pot": 4418,
      "pass": 4419,
      "rich": 4420,
      "su": 4421,
      "tled": 4422,
      "ued": 4423,
      "uum": 4424,
      "wo": 4425,
      "ya": 4426,
      "yo": 4427,
      "yp": 4428,
      "ze": 4429,
      "zing": 4430,
      "Ġil": 4431,
      "Ġtal": 4432,
      "Ġtap": 4433,
      "Ġtaking": 4434,
      "Ġarom": 4435,
      "hent": 4436,
      "inic": 4437,
      "inst": 4438,
      "inate": 4439,
      "inant": 4440,
      "rew": 4441,
      "ati": 4442,
      "Ġsac": 4443,
      "Ġswe": 4444,
      "Ġsoci": 4445,
      "Ġsides": 4446,
      "Ġsessions": 4447,
      "onym": 4448,
      "enya": 4449,
      "ises": 4450,
      "ishes": 4451,
      "Ġcou": 4452,
      "Ġcities": 4453,
      "Ġcross": 4454,
      "Ġcogn": 4455,
      "Ġceleb": 4456,
      "Ġwest": 4457,
      "Ġwond": 4458,
      "Ġwave": 4459,
      "Ġwoman": 4460,
      "Ġwinter": 4461,
      "Ġwaters": 4462,
      "Ġwrong": 4463,
      "esides": 4464,
      "Ġphys": 4465,
      "orial": 4466,
      "orous": 4467,
      "itives": 4468,
      "itudes": 4469,
      "Ġanest": 4470,
      "Ġbound": 4471,
      "Ġbond": 4472,
      "Ġbacter": 4473,
      "Ġbiodiversity": 4474,
      "Ġfill": 4475,
      "Ġmud": 4476,
      "Ġmouse": 4477,
      "Ġmatter": 4478,
      "icip": 4479,
      "icates": 4480,
      "Ġdaily": 4481,
      "left": 4482,
      "roaking": 4483,
      "Ġthird": 4484,
      "Ġharm": 4485,
      "ctions": 4486,
      "ented": 4487,
      "Ġeat": 4488,
      "Ġrev": 4489,
      "Ġreform": 4490,
      "Ġreward": 4491,
      "Ġreaches": 4492,
      "ilos": 4493,
      "stag": 4494,
      "Ġlid": 4495,
      "Ġlib": 4496,
      "Ġlove": 4497,
      "Ġlived": 4498,
      "Ġlabor": 4499,
      "Ġlatter": 4500,
      "Ġlunch": 4501,
      "omach": 4502,
      "Ġnorm": 4503,
      "Ġnames": 4504,
      "Ġbeyond": 4505,
      "sequent": 4506,
      "ceeded": 4507,
      "Ġgases": 4508,
      "Ġgirl": 4509,
      "ĠTuc": 4510,
      "ĠTimes": 4511,
      "ĠTEEB": 4512,
      "uration": 4513,
      "urity": 4514,
      "idd": 4515,
      "iding": 4516,
      "idation": 4517,
      "iday": 4518,
      "idge": 4519,
      "olit": 4520,
      "ĠAb": 4521,
      "ĠApp": 4522,
      "otor": 4523,
      "Ġones": 4524,
      "Ġforget": 4525,
      "ĠIke": 4526,
      "ĠSol": 4527,
      "ĠSch": 4528,
      "ĠSince": 4529,
      "ĠSVN": 4530,
      "ĠCur": 4531,
      "ĠCra": 4532,
      "ĠCertain": 4533,
      "ĠCircus": 4534,
      "Ġul": 4535,
      "etal": 4536,
      "ether": 4537,
      "Ġstret": 4538,
      "ulated": 4539,
      "ulating": 4540,
      "ulner": 4541,
      "ulius": 4542,
      "Ġprof": 4543,
      "iform": 4544,
      "ĠMart": 4545,
      "ĠMult": 4546,
      "ĠMark": 4547,
      "ems": 4548,
      "ademic": 4549,
      "Ġconcept": 4550,
      "ĠBul": 4551,
      "ĠBledsoe": 4552,
      "ria": 4553,
      "riage": 4554,
      "ĠPS": 4555,
      "ĠPublic": 4556,
      "Ġaltern": 4557,
      "Ġheard": 4558,
      "osc": 4559,
      "osing": 4560,
      "Ġsus": 4561,
      "Ġsuitable": 4562,
      "Ġdeep": 4563,
      "ĠFrom": 4564,
      "ĠFall": 4565,
      "ĠFree": 4566,
      "ĠFair": 4567,
      "ĠFurther": 4568,
      "ĠHar": 4569,
      "Ġcomet": 4570,
      "que": 4571,
      "quence": 4572,
      "pped": 4573,
      "Ġrural": 4574,
      "abri": 4575,
      "abilities": 4576,
      "umber": 4577,
      "ĠEpo": 4578,
      "ĠEffect": 4579,
      "Ġvend": 4580,
      "Ġvast": 4581,
      "Ġvap": 4582,
      "Ġvulner": 4583,
      "âĢĻâĢĻ": 4584,
      "ĠRem": 4585,
      "ĠRad": 4586,
      "ĠRuss": 4587,
      "Ġchapter": 4588,
      "acc": 4589,
      "esta": 4590,
      "Ġ27": 4591,
      "ĠGre": 4592,
      "ĠGold": 4593,
      "ĠGarden": 4594,
      "ĠDar": 4595,
      "ĠDel": 4596,
      "ĠDivision": 4597,
      "Ġsea": 4598,
      "Ġsecession": 4599,
      "Ġselected": 4600,
      "ĠList": 4601,
      "ĠLord": 4602,
      "Ġsharing": 4603,
      "Ġshapes": 4604,
      "rous": 4605,
      "erely": 4606,
      "ĠNon": 4607,
      "ĠNot": 4608,
      "ague": 4609,
      "osted": 4610,
      "ĠJust": 4611,
      "ĠJulius": 4612,
      "ĠInf": 4613,
      "ĠOper": 4614,
      "ĠUp": 4615,
      "Ġencoura": 4616,
      "ruary": 4617,
      "Ġdisru": 4618,
      "Ġperman": 4619,
      "Ġperfect": 4620,
      "Ġcontex": 4621,
      "Ġcontaining": 4622,
      "Ġcontribut": 4623,
      "range": 4624,
      "Ġallowing": 4625,
      "ears": 4626,
      "osex": 4627,
      "ensity": 4628,
      "Ġprecis": 4629,
      "Ġpreced": 4630,
      "Ġdesalination": 4631,
      "Ġarter": 4632,
      "Ġunit": 4633,
      "Ġunits": 4634,
      "avi": 4635,
      "aving": 4636,
      "ultural": 4637,
      "Ġmeant": 4638,
      "ĠKenya": 4639,
      "ausea": 4640,
      "aken": 4641,
      "akers": 4642,
      "jects": 4643,
      "Ġ2002": 4644,
      "Ġ2005": 4645,
      "hyd": 4646,
      "Ġcommit": 4647,
      "Ġcommand": 4648,
      "Ġtraum": 4649,
      "cond": 4650,
      "Ġsaw": 4651,
      "rents": 4652,
      "angle": 4653,
      "Ġbeta": 4654,
      "ologies": 4655,
      "cript": 4656,
      "Ġspeech": 4657,
      "ermine": 4658,
      "ifications": 4659,
      "Ġattend": 4660,
      "Ġattached": 4661,
      "Ġattitudes": 4662,
      "Ġregist": 4663,
      "Ġrepel": 4664,
      "Ġconscious": 4665,
      "Ġcountries": 4666,
      "Ġoffice": 4667,
      "Ġadditives": 4668,
      "Ġelectric": 4669,
      "Ġ410": 4670,
      "issions": 4671,
      "Ġrefin": 4672,
      "Ġhelped": 4673,
      "Ġhelping": 4674,
      "Ġexamples": 4675,
      "ĠReg": 4676,
      "ĠVesta": 4677,
      "Ġcalls": 4678,
      "Ġindirect": 4679,
      "objective": 4680,
      "Ġexposed": 4681,
      "Ġexpression": 4682,
      "Ġlegit": 4683,
      "Ġplaying": 4684,
      "Ġprobability": 4685,
      "Ġparaff": 4686,
      "Ġassign": 4687,
      "exactly": 4688,
      "Ġsignatures": 4689,
      "Ġseries": 4690,
      "Ġlocations": 4691,
      "Ġdecade": 4692,
      "Ġdecades": 4693,
      "Ġremove": 4694,
      "Ġjustices": 4695,
      "Ġpractical": 4696,
      "ursitis": 4697,
      "ĠArnold": 4698,
      "ĠForce": 4699,
      "Ġdistribut": 4700,
      "Ġdistribution": 4701,
      "Ġhighly": 4702,
      "ditionally": 4703,
      "iction": 4704,
      "ĠIndigenous": 4705,
      "Ġseek": 4706,
      "Ġeditor": 4707,
      "Ġlisted": 4708,
      "ĠCalf": 4709,
      "Ġfrequency": 4710,
      "oids": 4711,
      "Ġfeatures": 4712,
      "Ġrestart": 4713,
      "Ġrestoration": 4714,
      "Ġgradu": 4715,
      "Ġplanning": 4716,
      "Ġplanned": 4717,
      "Ġlarger": 4718,
      "Ġaccompl": 4719,
      "Ġbackground": 4720,
      "ĠÂ©": 4721,
      "Ġoperation": 4722,
      "Ġchest": 4723,
      "Ġminority": 4724,
      "Ġdidn": 4725,
      "ribute": 4726,
      "Ġlessons": 4727,
      "ĠAdam": 4728,
      "Ġengaged": 4729,
      "Ġengaging": 4730,
      "Ġindustries": 4731,
      "Ġcargo": 4732,
      "Ġcarried": 4733,
      "Ġfoods": 4734,
      "ĠSee": 4735,
      "ĠSept": 4736,
      "Ġeconomy": 4737,
      "Ġreality": 4738,
      "Ġlooks": 4739,
      "Ġgiving": 4740,
      "Ġgreatly": 4741,
      "Ġprotection": 4742,
      "Ġcausing": 4743,
      "Ġruled": 4744,
      "Ġruling": 4745,
      "Ġopponents": 4746,
      "Ġopposite": 4747,
      "Ġschools": 4748,
      "ounc": 4749,
      "Ġconstruction": 4750,
      "ĠOctober": 4751,
      "Ġentire": 4752,
      "Ġentrance": 4753,
      "Ġtreatments": 4754,
      "Ġtraditionally": 4755,
      "Ġoccurred": 4756,
      "mann": 4757,
      "clus": 4758,
      "swer": 4759,
      "aska": 4760,
      "ĠIsrael": 4761,
      "Ġcontinuously": 4762,
      "Ġturns": 4763,
      "engue": 4764,
      "Ġharder": 4765,
      "ĠâĢĺâĢĺ": 4766,
      "Ġcommonly": 4767,
      "Ġrecently": 4768,
      "Ġprimarily": 4769,
      "ASCO": 4770,
      "Ġtopic": 4771,
      "Ġchanging": 4772,
      "Ġ187": 4773,
      "Ġhappens": 4774,
      "ĠEngineering": 4775,
      "Ġobservations": 4776,
      "Ġsignificantly": 4777,
      "Ġstandard": 4778,
      "Ġcontrolled": 4779,
      "Ġbooks": 4780,
      "Ġfalls": 4781,
      "Ġeyes": 4782,
      "Ġreceive": 4783,
      "Ġstarted": 4784,
      "Ġvacuum": 4785,
      "Ġeducational": 4786,
      "unting": 4787,
      "Ġillness": 4788,
      "Ġmixt": 4789,
      "Ġmixing": 4790,
      "ĠFlash": 4791,
      "Ġresearcher": 4792,
      "Ġbenefici": 4793,
      "Ġmoving": 4794,
      "pperberg": 4795,
      "Ġappears": 4796,
      "Another": 4797,
      "Answer": 4798,
      "Ġbats": 4799,
      "Ġdomain": 4800,
      "Ġacceptor": 4801,
      "Ġrecognize": 4802,
      "yright": 4803,
      "Ġtasks": 4804,
      "Ġboard": 4805,
      "Ġcombined": 4806,
      "Ġcombustion": 4807,
      "Ġdetermined": 4808,
      "Ġcharacteristics": 4809,
      "Ġwidely": 4810,
      "Ġlayers": 4811,
      "ĠSudanese": 4812,
      "Ġviol": 4813,
      "Ġapplies": 4814,
      "Ġreference": 4815,
      "Ġparent": 4816,
      "Ġdrilling": 4817,
      "ĠASL": 4818,
      "ĠASDs": 4819,
      "ĠServices": 4820,
      "ĠClimate": 4821,
      "ĠPepperberg": 4822,
      "ĠGoog": 4823,
      "Ġflowers": 4824,
      "Ġparticipants": 4825,
      "Ġphotos": 4826,
      "Ġaffects": 4827,
      "related": 4828,
      "itizen": 4829,
      "ĠEconomic": 4830,
      "Ġhypot": 4831,
      "Ġatmosphere": 4832,
      "ĠInternet": 4833,
      "Ġteaching": 4834,
      "Ġdeclared": 4835,
      "Ġcopyleft": 4836,
      "Ġanti": 4837,
      "Ġmolecular": 4838,
      "Ġhousehold": 4839,
      "Ġnuclear": 4840,
      "Ġvictory": 4841,
      "Ġgenet": 4842,
      "ĠBrazilian": 4843,
      "ĠGerman": 4844,
      "Ġsexual": 4845,
      "Ġinstalled": 4846,
      "Ġcorresponding": 4847,
      "Ġcycle": 4848,
      "Ġanimal": 4849,
      "Ġpoetry": 4850,
      "Ġassassination": 4851,
      "Ġincreasingly": 4852,
      "OTHE": 4853,
      "Ġturkeys": 4854,
      "Ġmouthwash": 4855,
      "Ġdramatic": 4856,
      "ĠKnowledge": 4857,
      "Ġtribes": 4858,
      "Ġfreighters": 4859,
      "Ġsleep": 4860,
      "Ġcalcul": 4861,
      "Ġdocument": 4862,
      "Ġlatest": 4863,
      "ĠFebruary": 4864,
      "Ġvoter": 4865,
      "ĠGalileo": 4866,
      "ĠGuidelines": 4867,
      "Ġslowly": 4868,
      "ĠQuarter": 4869,
      "Ġcustom": 4870,
      "Ġwoods": 4871,
      "Ġcontractors": 4872,
      "Electron": 4873,
      "iÃ±": 4874,
      "Ġdoubt": 4875,
      "Ġdangerous": 4876,
      "Ġliquid": 4877,
      "ĠConservation": 4878,
      "ĠHuman": 4879,
      "Ġvessels": 4880,
      "Ġvideo": 4881,
      "ĠDetermine": 4882,
      "Ġuniversals": 4883,
      "Ġmoderate": 4884,
      "Ġfreeway": 4885,
      "Ġsatellites": 4886,
      "Ġtherapeutic": 4887,
      "ĠâĨĳ": 4888,
      "Ġmiracle": 4889,
      "Ġthousands": 4890,
      "Ġnavig": 4891,
      "ĠDirector": 4892,
      "Ġworkshop": 4893,
      "Ġilleg": 4894,
      "henticated": 4895,
      "Ġbacteria": 4896,
      "stagland": 4897,
      "ĠRussia": 4898,
      "Ġpermanent": 4899,
      "Ġcontexts": 4900,
      "Ġbeneficiaries": 4901,
      "Ġhypothesis": 4902,
      "\",": 4903,
      "''": 4904,
      ")-": 4905,
      ");": 4906,
      ")?": 4907,
      "35": 4908,
      "41": 4909,
      "45": 4910,
      "67": 4911,
      "90": 4912,
      "After": 4913,
      "Americ": 4914,
      "BT": 4915,
      "CC": 4916,
      "Call": 4917,
      "Chap": 4918,
      "DD": 4919,
      "Do": 4920,
      "Eng": 4921,
      "Even": 4922,
      "From": 4923,
      "Good": 4924,
      "GION": 4925,
      "GBT": 4926,
      "LA": 4927,
      "Not": 4928,
      "Pe": 4929,
      "Res": 4930,
      "Read": 4931,
      "ST": 4932,
      "She": 4933,
      "TA": 4934,
      "UP": 4935,
      "Us": 4936,
      "].": 4937,
      "ares": 4938,
      "aired": 4939,
      "bilt": 4940,
      "cies": 4941,
      "cceeded": 4942,
      "dist": 4943,
      "eff": 4944,
      "eper": 4945,
      "fra": 4946,
      "fort": 4947,
      "face": 4948,
      "ford": 4949,
      "gn": 4950,
      "gic": 4951,
      "gress": 4952,
      "hand": 4953,
      "hman": 4954,
      "hma": 4955,
      "iate": 4956,
      "iable": 4957,
      "ivery": 4958,
      "iov": 4959,
      "kt": 4960,
      "kins": 4961,
      "lied": 4962,
      "lier": 4963,
      "load": 4964,
      "mat": 4965,
      "mers": 4966,
      "makers": 4967,
      "nel": 4968,
      "nov": 4969,
      "oe": 4970,
      "oo": 4971,
      "ois": 4972,
      "overs": 4973,
      "rone": 4974,
      "rative": 4975,
      "ses": 4976,
      "source": 4977,
      "tical": 4978,
      "then": 4979,
      "ux": 4980,
      "uff": 4981,
      "under": 4982,
      "ufact": 4983,
      "vant": 4984,
      "vents": 4985,
      "wl": 4986,
      "Ġi": 4987,
      "Ġions": 4988,
      "Ġtall": 4989,
      "Ġtree": 4990,
      "Ġtough": 4991,
      "Ġtropical": 4992,
      "hel": 4993,
      "hether": 4994,
      "inople": 4995,
      "inates": 4996,
      "reds": 4997,
      "eriatric": 4998,
      "att": 4999,
      "Ġsil": 5000,
      "Ġsink": 5001,
      "Ġsold": 5002,
      "Ġsulf": 5003,
      "eness": 5004,
      "Ġcore": 5005,
      "Ġcry": 5006,
      "Ġcrop": 5007,
      "Ġcert": 5008,
      "Ġcroaking": 5009,
      "Ġwin": 5010,
      "Ġwro": 5011,
      "Ġwish": 5012,
      "Ġwants": 5013,
      "Ġwestern": 5014,
      "Ġwait": 5015,
      "esh": 5016,
      "anical": 5017,
      "ania": 5018,
      "ancy": 5019,
      "Ġpure": 5020,
      "Ġpark": 5021,
      "Ġpages": 5022,
      "orge": 5023,
      "itch": 5024,
      "itors": 5025,
      "itutions": 5026,
      "Ġble": 5027,
      "Ġbillion": 5028,
      "Ġbites": 5029,
      "Ġborder": 5030,
      "Ġbrief": 5031,
      "aly": 5032,
      "alar": 5033,
      "ality": 5034,
      "alian": 5035,
      "Ġfit": 5036,
      "Ġfem": 5037,
      "Ġfever": 5038,
      "Ġfair": 5039,
      "Ġfonts": 5040,
      "Ġfresh": 5041,
      "inger": 5042,
      "ouri": 5043,
      "Ġinv": 5044,
      "Ġinner": 5045,
      "Ġinitial": 5046,
      "Ġmist": 5047,
      "Ġmag": 5048,
      "Ġmyst": 5049,
      "Ġmob": 5050,
      "Ġmission": 5051,
      "Ġmerely": 5052,
      "iced": 5053,
      "ario": 5054,
      "arium": 5055,
      "Ġdense": 5056,
      "Ġdied": 5057,
      "Ġdiversity": 5058,
      "Ġdivision": 5059,
      "leas": 5060,
      "lection": 5061,
      "ros": 5062,
      "road": 5063,
      "asma": 5064,
      "Ġthrow": 5065,
      "Ġhus": 5066,
      "Ġhund": 5067,
      "Ġhistor": 5068,
      "Ġeight": 5069,
      "Ġearth": 5070,
      "Ġrevolution": 5071,
      "Ġreached": 5072,
      "ilad": 5073,
      "ston": 5074,
      "stud": 5075,
      "stract": 5076,
      "Ġlens": 5077,
      "Ġlack": 5078,
      "Ġlob": 5079,
      "Ġlibrary": 5080,
      "omas": 5081,
      "sei": 5082,
      "Ġgall": 5083,
      "Ġgone": 5084,
      "Ġgather": 5085,
      "Ġgrown": 5086,
      "imb": 5087,
      "owered": 5088,
      "ĠTes": 5089,
      "ĠTop": 5090,
      "ĠTorah": 5091,
      "uries": 5092,
      "idi": 5093,
      "iders": 5094,
      "idier": 5095,
      "idges": 5096,
      "rack": 5097,
      "ols": 5098,
      "olly": 5099,
      "olds": 5100,
      "ĠAg": 5101,
      "ĠAv": 5102,
      "ĠAccess": 5103,
      "ĠArab": 5104,
      "oth": 5105,
      "Ġonto": 5106,
      "Ġonshore": 5107,
      "Ġforced": 5108,
      "Ġforward": 5109,
      "ĠSer": 5110,
      "ĠSil": 5111,
      "ĠSqu": 5112,
      "ĠSuch": 5113,
      "ĠSouthern": 5114,
      "ĠChe": 5115,
      "ĠCards": 5116,
      "eth": 5117,
      "Ġstun": 5118,
      "Ġstock": 5119,
      "Ġstraight": 5120,
      "Ġstomach": 5121,
      "uls": 5122,
      "ulations": 5123,
      "ulary": 5124,
      "ulates": 5125,
      "irby": 5126,
      "Ġyellow": 5127,
      "Ġasph": 5128,
      "Ġprostagland": 5129,
      "Ġorth": 5130,
      "ama": 5131,
      "amine": 5132,
      "amber": 5133,
      "amaged": 5134,
      "ifically": 5135,
      "ĠMe": 5136,
      "ĠMet": 5137,
      "ĠMaterial": 5138,
      "ĠMali": 5139,
      "elt": 5140,
      "elph": 5141,
      "ading": 5142,
      "oday": 5143,
      "ĠBall": 5144,
      "ĠBath": 5145,
      "ĠBowers": 5146,
      "rial": 5147,
      "nds": 5148,
      "ĠPa": 5149,
      "ĠPri": 5150,
      "ĠPac": 5151,
      "ĠProt": 5152,
      "ĠPhysical": 5153,
      "ĠPier": 5154,
      "ĠPropri": 5155,
      "opes": 5156,
      "ophy": 5157,
      "Ġalt": 5158,
      "Ġalone": 5159,
      "Ġalthough": 5160,
      "osen": 5161,
      "ositions": 5162,
      "Ġwealth": 5163,
      "Ġweather": 5164,
      "Ġsucceeded": 5165,
      "uses": 5166,
      "ushed": 5167,
      "ĠFre": 5168,
      "ĠFal": 5169,
      "ĠFac": 5170,
      "ĠFood": 5171,
      "ĠFederal": 5172,
      "ĠForest": 5173,
      "ĠHas": 5174,
      "ĠHad": 5175,
      "ĠHind": 5176,
      "ĠHIV": 5177,
      "Ġcomment": 5178,
      "Ġrational": 5179,
      "Ġritual": 5180,
      "orted": 5181,
      "rombo": 5182,
      "ĠEast": 5183,
      "ĠEco": 5184,
      "ĠWorld": 5185,
      "andria": 5186,
      "Ġvoids": 5187,
      "âĢĻ|": 5188,
      "Ġlev": 5189,
      "ĠRam": 5190,
      "Ġchart": 5191,
      "Ġchron": 5192,
      "Ġchosen": 5193,
      "ivine": 5194,
      "that": 5195,
      "Ġneck": 5196,
      "Ġnearly": 5197,
      "Ġ22": 5198,
      "allic": 5199,
      "ĠGust": 5200,
      "ĠGree": 5201,
      "Ġwasn": 5202,
      "ĠDra": 5203,
      "ĠDuring": 5204,
      "ĠDise": 5205,
      "Ġseat": 5206,
      "Ġseeds": 5207,
      "Ġselection": 5208,
      "antinople": 5209,
      "ured": 5210,
      "ĠLa": 5211,
      "ĠLin": 5212,
      "ĠLet": 5213,
      "ĠLASCO": 5214,
      "ĠLGBT": 5215,
      "ung": 5216,
      "Ġshowing": 5217,
      "Ġshatter": 5218,
      "Ġshoes": 5219,
      "arded": 5220,
      "pty": 5221,
      "They": 5222,
      "erey": 5223,
      "ĠNY": 5224,
      "ĠNik": 5225,
      "ĠNetwork": 5226,
      "Ġplot": 5227,
      "Ġplaced": 5228,
      "Ġplasma": 5229,
      "ager": 5230,
      "ially": 5231,
      "Ġkoseki": 5232,
      "iph": 5233,
      "Ġabilities": 5234,
      "ogging": 5235,
      "ogether": 5236,
      "ĠJew": 5237,
      "ĠOur": 5238,
      "ĠOut": 5239,
      "ĠOpen": 5240,
      "ĠObs": 5241,
      "ĠUse": 5242,
      "Ġencl": 5243,
      "Ġenemy": 5244,
      "Ġacademic": 5245,
      "Ġintense": 5246,
      "Ġada": 5247,
      "Ġadhes": 5248,
      "Ġadminist": 5249,
      "Ġadministration": 5250,
      "Ġadjust": 5251,
      "Ġresol": 5252,
      "Ġreserv": 5253,
      "Ġcontains": 5254,
      "Ġcompared": 5255,
      "Ġimplement": 5256,
      "Ġincor": 5257,
      "ĠThus": 5258,
      "ĠThink": 5259,
      "ĠThomas": 5260,
      "Ġclosed": 5261,
      "Ġcloser": 5262,
      "ensing": 5263,
      "ensive": 5264,
      "Ġprepar": 5265,
      "Ġdeskt": 5266,
      "aching": 5267,
      "aped": 5268,
      "Ġunion": 5269,
      "Ġunique": 5270,
      "Ġappe": 5271,
      "Ġappoint": 5272,
      "Ġproduces": 5273,
      "aceae": 5274,
      "ĠKe": 5275,
      "ĠKat": 5276,
      "Ġouter": 5277,
      "Ġoutput": 5278,
      "Ġ2000": 5279,
      "onscious": 5280,
      "ĠSte": 5281,
      "orders": 5282,
      "Ġparty": 5283,
      "Ġgoals": 5284,
      "Ġflash": 5285,
      "Ġtrade": 5286,
      "Ġago": 5287,
      "Ġagree": 5288,
      "Ġspread": 5289,
      "Ġspiders": 5290,
      "iana": 5291,
      "rence": 5292,
      "ishment": 5293,
      "Ġpoison": 5294,
      "Ġamnesia": 5295,
      "Ġspezz": 5296,
      "Ġmember": 5297,
      "Ġmemories": 5298,
      "ĠChina": 5299,
      "ĠChapter": 5300,
      "Ġblue": 5301,
      "Ġrock": 5302,
      "Ġmostly": 5303,
      "Ġrace": 5304,
      "Ġraise": 5305,
      "Ġrains": 5306,
      "Ġrapid": 5307,
      "Ġrelative": 5308,
      "Ġrelief": 5309,
      "Ġdescriptive": 5310,
      "Ġoffered": 5311,
      "hesia": 5312,
      "Ġscale": 5313,
      "Ġadding": 5314,
      "Ġelectricity": 5315,
      "Think": 5316,
      "Ġ48": 5317,
      "ĠRefere": 5318,
      "Ġemph": 5319,
      "Ġempty": 5320,
      "Ġsubs": 5321,
      "Ġsubsequent": 5322,
      "ĠVol": 5323,
      "ĠVir": 5324,
      "ĠVict": 5325,
      "Ġinstances": 5326,
      "Ġinstitutions": 5327,
      "obe": 5328,
      "rows": 5329,
      "Ġmodifications": 5330,
      "Ġpersu": 5331,
      "Ġpersons": 5332,
      "ittee": 5333,
      "Ġinfere": 5334,
      "Ġprobable": 5335,
      "Ġartificial": 5336,
      "example": 5337,
      "Ġsigns": 5338,
      "Ġtrium": 5339,
      "Ġtriple": 5340,
      "Ġtribe": 5341,
      "Ġdirectory": 5342,
      "Ġprice": 5343,
      "oyal": 5344,
      "Ġremark": 5345,
      "Ġremote": 5346,
      "Ġremained": 5347,
      "Ġ50": 5348,
      "ĠHeart": 5349,
      "Ġowner": 5350,
      "ĠArgent": 5351,
      "Ġinterview": 5352,
      "ĠAmericas": 5353,
      "ney": 5354,
      "Ġmyself": 5355,
      "Ġprocesses": 5356,
      "Ġthinks": 5357,
      "Ġdefenses": 5358,
      "Ġacquire": 5359,
      "Ġtransl": 5360,
      "Ġcooling": 5361,
      "Ġsupporting": 5362,
      "Ġsolid": 5363,
      "Ġsolutions": 5364,
      "Ġgraph": 5365,
      "ĠBefore": 5366,
      "Ġcapt": 5367,
      "ickness": 5368,
      "Ġeveryone": 5369,
      "Ġeveryday": 5370,
      "Ġprovider": 5371,
      "Ġelevation": 5372,
      "Ġapproved": 5373,
      "Ġapproaches": 5374,
      "Ġextract": 5375,
      "Ġfuels": 5376,
      "Ġgovernor": 5377,
      "Ġparticulars": 5378,
      "Ġ800": 5379,
      "Ġsurfaces": 5380,
      "ĠAdministration": 5381,
      "ĠAdobe": 5382,
      "Ġcorrect": 5383,
      "Ġbelieve": 5384,
      "ederate": 5385,
      "Ġbuilt": 5386,
      "ĠSea": 5387,
      "Ġphr": 5388,
      "Ġphilos": 5389,
      "Ġfinally": 5390,
      "Ġgreatest": 5391,
      "Ġ70": 5392,
      "Ġaffinity": 5393,
      "Ġpossess": 5394,
      "Ġforec": 5395,
      "Ġfocused": 5396,
      "Ġlimb": 5397,
      "Ġimmig": 5398,
      "Ġcapital": 5399,
      "Ġexplains": 5400,
      "Ġdevoted": 5401,
      "cosity": 5402,
      "Ġcocaine": 5403,
      "Ġeasy": 5404,
      "Ġclearly": 5405,
      "Ġdemand": 5406,
      "Ġdemands": 5407,
      "Ġdemocratic": 5408,
      "roduction": 5409,
      "Ġhardware": 5410,
      "Ġ1990": 5411,
      "ISM": 5412,
      "Ġskin": 5413,
      "Ġreduction": 5414,
      "Ġreduced": 5415,
      "Ġbehalf": 5416,
      "Ġconfig": 5417,
      "ĠEnter": 5418,
      "Ġvision": 5419,
      "Ġvisual": 5420,
      "Ġchanged": 5421,
      "Ġseemed": 5422,
      "Ġimproved": 5423,
      "Ġprior": 5424,
      "Ġviewed": 5425,
      "Ġobserving": 5426,
      "Ġidentity": 5427,
      "Ġauthority": 5428,
      "Ġauthorized": 5429,
      "Ġswelling": 5430,
      "ĠPhD": 5431,
      "ĠPhill": 5432,
      "ĠPhilad": 5433,
      "ĠUSB": 5434,
      "Ġbrown": 5435,
      "ĠWho": 5436,
      "Ġvalid": 5437,
      "Ġputting": 5438,
      "Ġanswers": 5439,
      "Ġinternal": 5440,
      "Ġstarting": 5441,
      "Ġproposition": 5442,
      "Ġconnected": 5443,
      "Ġkeeping": 5444,
      "Ġtypically": 5445,
      "Ġcircle": 5446,
      "Ġbasis": 5447,
      "Ġmixed": 5448,
      "ĠFlood": 5449,
      "Ġsecurity": 5450,
      "Ġadvant": 5451,
      "ĠZacharias": 5452,
      "Ġautom": 5453,
      "Ġauthenticated": 5454,
      "Ġsales": 5455,
      "Ġsalmon": 5456,
      "Ġanalysis": 5457,
      "Ġbiggest": 5458,
      "Ġdelay": 5459,
      "Ġdelivery": 5460,
      "Ġhomosex": 5461,
      "ĠConst": 5462,
      "Ġsuffer": 5463,
      "Ġsuffering": 5464,
      "Ġsufficient": 5465,
      "Ġnegot": 5466,
      "Ġnearby": 5467,
      "ĠStudies": 5468,
      "Ġresponses": 5469,
      "Ġresponsibility": 5470,
      "Ġpollution": 5471,
      "Ġaccepted": 5472,
      "Ġjoined": 5473,
      "Ġfunds": 5474,
      "grasses": 5475,
      "Ġtrust": 5476,
      "Ġbox": 5477,
      "Ġguide": 5478,
      "Ġchoose": 5479,
      "Ġinteresting": 5480,
      "Ġdetermines": 5481,
      "ipped": 5482,
      "Ġmarked": 5483,
      "Ġreviewed": 5484,
      "ĠAlexandria": 5485,
      "Ġregulated": 5486,
      "Ġdescribes": 5487,
      "Ġconcerned": 5488,
      "Ġroundabouts": 5489,
      "Expl": 5490,
      "Howard": 5491,
      "Ġurban": 5492,
      "letin": 5493,
      "ĠPeople": 5494,
      "Ġdegrad": 5495,
      "Ġparticipate": 5496,
      "Ġphotograph": 5497,
      "Ġreturned": 5498,
      "Ġsafely": 5499,
      "Ġconducted": 5500,
      "going": 5501,
      "Ġpainting": 5502,
      "Ġmurder": 5503,
      "Ġmurdered": 5504,
      "Ġhighest": 5505,
      "Ġrecommended": 5506,
      "Ġterrit": 5507,
      "Ġterrain": 5508,
      "Ġpictures": 5509,
      "ĠSpace": 5510,
      "Ġdefinitions": 5511,
      "Ġdetails": 5512,
      "Ġhappening": 5513,
      "ieth": 5514,
      "Ġliterary": 5515,
      "Ġliterature": 5516,
      "ĠPeriod": 5517,
      "ĠPerhaps": 5518,
      "Ġvictim": 5519,
      "Ġbecoming": 5520,
      "Ġexperiences": 5521,
      "Ġdiagnosis": 5522,
      "Ġradii": 5523,
      "Ġradiation": 5524,
      "Ġsyn": 5525,
      "Ġsenses": 5526,
      "Ġfruits": 5527,
      "Ġenhance": 5528,
      "Ġadopted": 5529,
      "Ġblocked": 5530,
      "Ġsuccessfully": 5531,
      "ference": 5532,
      "âĢĺ,": 5533,
      "ĠRepublic": 5534,
      "ĠGeographical": 5535,
      "ĠLangston": 5536,
      "Ġagreement": 5537,
      "Ġteachers": 5538,
      "Ġattempt": 5539,
      "Ġsubstances": 5540,
      "Ġprinciple": 5541,
      "Ġignition": 5542,
      "Ġturkey": 5543,
      "Ġdramatically": 5544,
      "Ġrepeated": 5545,
      "ĠLicensing": 5546,
      "Ġspeaker": 5547,
      "Ġexpanded": 5548,
      "Ġtribal": 5549,
      "Ġcoverage": 5550,
      "Ġfreighter": 5551,
      "Ġgeosc": 5552,
      "Ġgolden": 5553,
      "Ġstopped": 5554,
      "anderbilt": 5555,
      "ĠGlobal": 5556,
      "Ġmeaningful": 5557,
      "REGION": 5558,
      "habilit": 5559,
      "Ġcrucial": 5560,
      "Ġhoriz": 5561,
      "Ġearlier": 5562,
      "ĠSupreme": 5563,
      "Ġsteam": 5564,
      "Ġprotein": 5565,
      "Ġsummer": 5566,
      "Ġjudgment": 5567,
      "Ġcommissioners": 5568,
      "Ġspiritual": 5569,
      "Ġtwentieth": 5570,
      "Ġregularly": 5571,
      "Ġresponded": 5572,
      "Ġdefeat": 5573,
      "Ġelementary": 5574,
      "Ġlimitations": 5575,
      "Ġtruths": 5576,
      "ĠGovernor": 5577,
      "Ġmotivation": 5578,
      "Ġchallenges": 5579,
      "known": 5580,
      "×Ķ×": 5581,
      "Ġverb": 5582,
      "Ġtouch": 5583,
      "Ġboys": 5584,
      "Ġfibers": 5585,
      "Ġtower": 5586,
      "Ġdynam": 5587,
      "ĠAutism": 5588,
      "ĠMichael": 5589,
      "ĠHaydn": 5590,
      "thropo": 5591,
      "Ġspectrum": 5592,
      "config": 5593,
      "Ġexpansion": 5594,
      "Ġinterpret": 5595,
      "Ġbeliefs": 5596,
      "Ġcollaboration": 5597,
      "Ġvolunteers": 5598,
      "Ġaudio": 5599,
      "Ġsplit": 5600,
      "Ġbunchgrasses": 5601,
      "Ġmedium": 5602,
      "Ġmandaz": 5603,
      "Ġprocedure": 5604,
      "ĠBarrie": 5605,
      "ĠFederation": 5606,
      "Ġshielding": 5607,
      "Ġacceleration": 5608,
      "Ġperceived": 5609,
      "Ġcomprehensive": 5610,
      "Ġcredit": 5611,
      "Ġperspective": 5612,
      "ĠLegisl": 5613,
      "Ġstatistical": 5614,
      "Ġestimated": 5615,
      "Ġprinciples": 5616,
      "Ġrandomly": 5617,
      "pinions": 5618,
      "Ġsocietal": 5619,
      "onymous": 5620,
      "Ġcognitive": 5621,
      "Ġboundaries": 5622,
      "Ġnormally": 5623,
      "ĠTucson": 5624,
      "Ġult": 5625,
      "ĠBulletin": 5626,
      "ĠFurthermore": 5627,
      "ĠGolden": 5628,
      "Ġprecise": 5629,
      "Ġarteries": 5630,
      "Ġrefinery": 5631,
      "Ġlegitimate": 5632,
      "exactlyLocated": 5633,
      "ouncil": 5634,
      "ĠGoogle": 5635,
      "Ġillegal": 5636,
      "Chapter": 5637,
      "Ġwrote": 5638,
      "Ġlobes": 5639,
      "ĠSquare": 5640,
      "Ġasphalt": 5641,
      "ĠMaterials": 5642,
      "elphia": 5643,
      "ĠHindus": 5644,
      "Ġchronic": 5645,
      "ĠGustav": 5646,
      "ĠNikola": 5647,
      "Ġenclosed": 5648,
      "Ġdesktop": 5649,
      "Ġspezzati": 5650,
      "Ġemphas": 5651,
      "ĠPhiladelphia": 5652,
      "Ġgeoscience": 5653,
      "\":": 5654,
      "21": 5655,
      "32": 5656,
      "38": 5657,
      "48": 5658,
      "58": 5659,
      "65": 5660,
      "740": 5661,
      "89": 5662,
      "96": 5663,
      ":-": 5664,
      "And": 5665,
      "App": 5666,
      "Acre": 5667,
      "BC": 5668,
      "Bolivia": 5669,
      "CN": 5670,
      "Cl": 5671,
      "Com": 5672,
      "Cultural": 5673,
      "During": 5674,
      "Ele": 5675,
      "Free": 5676,
      "High": 5677,
      "Home": 5678,
      "Is": 5679,
      "Ion": 5680,
      "MO": 5681,
      "Mus": 5682,
      "New": 5683,
      "Of": 5684,
      "Over": 5685,
      "Other": 5686,
      "Per": 5687,
      "Peter": 5688,
      "Posted": 5689,
      "PTA": 5690,
      "RAN": 5691,
      "Spe": 5692,
      "Since": 5693,
      "TH": 5694,
      "TO": 5695,
      "Title": 5696,
      "While": 5697,
      "aith": 5698,
      "ault": 5699,
      "aile": 5700,
      "after": 5701,
      "aware": 5702,
      "bon": 5703,
      "bed": 5704,
      "bul": 5705,
      "ball": 5706,
      "bell": 5707,
      "body": 5708,
      "capes": 5709,
      "do": 5710,
      "dy": 5711,
      "fu": 5712,
      "from": 5713,
      "fonts": 5714,
      "gat": 5715,
      "grade": 5716,
      "how": 5717,
      "hol": 5718,
      "hang": 5719,
      "half": 5720,
      "iot": 5721,
      "iors": 5722,
      "ji": 5723,
      "ky": 5724,
      "kers": 5725,
      "kah": 5726,
      "last": 5727,
      "lides": 5728,
      "mis": 5729,
      "mar": 5730,
      "ners": 5731,
      "nology": 5732,
      "normal": 5733,
      "oard": 5734,
      "oices": 5735,
      "ocean": 5736,
      "pm": 5737,
      "pop": 5738,
      "phere": 5739,
      "patch": 5740,
      "person": 5741,
      "ris": 5742,
      "sim": 5743,
      "sol": 5744,
      "sper": 5745,
      "svn": 5746,
      "ule": 5747,
      "uction": 5748,
      "uck": 5749,
      "wh": 5750,
      "west": 5751,
      "word": 5752,
      "xic": 5753,
      "ximately": 5754,
      "zen": 5755,
      "Ġice": 5756,
      "Ġery": 5757,
      "Ġ×Ķ×": 5758,
      "Ġten": 5759,
      "Ġtet": 5760,
      "Ġtrou": 5761,
      "Ġtour": 5762,
      "Ġtau": 5763,
      "Ġtape": 5764,
      "Ġaw": 5765,
      "Ġaer": 5766,
      "Ġaqu": 5767,
      "heum": 5768,
      "hept": 5769,
      "inally": 5770,
      "inating": 5771,
      "inck": 5772,
      "reement": 5773,
      "rete": 5774,
      "regg": 5775,
      "Ġopinions": 5776,
      "ero": 5777,
      "eral": 5778,
      "eras": 5779,
      "atoid": 5780,
      "Ġsher": 5781,
      "Ġsect": 5782,
      "Ġsale": 5783,
      "Ġscript": 5784,
      "onia": 5785,
      "enis": 5786,
      "isa": 5787,
      "isk": 5788,
      "isy": 5789,
      "isition": 5790,
      "isces": 5791,
      "Ġcash": 5792,
      "Ġcatch": 5793,
      "Ġwww": 5794,
      "Ġwatch": 5795,
      "anz": 5796,
      "anuk": 5797,
      "ancing": 5798,
      "Ġped": 5799,
      "Ġpill": 5800,
      "Ġpun": 5801,
      "Ġpap": 5802,
      "Ġpound": 5803,
      "Ġpron": 5804,
      "Ġpick": 5805,
      "Ġports": 5806,
      "Ġpull": 5807,
      "Ġpowered": 5808,
      "Ġpushed": 5809,
      "oria": 5810,
      "ita": 5811,
      "ito": 5812,
      "itably": 5813,
      "Ġanch": 5814,
      "Ġanger": 5815,
      "Ġbow": 5816,
      "Ġbill": 5817,
      "Ġband": 5818,
      "Ġbag": 5819,
      "alle": 5820,
      "alouds": 5821,
      "Ġfat": 5822,
      "Ġfou": 5823,
      "Ġfly": 5824,
      "Ġfra": 5825,
      "Ġfab": 5826,
      "Ġfold": 5827,
      "Ġfeder": 5828,
      "Ġflex": 5829,
      "Ġfires": 5830,
      "Ġfellow": 5831,
      "Ġfriction": 5832,
      "ingu": 5833,
      "oul": 5834,
      "ouis": 5835,
      "oust": 5836,
      "Ġinse": 5837,
      "Ġinnov": 5838,
      "Ġmer": 5839,
      "Ġmil": 5840,
      "Ġmos": 5841,
      "Ġmort": 5842,
      "Ġmale": 5843,
      "Ġmedia": 5844,
      "ica": 5845,
      "Ġtold": 5846,
      "arn": 5847,
      "arin": 5848,
      "aran": 5849,
      "aration": 5850,
      "arction": 5851,
      "arious": 5852,
      "Ġdu": 5853,
      "Ġden": 5854,
      "Ġdut": 5855,
      "Ġdip": 5856,
      "Ġdoll": 5857,
      "Ġdrop": 5858,
      "Ġdedic": 5859,
      "Ġdengue": 5860,
      "rob": 5861,
      "rovers": 5862,
      "asy": 5863,
      "ascular": 5864,
      "Ġhate": 5865,
      "Ġhall": 5866,
      "Ġhope": 5867,
      "Ġhuge": 5868,
      "entinck": 5869,
      "Ġreverse": 5870,
      "ilroad": 5871,
      "ster": 5872,
      "stood": 5873,
      "stable": 5874,
      "stream": 5875,
      "Ġlo": 5876,
      "Ġlas": 5877,
      "Ġlosing": 5878,
      "Ġloyal": 5879,
      "ominant": 5880,
      "Ġnine": 5881,
      "Ġnight": 5882,
      "Ġnations": 5883,
      "Ġnerve": 5884,
      "Ġbear": 5885,
      "Ġbever": 5886,
      "sey": 5887,
      "Ġgro": 5888,
      "Ġgerm": 5889,
      "Ġgarden": 5890,
      "ĠTerm": 5891,
      "ĠTex": 5892,
      "ĠTrib": 5893,
      "ĠTHE": 5894,
      "ĠTwo": 5895,
      "urt": 5896,
      "urate": 5897,
      "urally": 5898,
      "idents": 5899,
      "idisc": 5900,
      "idji": 5901,
      "rac": 5902,
      "race": 5903,
      "rage": 5904,
      "ĠAN": 5905,
      "ĠAir": 5906,
      "ĠAff": 5907,
      "ĠAction": 5908,
      "ĠAgency": 5909,
      "ĠAUP": 5910,
      "otle": 5911,
      "iger": 5912,
      "igible": 5913,
      "ĠIts": 5914,
      "ĠIvan": 5915,
      "ĠSat": 5916,
      "ĠSen": 5917,
      "ĠSpe": 5918,
      "ĠSub": 5919,
      "ĠSedum": 5920,
      "ĠSTP": 5921,
      "ĠCall": 5922,
      "ĠCost": 5923,
      "ĠCap": 5924,
      "ĠCond": 5925,
      "ĠCateg": 5926,
      "ĠCDC": 5927,
      "eters": 5928,
      "ette": 5929,
      "vert": 5930,
      "Ġstance": 5931,
      "Ġstability": 5932,
      "Ġstructures": 5933,
      "Ġstrange": 5934,
      "Ġyrs": 5935,
      "Ġprove": 5936,
      "Ġorbit": 5937,
      "ament": 5938,
      "amily": 5939,
      "ameter": 5940,
      "iful": 5941,
      "ĠMem": 5942,
      "ĠMoss": 5943,
      "ĠMove": 5944,
      "ĠMov": 5945,
      "ĠMax": 5946,
      "ĠMeter": 5947,
      "ĠMON": 5948,
      "ĠMotor": 5949,
      "emidji": 5950,
      "elcome": 5951,
      "Ġwhate": 5952,
      "Ġconse": 5953,
      "Ġconcent": 5954,
      "Ġconven": 5955,
      "Ġconvey": 5956,
      "ods": 5957,
      "odes": 5958,
      "odox": 5959,
      "ĠBi": 5960,
      "ĠBat": 5961,
      "ĠBen": 5962,
      "ĠBan": 5963,
      "ĠBerm": 5964,
      "ĠBrown": 5965,
      "ĠBabb": 5966,
      "ĠBursitis": 5967,
      "ĠBBC": 5968,
      "ĠBentinck": 5969,
      "rian": 5970,
      "rietary": 5971,
      "ndered": 5972,
      "ĠPo": 5973,
      "ĠPain": 5974,
      "ĠPort": 5975,
      "ĠPart": 5976,
      "ĠPaint": 5977,
      "ĠPract": 5978,
      "ĠPolic": 5979,
      "ĠPiÃ±": 5980,
      "opp": 5981,
      "opyright": 5982,
      "Ġalle": 5983,
      "Ġaltered": 5984,
      "geant": 5985,
      "iest": 5986,
      "iestenberg": 5987,
      "Ġhemis": 5988,
      "ositive": 5989,
      "Ġwebs": 5990,
      "Ġsugar": 5991,
      "Ġexcess": 5992,
      "illary": 5993,
      "Ġ11": 5994,
      "usal": 5995,
      "esson": 5996,
      "Ġdeal": 5997,
      "Ġdeeds": 5998,
      "Ġdealing": 5999,
      "Ġdeeper": 6000,
      "Ġhaz": 6001,
      "istotle": 6002,
      "ĠFort": 6003,
      "ĠFine": 6004,
      "ĠFord": 6005,
      "ĠFish": 6006,
      "ĠFocus": 6007,
      "ĠFAS": 6008,
      "ĠFull": 6009,
      "ĠFund": 6010,
      "ĠFollowing": 6011,
      "ĠHy": 6012,
      "ĠHere": 6013,
      "ĠHaw": 6014,
      "ĠHarb": 6015,
      "ĠHistory": 6016,
      "ĠHigg": 6017,
      "ĠHospital": 6018,
      "Ġcomments": 6019,
      "quito": 6020,
      "Ġrat": 6021,
      "Ġrhy": 6022,
      "abs": 6023,
      "abulary": 6024,
      "keley": 6025,
      "ocard": 6026,
      "ocabulary": 6027,
      "ĠEp": 6028,
      "ĠEss": 6029,
      "ĠEner": 6030,
      "ĠECL": 6031,
      "ĠWil": 6032,
      "ĠWrit": 6033,
      "ĠWhether": 6034,
      "andin": 6035,
      "Ġvote": 6036,
      "Ġvibr": 6037,
      "uda": 6038,
      "Ġlect": 6039,
      "ĠRights": 6040,
      "ĠRober": 6041,
      "ĠRAN": 6042,
      "Ġchose": 6043,
      "Ġchains": 6044,
      "Ġchief": 6045,
      "Ġchann": 6046,
      "Ġchurch": 6047,
      "Ġchlor": 6048,
      "Ġchamber": 6049,
      "acqu": 6050,
      "ival": 6051,
      "thrit": 6052,
      "Ġ25": 6053,
      "ĠGM": 6054,
      "ĠGr": 6055,
      "ĠGay": 6056,
      "ĠGate": 6057,
      "ĠGreat": 6058,
      "ĠGroup": 6059,
      "ĠGabri": 6060,
      "ducts": 6061,
      "ĠDem": 6062,
      "ĠDist": 6063,
      "ĠDivine": 6064,
      "ĠDregg": 6065,
      "Ġsees": 6066,
      "Ġseed": 6067,
      "Ġseced": 6068,
      "Ġsearch": 6069,
      "Ġseven": 6070,
      "Ġsequence": 6071,
      "Ġnotes": 6072,
      "antine": 6073,
      "ĠLar": 6074,
      "ĠLad": 6075,
      "ĠLong": 6076,
      "ĠLiter": 6077,
      "ĠLabor": 6078,
      "ĠLouis": 6079,
      "Ġshif": 6080,
      "ptor": 6081,
      "erer": 6082,
      "enda": 6083,
      "endy": 6084,
      "ĠNations": 6085,
      "ĠNative": 6086,
      "ĠNove": 6087,
      "ĠNov": 6088,
      "ĠNever": 6089,
      "ĠNatural": 6090,
      "ĠNote": 6091,
      "ĠNext": 6092,
      "Ġplain": 6093,
      "agers": 6094,
      "agine": 6095,
      "Ġkn": 6096,
      "Ġken": 6097,
      "ipher": 6098,
      "ipedia": 6099,
      "ĠâĢĶ": 6100,
      "Ġabs": 6101,
      "ĠJack": 6102,
      "ĠJup": 6103,
      "ightly": 6104,
      "ĠOF": 6105,
      "ĠOates": 6106,
      "ĠOwl": 6107,
      "pert": 6108,
      "Ġmach": 6109,
      "Ġmapping": 6110,
      "Ġacres": 6111,
      "ruption": 6112,
      "Ġsoft": 6113,
      "Ġintell": 6114,
      "Ġadvent": 6115,
      "Ġperhaps": 6116,
      "Ġcontext": 6117,
      "Ġcontrab": 6118,
      "Ġcompl": 6119,
      "Ġcompany": 6120,
      "aste": 6121,
      "aux": 6122,
      "Ġimplic": 6123,
      "Ġimpair": 6124,
      "Ġincome": 6125,
      "Ġmanufact": 6126,
      "cessful": 6127,
      "ibly": 6128,
      "ibilities": 6129,
      "ibbe": 6130,
      "Ġ195": 6131,
      "Ġ1950": 6132,
      "Ġ1918": 6133,
      "Ġ1904": 6134,
      "rying": 6135,
      "ension": 6136,
      "Ġprefect": 6137,
      "assy": 6138,
      "Ġarthrit": 6139,
      "aphyl": 6140,
      "Ġunity": 6141,
      "Ġunpre": 6142,
      "Ġunless": 6143,
      "Ġuniform": 6144,
      "Ġknowing": 6145,
      "Ġapplying": 6146,
      "ultane": 6147,
      "Ġproducing": 6148,
      "ĠKirby": 6149,
      "akes": 6150,
      "Ġrecon": 6151,
      "Ġmaybe": 6152,
      "Ġworker": 6153,
      "ĠStu": 6154,
      "ĠStone": 6155,
      "ĠStructures": 6156,
      "Ġefficient": 6157,
      "Ġgoes": 6158,
      "Ġflowing": 6159,
      "Ġaging": 6160,
      "Ġagency": 6161,
      "Ġagenda": 6162,
      "Ġsports": 6163,
      "Ġspills": 6164,
      "Ġspider": 6165,
      "cont": 6166,
      "cision": 6167,
      "Ġque": 6168,
      "Ġquant": 6169,
      "Ġobj": 6170,
      "Ġobes": 6171,
      "ishops": 6172,
      "Ġupward": 6173,
      "orsed": 6174,
      "ologist": 6175,
      "Ġneeding": 6176,
      "Ġpole": 6177,
      "cribers": 6178,
      "Ġamounts": 6179,
      "Ġchildhood": 6180,
      "llent": 6181,
      "Ġtwice": 6182,
      "weight": 6183,
      "Ġblade": 6184,
      "Ġrepair": 6185,
      "Ġrooms": 6186,
      "Ġroof": 6187,
      "ieves": 6188,
      "lude": 6189,
      "Ġrare": 6190,
      "Ġraised": 6191,
      "Ġrailroad": 6192,
      "Ġ31": 6193,
      "Ġrelation": 6194,
      "ĠYet": 6195,
      "ĠYuk": 6196,
      "Ġoffices": 6197,
      "Ġsuppose": 6198,
      "cedented": 6199,
      "Ġsche": 6200,
      "ansonia": 6201,
      "Ġoverview": 6202,
      "Ġsurv": 6203,
      "Ġsurre": 6204,
      "Ġsurge": 6205,
      "Ġsurround": 6206,
      "Ġnovel": 6207,
      "Ġnoise": 6208,
      "Ġnoble": 6209,
      "forest": 6210,
      "Ġ41": 6211,
      "Ġ46": 6212,
      "Ġ47": 6213,
      "issipp": 6214,
      "Ġrefining": 6215,
      "Ġrefineries": 6216,
      "hene": 6217,
      "Ġexamine": 6218,
      "Ġemper": 6219,
      "phology": 6220,
      "Ġwhereas": 6221,
      "ĠVal": 6222,
      "ĠVot": 6223,
      "ĠVanderbilt": 6224,
      "Ġindeed": 6225,
      "Ġunderstood": 6226,
      "Ġcreation": 6227,
      "Ġmeters": 6228,
      "Ġmodify": 6229,
      "ĠAlaska": 6230,
      "cohol": 6231,
      "Ġassume": 6232,
      "Ġcolors": 6233,
      "Ġcolored": 6234,
      "Ġsimpl": 6235,
      "Ġformal": 6236,
      "Ġdecided": 6237,
      "Ġparticles": 6238,
      "Ġprone": 6239,
      "Ġremains": 6240,
      "Ġspecimens": 6241,
      "Ġspecifically": 6242,
      "archy": 6243,
      "Ġfinding": 6244,
      "ĠAristotle": 6245,
      "uccessful": 6246,
      "Ġinterse": 6247,
      "lands": 6248,
      "Ġdistill": 6249,
      "Ġdistant": 6250,
      "Ġreads": 6251,
      "Ġgeneration": 6252,
      "Ġgenerate": 6253,
      "ropolit": 6254,
      "Ġedges": 6255,
      "Ġtransm": 6256,
      "Ġcentre": 6257,
      "aharan": 6258,
      "shi": 6259,
      "Ġcoord": 6260,
      "Ġpersonnel": 6261,
      "ioactive": 6262,
      "Ġpresents": 6263,
      "Ġpresence": 6264,
      "Ġdetonation": 6265,
      "Ġfeature": 6266,
      "Ġrestore": 6267,
      "Ġgrazing": 6268,
      "Ġfoundation": 6269,
      "Ġcurrents": 6270,
      "Ġdonation": 6271,
      "ceptible": 6272,
      "ohan": 6273,
      "ohann": 6274,
      "ĠÂ±": 6275,
      "Ġoperational": 6276,
      "Ġoperators": 6277,
      "Ġelev": 6278,
      "Ġelection": 6279,
      "ĠAsia": 6280,
      "Ġstudying": 6281,
      "Ġcourses": 6282,
      "Ġstring": 6283,
      "Ġextent": 6284,
      "Ġextended": 6285,
      "Ġ80": 6286,
      "Ġslave": 6287,
      "Ġslightly": 6288,
      "Ġlesson": 6289,
      "Ġleaders": 6290,
      "Ġleadership": 6291,
      "Ġmeasuring": 6292,
      "axy": 6293,
      "axis": 6294,
      "Ġsaying": 6295,
      "Ġcori": 6296,
      "Ġcoron": 6297,
      "Ġbelieved": 6298,
      "Ġgrows": 6299,
      "Ġconsidering": 6300,
      "ukh": 6301,
      "Ġcarbon": 6302,
      "ĠSecession": 6303,
      "ĠProv": 6304,
      "Ġendorsed": 6305,
      "Ġrealize": 6306,
      "Ġlooked": 6307,
      "Ġgrew": 6308,
      "Ġfloods": 6309,
      "ĠYoung": 6310,
      "ĠScop": 6311,
      "Ġprotons": 6312,
      "Ġdepos": 6313,
      "Ġdepend": 6314,
      "Ġdepends": 6315,
      "Ġdepending": 6316,
      "Ġruns": 6317,
      "Ġinflamed": 6318,
      "Ġrulerships": 6319,
      "ĠLev": 6320,
      "ĠLehman": 6321,
      "Ġrecordings": 6322,
      "Ġobserve": 6323,
      "Ġlegislating": 6324,
      "Ġlegislators": 6325,
      "being": 6326,
      "Ġ71": 6327,
      "ĠCorb": 6328,
      "Ġconstitution": 6329,
      "ĠPlant": 6330,
      "ĠPlace": 6331,
      "pring": 6332,
      "Ġcaps": 6333,
      "Ġbright": 6334,
      "opathy": 6335,
      "Ġexplicit": 6336,
      "Ġmembranes": 6337,
      "force": 6338,
      "Ġtested": 6339,
      "Ġsatis": 6340,
      "Ġreturning": 6341,
      "ĠCenters": 6342,
      "Ġkeyboards": 6343,
      "Ġmusical": 6344,
      "Ġeastern": 6345,
      "Ġstatus": 6346,
      "Ġstatements": 6347,
      "Ġrises": 6348,
      "ĠExpl": 6349,
      "Ġpercentage": 6350,
      "Ġcontinuous": 6351,
      "Ġ1995": 6352,
      "Ġ1997": 6353,
      "Ġ1998": 6354,
      "Ġdifficulties": 6355,
      "Ġqualities": 6356,
      "Ġqualify": 6357,
      "Ġprime": 6358,
      "Ġbench": 6359,
      "Ġdiet": 6360,
      "Ġreducing": 6361,
      "Ġlandfall": 6362,
      "ĠAnn": 6363,
      "iginally": 6364,
      "Ġconfir": 6365,
      "Ġperiods": 6366,
      "Ġsymp": 6367,
      "Ġcertainly": 6368,
      "Ġpriv": 6369,
      "Ġletters": 6370,
      "Ġidentified": 6371,
      "itoring": 6372,
      "Ġstandards": 6373,
      "ĠFriday": 6374,
      "ĠUSS": 6375,
      "Ġbroke": 6376,
      "Ġgrounds": 6377,
      "Ġvalue": 6378,
      "ĠJohnson": 6379,
      "Ġutter": 6380,
      "Ġutilities": 6381,
      "Ġdestination": 6382,
      "Ġdestruction": 6383,
      "Ġpromising": 6384,
      "Ġproprietary": 6385,
      "Ġimpacted": 6386,
      "Ġcircular": 6387,
      "Ġportion": 6388,
      "Ġportions": 6389,
      "Ġportrait": 6390,
      "Ġbirds": 6391,
      "Ġoriginally": 6392,
      "ĠMedicaid": 6393,
      "Ġexistence": 6394,
      "Ġsecular": 6395,
      "Ġsecret": 6396,
      "Ġresulting": 6397,
      "Ġargue": 6398,
      "Ġmeasurement": 6399,
      "Ġbenefit": 6400,
      "ĠCaesarion": 6401,
      "Ġastron": 6402,
      "Ġasthma": 6403,
      "Ġbigger": 6404,
      "Ġmoves": 6405,
      "Ġproperly": 6406,
      "Ġconduction": 6407,
      "ĠEmma": 6408,
      "ĠStudy": 6409,
      "ĠChilean": 6410,
      "ĠXII": 6411,
      "Ġpots": 6412,
      "Ġinjuries": 6413,
      "Ġmaintaining": 6414,
      "Ġbegun": 6415,
      "Ġbegins": 6416,
      "ĠCohen": 6417,
      "ĠCaribbe": 6418,
      "ĠMaybe": 6419,
      "ĠBritain": 6420,
      "Ġrecognition": 6421,
      "Ġjoin": 6422,
      "Ġaddresses": 6423,
      "Ġmethodologies": 6424,
      "Ġfunded": 6425,
      "Ġguess": 6426,
      "ĠMorales": 6427,
      "ĠMarx": 6428,
      "Ġchoirs": 6429,
      "Ġintroduce": 6430,
      "Ġintroduction": 6431,
      "Ġintroduced": 6432,
      "Ġintroducing": 6433,
      "Ġinterested": 6434,
      "ployed": 6435,
      "Ġscientist": 6436,
      "Ġcolorful": 6437,
      "Ġdetermine": 6438,
      "Ġavailability": 6439,
      "Ġinfluences": 6440,
      "Ġfriend": 6441,
      "Ġmarried": 6442,
      "Ġmarriage": 6443,
      "Ġrelevant": 6444,
      "Ġreviewboard": 6445,
      "ĠTechnology": 6446,
      "Ġregulatory": 6447,
      "Ġengineering": 6448,
      "Although": 6449,
      "Example": 6450,
      "Examples": 6451,
      "Ġ''": 6452,
      "Ġtendons": 6453,
      "Ġtools": 6454,
      "Ġdrawing": 6455,
      "ĠASD": 6456,
      "Ġpathology": 6457,
      "Ġtraveled": 6458,
      "Ġspacecraft": 6459,
      "Ġphoto": 6460,
      "Ġconductive": 6461,
      "ĠBloom": 6462,
      "ĠOffice": 6463,
      "Ġmotion": 6464,
      "Ġmisses": 6465,
      "Ġmissing": 6466,
      "Ġstrengthen": 6467,
      "ĠChris": 6468,
      "ecut": 6469,
      "ietin": 6470,
      "Ġawareness": 6471,
      "Ġbanana": 6472,
      "armac": 6473,
      "ĠControl": 6474,
      "ĠMinor": 6475,
      "ĠMinistry": 6476,
      "Ġsuggests": 6477,
      "Ġvirus": 6478,
      "ĠReading": 6479,
      "ĠReadWrite": 6480,
      "Ġreasoning": 6481,
      "Ġimmediate": 6482,
      "Ġsustainability": 6483,
      "chewing": 6484,
      "Ġsynt": 6485,
      "Ġcutting": 6486,
      "Ġfruit": 6487,
      "Ġfrust": 6488,
      "Ġholding": 6489,
      "Ġreactions": 6490,
      "Ġgyratories": 6491,
      "Ġ1970": 6492,
      "Ġtracking": 6493,
      "Ġreligious": 6494,
      "Ġprogressive": 6495,
      "Only": 6496,
      "election": 6497,
      "metals": 6498,
      "Ġachieved": 6499,
      "Ġpaying": 6500,
      "Ġfrontal": 6501,
      "Ġfrontline": 6502,
      "Ġ1969": 6503,
      "Ġpoetic": 6504,
      "Ġattempts": 6505,
      "Ġsubstance": 6506,
      "IDS": 6507,
      "ikipedia": 6508,
      "Ġerr": 6509,
      "Ġancest": 6510,
      "Ġancient": 6511,
      "Ġangle": 6512,
      "Ġannual": 6513,
      "Ġfigures": 6514,
      "Ġfixes": 6515,
      "Ġfixed": 6516,
      "Ġmounted": 6517,
      "iliar": 6518,
      "iliation": 6519,
      "semble": 6520,
      "Ġundamaged": 6521,
      "ĠWorks": 6522,
      "ĠLicense": 6523,
      "Ġattacks": 6524,
      "Ġconsumer": 6525,
      "Ġinstructions": 6526,
      "Ġshells": 6527,
      "Ġbeginning": 6528,
      "INT": 6529,
      "Ġdocuments": 6530,
      "ĠBerkeley": 6531,
      "Ġexcellent": 6532,
      "Ġvoters": 6533,
      "ĠGuidance": 6534,
      "Ġconsistent": 6535,
      "1928": 6536,
      "Ġfollowed": 6537,
      "Ġsuggested": 6538,
      "Ġaims": 6539,
      "Ġoptim": 6540,
      "Ġfailed": 6541,
      "Ġinvestment": 6542,
      "Ġmuting": 6543,
      "Ġdrooping": 6544,
      "Ġdropped": 6545,
      "Ġproteins": 6546,
      "ĠMiller": 6547,
      "ĠBotanical": 6548,
      "ĠHighway": 6549,
      "ĠWildlife": 6550,
      "ĠGuide": 6551,
      "Ġfluids": 6552,
      "Ġobtained": 6553,
      "Ġtwenty": 6554,
      "Ġscenes": 6555,
      "Ġdefeated": 6556,
      "Ġutilizing": 6557,
      "ĠGovernment": 6558,
      "Ġchallenging": 6559,
      "burg": 6560,
      "burgh": 6561,
      "Ġcamera": 6562,
      "Ġcameras": 6563,
      "Ġcategories": 6564,
      "Ġpursue": 6565,
      "itzv": 6566,
      "Ġbreathing": 6567,
      "Ġfighting": 6568,
      "Ġstreet": 6569,
      "ĠMississipp": 6570,
      "ĠPennsylvania": 6571,
      "ĠPennsylvanians": 6572,
      "Ġexhibited": 6573,
      "Ġ1936": 6574,
      "Ġshelter": 6575,
      "ĠFrankish": 6576,
      "ĠScientific": 6577,
      "ĠIslamic": 6578,
      "Ġdemonstrated": 6579,
      "Ġpurchase": 6580,
      "Ġvirtually": 6581,
      "OLY": 6582,
      "generation": 6583,
      "haust": 6584,
      "Ġirrit": 6585,
      "Ġprices": 6586,
      "Ġmatters": 6587,
      "Ġhonor": 6588,
      "Ġharvest": 6589,
      "Ġepis": 6590,
      "Ġguidance": 6591,
      "ĠMonterey": 6592,
      "ĠPrevention": 6593,
      "ĠPatients": 6594,
      "ĠPhysic": 6595,
      "Ġdisplay": 6596,
      "Ġpartnership": 6597,
      "Ġevolution": 6598,
      "Ġembassy": 6599,
      "Ġassistance": 6600,
      "Ġinteractions": 6601,
      "Ġminimal": 6602,
      "ĠDevelopmental": 6603,
      "Ġconflict": 6604,
      "ĠConfederate": 6605,
      "Ġdrinking": 6606,
      "Ġhydro": 6607,
      "Ġadoption": 6608,
      "Ġprecincts": 6609,
      "Ġneighborhoods": 6610,
      "Despite": 6611,
      "books": 6612,
      "Ġcelebrate": 6613,
      "Ġwonder": 6614,
      "Ġanesthesia": 6615,
      "ĠCertainly": 6616,
      "Ġsusceptible": 6617,
      "Ġvendor": 6618,
      "Ġvapor": 6619,
      "Ġvulnerable": 6620,
      "ĠOperations": 6621,
      "Ġencouraged": 6622,
      "Ġdisruptions": 6623,
      "ĠRegional": 6624,
      "Ġassigned": 6625,
      "ictionary": 6626,
      "Ġrestarting": 6627,
      "Ġaccomplished": 6628,
      "ĠSeptember": 6629,
      "OTHEISM": 6630,
      "Ġcalculated": 6631,
      "American": 6632,
      "DDM": 6633,
      "Sheldrake": 6634,
      "Using": 6635,
      "efferson": 6636,
      "iovascular": 6637,
      "Ġcryst": 6638,
      "Ġcrops": 6639,
      "Ġcertified": 6640,
      "Ġbleeding": 6641,
      "Ġhusb": 6642,
      "Ġhundreds": 6643,
      "Ġhistorical": 6644,
      "idieri": 6645,
      "ĠAgreement": 6646,
      "Ġprostaglandin": 6647,
      "Ġorthodox": 6648,
      "ĠBallot": 6649,
      "ĠPacific": 6650,
      "ĠProtect": 6651,
      "romboly": 6652,
      "Ġlevator": 6653,
      "ĠDisease": 6654,
      "ĠObserver": 6655,
      "Ġreserved": 6656,
      "Ġincorpor": 6657,
      "Ġappointed": 6658,
      "ĠKeep": 6659,
      "Ġrapidly": 6660,
      "ĠReferendum": 6661,
      "ĠVictoria": 6662,
      "Ġremarkable": 6663,
      "ĠArgentina": 6664,
      "Ġphrase": 6665,
      "Ġphilosophy": 6666,
      "ĠEnterprise": 6667,
      "ĠPhillips": 6668,
      "Ġadvantage": 6669,
      "Ġhomosexuals": 6670,
      "Ġvictims": 6671,
      "habilitation": 6672,
      "Ġhorizont": 6673,
      "thropoietin": 6674,
      "Ġultimately": 6675,
      "Elevation": 6676,
      "ailey": 6677,
      "gativity": 6678,
      "heumatoid": 6679,
      "Ġsheriff": 6680,
      "anukkah": 6681,
      "Ġpounds": 6682,
      "Ġfouling": 6683,
      "Ġinsects": 6684,
      "Ġinnovative": 6685,
      "Ġmosquito": 6686,
      "ĠTexas": 6687,
      "ĠTribe": 6688,
      "ĠConditions": 6689,
      "ĠMONOTHEISM": 6690,
      "Ġwhatever": 6691,
      "ĠBabbitt": 6692,
      "ĠPiÃ±era": 6693,
      "Ġhemisphere": 6694,
      "ĠHawai": 6695,
      "ĠHiggins": 6696,
      "ocardial": 6697,
      "ĠEnergy": 6698,
      "Ġchannel": 6699,
      "ĠDreggers": 6700,
      "ĠLiterature": 6701,
      "ĠNovember": 6702,
      "ĠJupiter": 6703,
      "Ġcontraband": 6704,
      "Ġprefecture": 6705,
      "Ġarthritis": 6706,
      "aphylaxis": 6707,
      "Ġunprecedented": 6708,
      "ĠYukon": 6709,
      "ropolitan": 6710,
      "ĠCaribbean": 6711,
      "ĠReadWriteThink": 6712,
      "ĠMississippi": 6713,
      ")(": 6714,
      ",âĢĶ": 6715,
      ".*": 6716,
      ".;": 6717,
      ".).": 6718,
      "02": 6719,
      "05": 6720,
      "06": 6721,
      "31": 6722,
      "66": 6723,
      "69": 6724,
      "86": 6725,
      "88": 6726,
      "800": 6727,
      ">.": 6728,
      "??": 6729,
      "AL": 6730,
      "AT": 6731,
      "Ab": 6732,
      "Act": 6733,
      "All": 6734,
      "AHA": 6735,
      "APTA": 6736,
      "BM": 6737,
      "Bl": 6738,
      "Bre": 6739,
      "Bot": 6740,
      "Bec": 6741,
      "Building": 6742,
      "Con": 6743,
      "Cor": 6744,
      "Cal": 6745,
      "Cle": 6746,
      "Cur": 6747,
      "Const": 6748,
      "Copyright": 6749,
      "DA": 6750,
      "Dr": 6751,
      "Dep": 6752,
      "Dream": 6753,
      "David": 6754,
      "EM": 6755,
      "EV": 6756,
      "Following": 6757,
      "His": 6758,
      "Hailey": 6759,
      "IO": 6760,
      "IT": 6761,
      "Int": 6762,
      "Jane": 6763,
      "James": 6764,
      "Kromko": 6765,
      "LR": 6766,
      "Lear": 6767,
      "My": 6768,
      "Met": 6769,
      "May": 6770,
      "Mem": 6771,
      "Mode": 6772,
      "Marine": 6773,
      "NT": 6774,
      "Nausea": 6775,
      "OI": 6776,
      "Or": 6777,
      "Once": 6778,
      "PL": 6779,
      "Ph": 6780,
      "Power": 6781,
      "RC": 6782,
      "Ref": 6783,
      "SS": 6784,
      "SU": 6785,
      "Sc": 6786,
      "Sh": 6787,
      "Sm": 6788,
      "Saint": 6789,
      "Source": 6790,
      "SOHO": 6791,
      "Saharan": 6792,
      "TC": 6793,
      "TF": 6794,
      "TM": 6795,
      "THE": 6796,
      "Tiny": 6797,
      "TEEB": 6798,
      "ULA": 6799,
      "UCN": 6800,
      "Well": 6801,
      "Why": 6802,
      "Where": 6803,
      "WTF": 6804,
      "Your": 6805,
      "aic": 6806,
      "auth": 6807,
      "br": 6808,
      "bal": 6809,
      "bing": 6810,
      "bst": 6811,
      "bels": 6812,
      "cod": 6813,
      "cort": 6814,
      "care": 6815,
      "chen": 6816,
      "crop": 6817,
      "coun": 6818,
      "caf": 6819,
      "ciliation": 6820,
      "dle": 6821,
      "dri": 6822,
      "date": 6823,
      "direct": 6824,
      "eg": 6825,
      "elect": 6826,
      "fs": 6827,
      "fly": 6828,
      "fac": 6829,
      "father": 6830,
      "fires": 6831,
      "front": 6832,
      "filled": 6833,
      "gative": 6834,
      "gov": 6835,
      "grow": 6836,
      "gave": 6837,
      "hi": 6838,
      "hu": 6839,
      "hil": 6840,
      "high": 6841,
      "hlet": 6842,
      "iar": 6843,
      "iance": 6844,
      "iki": 6845,
      "je": 6846,
      "lom": 6847,
      "list": 6848,
      "lled": 6849,
      "lines": 6850,
      "lusion": 6851,
      "my": 6852,
      "mit": 6853,
      "mus": 6854,
      "mist": 6855,
      "mond": 6856,
      "mistry": 6857,
      "mitting": 6858,
      "nn": 6859,
      "non": 6860,
      "nut": 6861,
      "nect": 6862,
      "number": 6863,
      "octane": 6864,
      "olecular": 6865,
      "post": 6866,
      "pie": 6867,
      "prot": 6868,
      "pection": 6869,
      "position": 6870,
      "rd": 6871,
      "rist": 6872,
      "rant": 6873,
      "right": 6874,
      "rition": 6875,
      "rary": 6876,
      "sk": 6877,
      "she": 6878,
      "sur": 6879,
      "site": 6880,
      "town": 6881,
      "telling": 6882,
      "time": 6883,
      "trade": 6884,
      "uan": 6885,
      "uit": 6886,
      "uet": 6887,
      "uay": 6888,
      "ugh": 6889,
      "urolog": 6890,
      "vis": 6891,
      "wr": 6892,
      "with": 6893,
      "when": 6894,
      "xide": 6895,
      "yle": 6896,
      "za": 6897,
      "zaw": 6898,
      "¢×": 6899,
      "Ġ*": 6900,
      "Ġ<": 6901,
      "Ġic": 6902,
      "Ġid": 6903,
      "ĠâĢĻ": 6904,
      "Ġtor": 6905,
      "Ġtab": 6906,
      "Ġtum": 6907,
      "Ġtons": 6908,
      "Ġtub": 6909,
      "Ġtips": 6910,
      "Ġtelling": 6911,
      "Ġtiny": 6912,
      "Ġax": 6913,
      "Ġaug": 6914,
      "Ġapart": 6915,
      "Ġahead": 6916,
      "Ġafra": 6917,
      "heast": 6918,
      "inf": 6919,
      "inical": 6920,
      "intern": 6921,
      "inars": 6922,
      "inner": 6923,
      "inzen": 6924,
      "rees": 6925,
      "Ġod": 6926,
      "Ġot": 6927,
      "Ġoak": 6928,
      "Ġoption": 6929,
      "Ġothe": 6930,
      "Ġoven": 6931,
      "Ġovate": 6932,
      "Ġtheat": 6933,
      "eration": 6934,
      "erts": 6935,
      "eria": 6936,
      "erland": 6937,
      "atist": 6938,
      "atab": 6939,
      "atility": 6940,
      "Ġsin": 6941,
      "Ġsan": 6942,
      "Ġsed": 6943,
      "Ġsut": 6944,
      "Ġsul": 6945,
      "Ġsess": 6946,
      "Ġsnow": 6947,
      "Ġsav": 6948,
      "Ġselling": 6949,
      "Ġsister": 6950,
      "Ġsedum": 6951,
      "Ġsickness": 6952,
      "onal": 6953,
      "ening": 6954,
      "isher": 6955,
      "isite": 6956,
      "Ġcow": 6957,
      "Ġcass": 6958,
      "Ġcub": 6959,
      "Ġcold": 6960,
      "Ġcorn": 6961,
      "Ġcited": 6962,
      "Ġcrown": 6963,
      "Ġcounts": 6964,
      "Ġwal": 6965,
      "Ġwire": 6966,
      "Ġworth": 6967,
      "Ġwaves": 6968,
      "Ġwiring": 6969,
      "Ġwelcome": 6970,
      "esus": 6971,
      "aning": 6972,
      "anation": 6973,
      "aniel": 6974,
      "anium": 6975,
      "anche": 6976,
      "Ġphen": 6977,
      "Ġpair": 6978,
      "Ġpump": 6979,
      "orid": 6980,
      "orig": 6981,
      "orious": 6982,
      "orway": 6983,
      "itu": 6984,
      "itation": 6985,
      "itam": 6986,
      "itter": 6987,
      "itect": 6988,
      "itative": 6989,
      "ednes": 6990,
      "Ġanonymous": 6991,
      "Ġanaphylaxis": 6992,
      "Ġbur": 6993,
      "Ġbra": 6994,
      "Ġbod": 6995,
      "Ġbab": 6996,
      "Ġbru": 6997,
      "Ġbric": 6998,
      "Ġbread": 6999,
      "Ġbesides": 7000,
      "Ġbishops": 7001,
      "alog": 7002,
      "alace": 7003,
      "aloud": 7004,
      "Ġfir": 7005,
      "Ġfif": 7006,
      "Ġfant": 7007,
      "Ġfine": 7008,
      "Ġfell": 7009,
      "Ġfibr": 7010,
      "Ġfiring": 7011,
      "Ġfought": 7012,
      "Ġfinger": 7013,
      "Ġfelt": 7014,
      "ouram": 7015,
      "ounce": 7016,
      "Ġinch": 7017,
      "Ġinher": 7018,
      "Ġinform": 7019,
      "Ġinvent": 7020,
      "Ġinhib": 7021,
      "Ġinput": 7022,
      "Ġmill": 7023,
      "Ġmart": 7024,
      "Ġmast": 7025,
      "Ġmatch": 7026,
      "Ġmason": 7027,
      "Ġmaster": 7028,
      "icing": 7029,
      "icide": 7030,
      "Ġtoment": 7031,
      "Ġtoxic": 7032,
      "arah": 7033,
      "Ġdie": 7034,
      "Ġdio": 7035,
      "Ġdream": 7036,
      "Ġdrew": 7037,
      "ione": 7038,
      "lely": 7039,
      "leet": 7040,
      "lets": 7041,
      "level": 7042,
      "leys": 7043,
      "leading": 7044,
      "roat": 7045,
      "rove": 7046,
      "roots": 7047,
      "astern": 7048,
      "assey": 7049,
      "Ġhun": 7050,
      "Ġhint": 7051,
      "Ġharb": 7052,
      "Ġhired": 7053,
      "Ġhospital": 7054,
      "ctory": 7055,
      "ctors": 7056,
      "Ġease": 7057,
      "Ġeating": 7058,
      "Ġecho": 7059,
      "Ġepid": 7060,
      "Ġreass": 7061,
      "Ġrenew": 7062,
      "Ġrehabilitation": 7063,
      "ilarly": 7064,
      "step": 7065,
      "struct": 7066,
      "steps": 7067,
      "Ġlose": 7068,
      "omy": 7069,
      "omic": 7070,
      "Ġnect": 7071,
      "Ġnights": 7072,
      "Ġnetwork": 7073,
      "lyn": 7074,
      "Ġiso": 7075,
      "Ġisol": 7076,
      "Ġisland": 7077,
      "Ġbee": 7078,
      "Ġbeam": 7079,
      "Ġbeans": 7080,
      "Ġbeaut": 7081,
      "ception": 7082,
      "ceae": 7083,
      "Ġgal": 7084,
      "Ġgest": 7085,
      "Ġgard": 7086,
      "Ġgap": 7087,
      "Ġgames": 7088,
      "Ġgene": 7089,
      "Ġgait": 7090,
      "Ġgathe": 7091,
      "Ġgouram": 7092,
      "iment": 7093,
      "iments": 7094,
      "ĠTag": 7095,
      "ĠTru": 7096,
      "ĠTob": 7097,
      "ĠTake": 7098,
      "ĠTues": 7099,
      "ĠTask": 7100,
      "ĠTurke": 7101,
      "ĠTyp": 7102,
      "ĠToday": 7103,
      "ĠTisa": 7104,
      "ĠTanz": 7105,
      "urass": 7106,
      "urred": 7107,
      "rav": 7108,
      "raged": 7109,
      "utron": 7110,
      "oles": 7111,
      "olks": 7112,
      "olamine": 7113,
      "ĠAma": 7114,
      "ĠACC": 7115,
      "ota": 7116,
      "othe": 7117,
      "otten": 7118,
      "Ġongoing": 7119,
      "Ġforth": 7120,
      "igan": 7121,
      "igation": 7122,
      "igator": 7123,
      "igorous": 7124,
      "chap": 7125,
      "ĠIS": 7126,
      "ĠIV": 7127,
      "ĠId": 7128,
      "ĠIde": 7129,
      "ĠIUCN": 7130,
      "ĠSl": 7131,
      "ĠSm": 7132,
      "ĠSon": 7133,
      "ĠSal": 7134,
      "ĠSem": 7135,
      "ĠSel": 7136,
      "ĠSant": 7137,
      "ĠSun": 7138,
      "ĠSaint": 7139,
      "ĠScho": 7140,
      "ĠSoci": 7141,
      "ĠSomet": 7142,
      "ĠSource": 7143,
      "ĠSelf": 7144,
      "ĠSpect": 7145,
      "ĠSessions": 7146,
      "ĠSarah": 7147,
      "ĠCut": 7148,
      "ĠCab": 7149,
      "ĠCare": 7150,
      "ĠColl": 7151,
      "ĠChes": 7152,
      "ĠCross": 7153,
      "ĠCavi": 7154,
      "ĠCitizen": 7155,
      "ĠCouncil": 7156,
      "etic": 7157,
      "etors": 7158,
      "verning": 7159,
      "Ġstor": 7160,
      "Ġstay": 7161,
      "Ġstore": 7162,
      "Ġstip": 7163,
      "Ġstru": 7164,
      "Ġstew": 7165,
      "Ġstress": 7166,
      "Ġstick": 7167,
      "Ġstaged": 7168,
      "Ġstead": 7169,
      "Ġstrict": 7170,
      "Ġstrugg": 7171,
      "Ġstream": 7172,
      "Ġstaff": 7173,
      "ula": 7174,
      "uled": 7175,
      "ulerships": 7176,
      "irty": 7177,
      "Ġasking": 7178,
      "Ġproce": 7179,
      "Ġpromin": 7180,
      "Ġprosper": 7181,
      "Ġord": 7182,
      "amb": 7183,
      "amide": 7184,
      "ĠMel": 7185,
      "ĠMount": 7186,
      "ĠMass": 7187,
      "ĠMission": 7188,
      "ĠMumb": 7189,
      "ĠMHA": 7190,
      "ĠMMS": 7191,
      "ĠMassey": 7192,
      "empl": 7193,
      "employed": 7194,
      "elp": 7195,
      "adult": 7196,
      "Ġaren": 7197,
      "Ġconv": 7198,
      "Ġconvent": 7199,
      "Ġcongest": 7200,
      "Ġcongen": 7201,
      "Ġyouth": 7202,
      "ĠBC": 7203,
      "ĠBon": 7204,
      "ĠBir": 7205,
      "ĠBel": 7206,
      "ĠBill": 7207,
      "ĠBud": 7208,
      "ĠBased": 7209,
      "ĠBoy": 7210,
      "ĠBiology": 7211,
      "ĠByz": 7212,
      "ĠBalt": 7213,
      "ĠBolivia": 7214,
      "ĠBemidji": 7215,
      "rique": 7216,
      "nders": 7217,
      "ĠPA": 7218,
      "ĠPD": 7219,
      "ĠPas": 7220,
      "ĠPol": 7221,
      "ĠProm": 7222,
      "ĠPip": 7223,
      "ĠPost": 7224,
      "ĠPear": 7225,
      "ĠPower": 7226,
      "ĠPred": 7227,
      "ĠPleas": 7228,
      "ĠPisces": 7229,
      "open": 7230,
      "opkins": 7231,
      "Ġalter": 7232,
      "Ġalive": 7233,
      "Ġalign": 7234,
      "Ġalike": 7235,
      "Ġalcohol": 7236,
      "Ġ(\"": 7237,
      "oretical": 7238,
      "ategy": 7239,
      "Ġitching": 7240,
      "Ġitems": 7241,
      "Ġhero": 7242,
      "Ġheter": 7243,
      "Ġheated": 7244,
      "osm": 7245,
      "osion": 7246,
      "osity": 7247,
      "oshu": 7248,
      "Ġsup": 7249,
      "Ġsuper": 7250,
      "Ġsudd": 7251,
      "Ġexact": 7252,
      "Ġexclus": 7253,
      "Ġexhaust": 7254,
      "Ġexempl": 7255,
      "ĠThen": 7256,
      "ĠTheatre": 7257,
      "Ġatoms": 7258,
      "Ġathlet": 7259,
      "Ġ150": 7260,
      "user": 7261,
      "usual": 7262,
      "usually": 7263,
      "essays": 7264,
      "Ġdeb": 7265,
      "Ġdead": 7266,
      "istant": 7267,
      "ĠFour": 7268,
      "ĠFound": 7269,
      "ĠFred": 7270,
      "ĠFont": 7271,
      "ĠFortunately": 7272,
      "ĠFinally": 7273,
      "ĠFamily": 7274,
      "ĠHunting": 7275,
      "ĠHOLY": 7276,
      "ĠHopkins": 7277,
      "quake": 7278,
      "quences": 7279,
      "Ġrich": 7280,
      "Ġrough": 7281,
      "Ġrub": 7282,
      "Ġridge": 7283,
      "Ġrheumatoid": 7284,
      "abol": 7285,
      "abant": 7286,
      "about": 7287,
      "abai": 7288,
      "ocation": 7289,
      "ocate": 7290,
      "uming": 7291,
      "umption": 7292,
      "umps": 7293,
      "ĠEv": 7294,
      "ĠEst": 7295,
      "ĠEcological": 7296,
      "ĠEcology": 7297,
      "ĠWent": 7298,
      "ĠWood": 7299,
      "ĠWendy": 7300,
      "Ġvia": 7301,
      "Ġvary": 7302,
      "Ġvitt": 7303,
      "Ġvital": 7304,
      "Ġvoices": 7305,
      "Ġvocabulary": 7306,
      "Ġvigorous": 7307,
      "udents": 7308,
      "âĢĻ,": 7309,
      "ĠRel": 7310,
      "ĠRich": 7311,
      "ĠRace": 7312,
      "ĠRoy": 7313,
      "ĠRock": 7314,
      "ĠRather": 7315,
      "ĠRape": 7316,
      "ĠRabb": 7317,
      "ĠRena": 7318,
      "ĠRafter": 7319,
      "acu": 7320,
      "iven": 7321,
      "ivities": 7322,
      "through": 7323,
      "estival": 7324,
      "Ġneur": 7325,
      "Ġneuro": 7326,
      "Ġneither": 7327,
      "alled": 7328,
      "ĠGet": 7329,
      "ĠGass": 7330,
      "ĠGreen": 7331,
      "ĠGeriatric": 7332,
      "Ġwash": 7333,
      "Ġwashing": 7334,
      "ĠDon": 7335,
      "ĠDid": 7336,
      "ĠDry": 7337,
      "ĠDays": 7338,
      "ĠDrug": 7339,
      "ĠDPI": 7340,
      "ĠDonation": 7341,
      "ĠDaniel": 7342,
      "Ġseiz": 7343,
      "Ġsevent": 7344,
      "Ġnoted": 7345,
      "Ġnoticed": 7346,
      "ĠLE": 7347,
      "ĠLive": 7348,
      "ĠLens": 7349,
      "ĠLink": 7350,
      "ĠLomb": 7351,
      "ĠLibrary": 7352,
      "ĠLesson": 7353,
      "unk": 7354,
      "unctions": 7355,
      "Ġshi": 7356,
      "Ġshock": 7357,
      "Ġships": 7358,
      "Ġshades": 7359,
      "Ġshift": 7360,
      "ptych": 7361,
      "Ġusage": 7362,
      "arent": 7363,
      "areware": 7364,
      "arents": 7365,
      "Ġworst": 7366,
      "Ġworse": 7367,
      "endix": 7368,
      "ffee": 7369,
      "ineers": 7370,
      "ĠNow": 7371,
      "ĠNOT": 7372,
      "Ġpla": 7373,
      "Ġplus": 7374,
      "Ġplum": 7375,
      "ago": 7376,
      "agraph": 7377,
      "Ġki": 7378,
      "Ġkil": 7379,
      "Ġkill": 7380,
      "Ġknew": 7381,
      "Ġkilled": 7382,
      "ancell": 7383,
      "Ġabuse": 7384,
      "oster": 7385,
      "ĠJr": 7386,
      "ĠJer": 7387,
      "ĠJac": 7388,
      "ĠJose": 7389,
      "ĠJefferson": 7390,
      "ĠJesus": 7391,
      "ĠOb": 7392,
      "ĠOf": 7393,
      "ĠOwn": 7394,
      "ĠOmar": 7395,
      "ĠUC": 7396,
      "ĠUr": 7397,
      "ĠUss": 7398,
      "ĠUrug": 7399,
      "ĠUpper": 7400,
      "Ġenab": 7401,
      "Ġenact": 7402,
      "Ġenviron": 7403,
      "Ġenables": 7404,
      "Ġmaize": 7405,
      "ouses": 7406,
      "Ġsolely": 7407,
      "ework": 7408,
      "Ġdisg": 7409,
      "Ġdisapp": 7410,
      "Ġdisorders": 7411,
      "Ġadds": 7412,
      "Ġresur": 7413,
      "usting": 7414,
      "Ġperme": 7415,
      "Ġperipher": 7416,
      "Ġcontest": 7417,
      "Ġcontrast": 7418,
      "Ġcontrovers": 7419,
      "Ġcompare": 7420,
      "Ġcomposition": 7421,
      "rang": 7422,
      "iaceae": 7423,
      "Ġallergy": 7424,
      "asty": 7425,
      "astro": 7426,
      "earing": 7427,
      "early": 7428,
      "earchers": 7429,
      "Ġwilling": 7430,
      "ressive": 7431,
      "Ġimpression": 7432,
      "Ġincident": 7433,
      "Ġinclusion": 7434,
      "Ġmanner": 7435,
      "iceps": 7436,
      "Ġdose": 7437,
      "Ġdojo": 7438,
      "igns": 7439,
      "ignition": 7440,
      "âĢĿ,": 7441,
      "âĢĿ.": 7442,
      "ĠThree": 7443,
      "ĠThreat": 7444,
      "ĠThough": 7445,
      "inder": 7446,
      "Ġ1930": 7447,
      "Ġ1914": 7448,
      "ephil": 7449,
      "ricts": 7450,
      "Ġclips": 7451,
      "Ġclimb": 7452,
      "Ġpregn": 7453,
      "Ġarts": 7454,
      "Ġarise": 7455,
      "Ġpeas": 7456,
      "Ġuns": 7457,
      "Ġunable": 7458,
      "Ġunified": 7459,
      "Ġuncle": 7460,
      "Ġunfortunately": 7461,
      "Ġunemployed": 7462,
      "Ġunusual": 7463,
      "ava": 7464,
      "avia": 7465,
      "Ġknows": 7466,
      "Ġapparent": 7467,
      "Ġmeat": 7468,
      "Ġmeals": 7469,
      "play": 7470,
      "place": 7471,
      "ĠKenn": 7472,
      "aka": 7473,
      "akh": 7474,
      "ako": 7475,
      "Ġrecall": 7476,
      "Ġoutward": 7477,
      "Ġ2001": 7478,
      "Ġjournal": 7479,
      "Ġjunction": 7480,
      "Ġjunctions": 7481,
      "Ġworkers": 7482,
      "Ġworkouts": 7483,
      "plex": 7484,
      "ĠStation": 7485,
      "ĠStand": 7486,
      "ĠStart": 7487,
      "ĠStruggle": 7488,
      "Ġcommitting": 7489,
      "Ġyourself": 7490,
      "Ġevap": 7491,
      "Ġevacu": 7492,
      "Ġgoverning": 7493,
      "Ġtraditions": 7494,
      "Ġagric": 7495,
      "Ġaggress": 7496,
      "Ġspat": 7497,
      "Ġsport": 7498,
      "Ġspons": 7499,
      "Ġspont": 7500,
      "Ġspring": 7501,
      "Ġsomehow": 7502,
      "okes": 7503,
      "okyo": 7504,
      "Ġsailed": 7505,
      "ishing": 7506,
      "ĠItaly": 7507,
      "Ġteen": 7508,
      "cription": 7509,
      "cribed": 7510,
      "Ġamb": 7511,
      "lick": 7512,
      "Ġspeaking": 7513,
      "Ġacts": 7514,
      "Ġacting": 7515,
      "Ġactual": 7516,
      "aintance": 7517,
      "aneous": 7518,
      "lliot": 7519,
      "ĠChancell": 7520,
      "ublished": 7521,
      "Ġblind": 7522,
      "Ġblends": 7523,
      "Ġattain": 7524,
      "Ġattrib": 7525,
      "Ġattended": 7526,
      "Ġattending": 7527,
      "Ġregard": 7528,
      "Ġreports": 7529,
      "Ġconsol": 7530,
      "Ġroll": 7531,
      "Ġroles": 7532,
      "Ġroots": 7533,
      "Ġ33": 7534,
      "Ġ34": 7535,
      "Ġ300": 7536,
      "Ġ310": 7537,
      "Ġcounted": 7538,
      "Ġrelatives": 7539,
      "Ġrelocated": 7540,
      "Ġreliable": 7541,
      "Ġnewly": 7542,
      "194": 7543,
      "1943": 7544,
      "1951": 7545,
      "ĠYale": 7546,
      "fully": 7547,
      "hesized": 7548,
      "Ġsched": 7549,
      "Ġscalar": 7550,
      "Ġadditive": 7551,
      "Ġaddressed": 7552,
      "Ġsurg": 7553,
      "rams": 7554,
      "Through": 7555,
      "Ġ45": 7556,
      "issance": 7557,
      "Ġexamined": 7558,
      "ĠRef": 7559,
      "ĠRev": 7560,
      "ĠRebels": 7561,
      "Ġemp": 7562,
      "Ġemot": 7563,
      "Ġempire": 7564,
      "Ġemissions": 7565,
      "Ġproductions": 7566,
      "phal": 7567,
      "phur": 7568,
      "phones": 7569,
      "Ġfirstname": 7570,
      "Ġsubob": 7571,
      "Ġsubsystem": 7572,
      "ĠVen": 7573,
      "ĠVis": 7574,
      "ĠVari": 7575,
      "ĠVII": 7576,
      "ĠValu": 7577,
      "Ġindic": 7578,
      "Ġindicate": 7579,
      "Ġunderlying": 7580,
      "obic": 7581,
      "Ġcrew": 7582,
      "Ġmetabol": 7583,
      "Ġmodes": 7584,
      "Ġmodels": 7585,
      "ismuth": 7586,
      "Ġexpress": 7587,
      "Ġlegs": 7588,
      "Ġinfer": 7589,
      "Ġinfection": 7590,
      "Ġinfected": 7591,
      "Ġartists": 7592,
      "cover": 7593,
      "everal": 7594,
      "Ġparash": 7595,
      "Ġparalle": 7596,
      "Ġsigned": 7597,
      "Ġsignals": 7598,
      "ventions": 7599,
      "Ġtrip": 7600,
      "Ġtried": 7601,
      "Ġtriangle": 7602,
      "athically": 7603,
      "encing": 7604,
      "Ġsimultane": 7605,
      "Ġdirector": 7606,
      "Ġdirecting": 7607,
      "Ġforming": 7608,
      "Ġdecomp": 7609,
      "Ġdifferently": 7610,
      "ementia": 7611,
      "Ġjustice": 7612,
      "Ġ51": 7613,
      "Ġ55": 7614,
      "Ġlongest": 7615,
      "idential": 7616,
      "ĠHead": 7617,
      "ursday": 7618,
      "gyrat": 7619,
      "ĠArch": 7620,
      "Ġinterfer": 7621,
      "Ġinterface": 7622,
      "Ġsmok": 7623,
      "Ġsmooth": 7624,
      "Ġdistrict": 7625,
      "Ġdistingu": 7626,
      "Ġdistricts": 7627,
      "ometer": 7628,
      "ometry": 7629,
      "ructor": 7630,
      "ructural": 7631,
      "Ġpresses": 7632,
      "Ġdownward": 7633,
      "Ġreader": 7634,
      "Ġreadings": 7635,
      "ĠIndepend": 7636,
      "....": 7637,
      "arsh": 7638,
      "Ġseeking": 7639,
      "Ġdefines": 7640,
      "Ġdefault": 7641,
      "Ġacquired": 7642,
      "Ġoccas": 7643,
      "Ġoccup": 7644,
      "ropositions": 7645,
      "Ġeds": 7646,
      "Ġedge": 7647,
      "Ġtranspl": 7648,
      "ĠCalcul": 7649,
      "isei": 7650,
      "Ġcovers": 7651,
      "Ġcoffee": 7652,
      "Ġfamiliar": 7653,
      "uthors": 7654,
      "Ġstatehood": 7655,
      "Ġstatewide": 7656,
      "ĠFrancaf": 7657,
      "Ġsolvents": 7658,
      "Ġpolice": 7659,
      "Ġfee": 7660,
      "Ġfeed": 7661,
      "Ġrestored": 7662,
      "Ġrestrict": 7663,
      "Ġgrad": 7664,
      "Ġgray": 7665,
      "Ġgraders": 7666,
      "ĠBeh": 7667,
      "ĠBeyond": 7668,
      "ĠBeaux": 7669,
      "Ġcharact": 7670,
      "Ġcharged": 7671,
      "ymode": 7672,
      "inson": 7673,
      "Ġaccum": 7674,
      "Ġaccounts": 7675,
      "Ġobjectives": 7676,
      "ĠÂ°": 7677,
      "Ġoperate": 7678,
      "atherine": 7679,
      "Ġminimum": 7680,
      "ĠAsk": 7681,
      "Ġapproximately": 7682,
      "ercises": 7683,
      "Ġserving": 7684,
      "Ġinitiate": 7685,
      "Ġinitiated": 7686,
      "Ġstrategy": 7687,
      "Ġextensive": 7688,
      "Ġequally": 7689,
      "Ġequipped": 7690,
      "Ġorganized": 7691,
      "Ġ82": 7692,
      "Ġactivists": 7693,
      "103": 7694,
      "Ġtermin": 7695,
      "ĠAde": 7696,
      "ĠAdvan": 7697,
      "ĠAdditionally": 7698,
      "ĠAdansonia": 7699,
      "Ġleader": 7700,
      "Ġengagement": 7701,
      "Ġcrimes": 7702,
      "Ġcrime": 7703,
      "Ġbelong": 7704,
      "Ġbelieves": 7705,
      "Ġworldwide": 7706,
      "Ġelectrically": 7707,
      "Ġindustrial": 7708,
      "Ġcarries": 7709,
      "Ġ65": 7710,
      "Ġpassing": 7711,
      "Ġpassage": 7712,
      "Ġeconomies": 7713,
      "Ġrealm": 7714,
      "Ġrealized": 7715,
      "Ġphase": 7716,
      "Ġfinished": 7717,
      "ĠScot": 7718,
      "ĠScandin": 7719,
      "Ġprotest": 7720,
      "Ġdepression": 7721,
      "Ġrunoff": 7722,
      "Ġclassic": 7723,
      "Ġdiscussions": 7724,
      "Ġrulers": 7725,
      "ĠDecision": 7726,
      "ĠLeaves": 7727,
      "ĠLeague": 7728,
      "Ġrecords": 7729,
      "Ġlegislative": 7730,
      "Ġ700": 7731,
      "Ġ741": 7732,
      "Ġopposed": 7733,
      "Ġpossibility": 7734,
      "Ġforeign": 7735,
      "Ġfactor": 7736,
      "Ġfactory": 7737,
      "Ġfocuses": 7738,
      "Ġlimits": 7739,
      "Ġconstitu": 7740,
      "ĠPlay": 7741,
      "Ġvolatility": 7742,
      "ĠNews": 7743,
      "ĠOctane": 7744,
      "Ġbottle": 7745,
      "pret": 7746,
      "Ġentered": 7747,
      "Ġentering": 7748,
      "Ġcapable": 7749,
      "Ġbrings": 7750,
      "Ġexplain": 7751,
      "ĠTherefore": 7752,
      "Ġdevast": 7753,
      "Ġoccurring": 7754,
      "Ġtemporary": 7755,
      "Ġtestament": 7756,
      "Ġretains": 7757,
      "Ġlasted": 7758,
      "Ġissued": 7759,
      "ĠCentre": 7760,
      "Ġcomputing": 7761,
      "Ġkeyboard": 7762,
      "apeake": 7763,
      "clusion": 7764,
      "Ġideal": 7765,
      "Ġideological": 7766,
      "Ġfunctions": 7767,
      "Ġmuscles": 7768,
      "ĠIsland": 7769,
      "ĠCleft": 7770,
      "Ġsuccesses": 7771,
      "ĠExper": 7772,
      "ĠExchange": 7773,
      "ĠExercises": 7774,
      "Ġsubjective": 7775,
      "Ġcontinuing": 7776,
      "Ġcontinuity": 7777,
      "Ġlargely": 7778,
      "comp": 7779,
      "nalysis": 7780,
      "enger": 7781,
      "ĠSoon": 7782,
      "Ġ1991": 7783,
      "Ġ1999": 7784,
      "Ġdesignation": 7785,
      "Ġsafer": 7786,
      "Ġqualified": 7787,
      "inai": 7788,
      "Ġlightning": 7789,
      "Ġskill": 7790,
      "Ġsending": 7791,
      "Ġcopies": 7792,
      "Ġwarm": 7793,
      "Ġwarmer": 7794,
      "Ġdiameter": 7795,
      "Ġlandmark": 7796,
      "ĠAny": 7797,
      "ĠAnne": 7798,
      "ospace": 7799,
      "Ġviscosity": 7800,
      "Ġshortages": 7801,
      "Ġpresenting": 7802,
      "Ġpresentation": 7803,
      "Ġsentences": 7804,
      "Ġpurified": 7805,
      "Ġpopulations": 7806,
      "Ġconcrete": 7807,
      "Ġhappy": 7808,
      "Ġletting": 7809,
      "Ġobservation": 7810,
      "Ġbalcon": 7811,
      "ĠShort": 7812,
      "ĠPharmac": 7813,
      "ĠUSA": 7814,
      "Ġmeanings": 7815,
      "Ġtrash": 7816,
      "Ġtrunk": 7817,
      "Ġtrends": 7818,
      "enna": 7819,
      "ennium": 7820,
      "Ġbroad": 7821,
      "Ġfarmers": 7822,
      "Ġreceivers": 7823,
      "Ġreceiving": 7824,
      "Ġlapt": 7825,
      "Ġlaunch": 7826,
      "ĠAndes": 7827,
      "Ġ127": 7828,
      "Ġvalleys": 7829,
      "ĠJohns": 7830,
      "iques": 7831,
      "iquette": 7832,
      "Ġuttered": 7833,
      "induced": 7834,
      "Ġinternet": 7835,
      "Ġglac": 7836,
      "ĠAtt": 7837,
      "Ġpromoted": 7838,
      "Ġpropag": 7839,
      "Ġ166": 7840,
      "Ġpredation": 7841,
      "Ġpredict": 7842,
      "Ġelectronics": 7843,
      "Ġcircum": 7844,
      "Ġportray": 7845,
      "Ġredirect": 7846,
      "Ġlots": 7847,
      "ĠCommon": 7848,
      "ĠCommittee": 7849,
      "ĠFlorid": 7850,
      "Ġadvance": 7851,
      "Ġadvice": 7852,
      "Ġadvised": 7853,
      "Ġadvanced": 7854,
      "ibraries": 7855,
      "Ġargues": 7856,
      "ĠIndians": 7857,
      "Ġgeneralizations": 7858,
      "Ġpolitics": 7859,
      "Ġmeasurements": 7860,
      "Ġrisks": 7861,
      "Ġbeneficial": 7862,
      "ĠZieve": 7863,
      "Ġaster": 7864,
      "Ġauto": 7865,
      "Ġautumn": 7866,
      "Ġanalog": 7867,
      "Ġdeliver": 7868,
      "Ġhomoph": 7869,
      "Ġelb": 7870,
      "ĠConnect": 7871,
      "Ġkinds": 7872,
      "Ġappearance": 7873,
      "ĠChileans": 7874,
      "Ġfunctional": 7875,
      "Any": 7876,
      "rimination": 7877,
      "Ġveget": 7878,
      "Ġbattle": 7879,
      "Ġbulk": 7880,
      "Ġmainly": 7881,
      "ĠSurge": 7882,
      "ĠCoast": 7883,
      "Ġsustained": 7884,
      "Ġsustaining": 7885,
      "ĠOnly": 7886,
      "ĠUsing": 7887,
      "Ġrecognized": 7888,
      "Ġrecognised": 7889,
      "Ġrecognizes": 7890,
      "Ġfunding": 7891,
      "Ġbuildings": 7892,
      "azine": 7893,
      "cula": 7894,
      "yrdom": 7895,
      "Ġtruly": 7896,
      "ĠMarries": 7897,
      "Ġcombination": 7898,
      "Ġintroductory": 7899,
      "Ġinterests": 7900,
      "Ġradioactive": 7901,
      "Ġscientific": 7902,
      "Struggle": 7903,
      "Students": 7904,
      "ipping": 7905,
      "lishing": 7906,
      "portation": 7907,
      "ĠQU": 7908,
      "Ġposted": 7909,
      "Ġfourth": 7910,
      "ĠManager": 7911,
      "Ġensuring": 7912,
      "Ġtelepathically": 7913,
      "Ġpolyamide": 7914,
      "Ġdescribing": 7915,
      "Alouds": 7916,
      "Exod": 7917,
      "Ġurine": 7918,
      "Ġtendencies": 7919,
      "Ġwildfires": 7920,
      "Ġinsights": 7921,
      "Ġmedications": 7922,
      "imming": 7923,
      "immune": 7924,
      "Ġsurely": 7925,
      "Ġdegrees": 7926,
      "Ġparticipating": 7927,
      "Ġstrongest": 7928,
      "Ġaffecting": 7929,
      "Ġopened": 7930,
      "Ġcampus": 7931,
      "Ġmurals": 7932,
      "ĠBlanche": 7933,
      "Ġ1986": 7934,
      "Ġ1989": 7935,
      "Ġclosely": 7936,
      "Ġrecommends": 7937,
      "Ġchemically": 7938,
      "Ġchemistry": 7939,
      "Ġversions": 7940,
      "Ġmorphology": 7941,
      "Ġlandscapes": 7942,
      "ĠCounties": 7943,
      "Ġstorytelling": 7944,
      "Ġ1940": 7945,
      "1983": 7946,
      "1989": 7947,
      "Ġemployment": 7948,
      "Ġartistic": 7949,
      "Ġcollege": 7950,
      "Ġcollection": 7951,
      "Ġdeclining": 7952,
      "Ġprotectors": 7953,
      "ĠResearchers": 7954,
      "Ġrepresenting": 7955,
      "Ġrepresentations": 7956,
      "Ġarguing": 7957,
      "Ġargument": 7958,
      "Ġbusinesses": 7959,
      "eyed": 7960,
      "Ġsquee": 7961,
      "Ġantidisc": 7962,
      "ĠContin": 7963,
      "Ġvictories": 7964,
      "ĠDrilling": 7965,
      "Ġpermits": 7966,
      "Ġrespectively": 7967,
      "Ġexperiments": 7968,
      "Ġimprovement": 7969,
      "Ġidentifying": 7970,
      "))))": 7971,
      "ĠAccept": 7972,
      "ĠBrook": 7973,
      "ĠDisabilities": 7974,
      "Ġenhanced": 7975,
      "Ġcomplications": 7976,
      "Ġ1977": 7977,
      "Ġclaims": 7978,
      "Ġarms": 7979,
      "Ġarmy": 7980,
      "Ġblocks": 7981,
      "Ġlegalization": 7982,
      "Ġremoving": 7983,
      "Ġprogressing": 7984,
      "Ġcorresponded": 7985,
      "Ġpotentially": 7986,
      "methyl": 7987,
      "atsu": 7988,
      "Ġcycles": 7989,
      "Ġanimals": 7990,
      "Ġepoxies": 7991,
      "Ġconversations": 7992,
      "ĠHurricanes": 7993,
      "ĠReduction": 7994,
      "ĠReport": 7995,
      "ĠGeorge": 7996,
      "ĠDespite": 7997,
      "Ġ1961": 7998,
      "ĠKingdom": 7999,
      "Ġagreed": 8000,
      "Ġattempted": 8001,
      "Ġsubstant": 8002,
      "Ġtransportation": 8003,
      "Ġvehicle": 8004,
      "Ġpolymerization": 8005,
      "2002": 8006,
      "2008": 8007,
      "Ġerosion": 8008,
      "Ġangel": 8009,
      "ourage": 8010,
      "Ġmountain": 8011,
      "Ġmountains": 8012,
      "Ġrepeal": 8013,
      "ĠArea": 8014,
      "ĠAustral": 8015,
      "Ġundulating": 8016,
      "ĠMusic": 8017,
      "ĠMussel": 8018,
      "ĠMuslim": 8019,
      "ĠWorked": 8020,
      "Ġprecip": 8021,
      "Ġeventually": 8022,
      "Ġpoems": 8023,
      "Ġconsumption": 8024,
      "Ġrafters": 8025,
      "Ġreferred": 8026,
      "Ġinstructed": 8027,
      "Ġcovering": 8028,
      "ĠDoesken": 8029,
      "Ġbrothers": 8030,
      "ĠChristian": 8031,
      "gmentation": 8032,
      "rected": 8033,
      "Ġslept": 8034,
      "Ġpieces": 8035,
      "Ġfilmed": 8036,
      "olivian": 8037,
      "ĠAngel": 8038,
      "ĠAngust": 8039,
      "ĠIntegr": 8040,
      "Ġexception": 8041,
      "Ġarchives": 8042,
      "Ġarchitect": 8043,
      "1927": 8044,
      "Ġgrassroots": 8045,
      "4323": 8046,
      "noon": 8047,
      "particip": 8048,
      "Ġzero": 8049,
      "Ġaimed": 8050,
      "Ġwinds": 8051,
      "Ġwindow": 8052,
      "Ġearned": 8053,
      "Ġecosystems": 8054,
      "Ġlinks": 8055,
      "Ġlinked": 8056,
      "ĠActivities": 8057,
      "ĠSimilar": 8058,
      "ĠMonitoring": 8059,
      "ĠMillennium": 8060,
      "ĠNovel": 8061,
      "ĠInterim": 8062,
      "Ġjudicial": 8063,
      "Ġcommissioned": 8064,
      "Ġobtain": 8065,
      "Ġobviously": 8066,
      "Ġscenario": 8067,
      "Ġassessment": 8068,
      "Ġcollecting": 8069,
      "Ġresponding": 8070,
      "Ġcarrying": 8071,
      "ĠProgramme": 8072,
      "Ġenterprise": 8073,
      "Ġcarefully": 8074,
      "Ġutilized": 8075,
      "Ġstimulate": 8076,
      "Ġstimulates": 8077,
      "Ġlengths": 8078,
      "ĠWilliams": 8079,
      "December": 8080,
      "atherapy": 8081,
      "Ġsellers": 8082,
      "Ġcreative": 8083,
      "Ġcategory": 8084,
      "itzerland": 8085,
      "Ġbreathe": 8086,
      "ĠTeaching": 8087,
      "ĠAutumn": 8088,
      "ĠImm": 8089,
      "ĠImagine": 8090,
      "ĠSwitzerland": 8091,
      "Ġstreets": 8092,
      "Ġorbits": 8093,
      "ĠMichigan": 8094,
      "ĠPrice": 8095,
      "ĠPrince": 8096,
      "ĠParis": 8097,
      "ĠParrot": 8098,
      "Ġexhibition": 8099,
      "Ġclothing": 8100,
      "Ġpreferred": 8101,
      "Ġdiscoveries": 8102,
      "Ġexpansions": 8103,
      "Ġinterpreted": 8104,
      "Ġfacilitator": 8105,
      "Ġcleaned": 8106,
      "Ġcleaning": 8107,
      "Ġelsewhere": 8108,
      "Ġrecommendations": 8109,
      "Ġvirtual": 8110,
      "Ġinstrumental": 8111,
      "Ġillustrations": 8112,
      "Ġillustrating": 8113,
      "994323": 8114,
      "Prob": 8115,
      "Second": 8116,
      "Ġpanels": 8117,
      "Ġbranch": 8118,
      "Ġbranches": 8119,
      "Ġframing": 8120,
      "Ġmagnitude": 8121,
      "rolling": 8122,
      "Ġthreats": 8123,
      "Ġreplace": 8124,
      "Ġlabs": 8125,
      "ĠTraditional": 8126,
      "Ġforgotten": 8127,
      "ĠSkills": 8128,
      "ĠCardiology": 8129,
      "ĠCardiovascular": 8130,
      "ĠMyocardial": 8131,
      "ĠPressure": 8132,
      "Ġexciting": 8133,
      "Ġatomic": 8134,
      "Ġranchers": 8135,
      "Ġranging": 8136,
      "ĠLearning": 8137,
      "ĠLawmakers": 8138,
      "Ġworshiped": 8139,
      "Ġintegrated": 8140,
      "Ġdispute": 8141,
      "Ġcompete": 8142,
      "Ġunconscious": 8143,
      "Ġmechanism": 8144,
      "Ġevaluate": 8145,
      "Ġrepetitive": 8146,
      "Ġrepetitions": 8147,
      "Ġminimize": 8148,
      "Ġgrandidieri": 8149,
      "Ġgranted": 8150,
      "ĠCommunity": 8151,
      "ĠCommunist": 8152,
      "ĠCommissioner": 8153,
      "Ġastrological": 8154,
      "Ġindependently": 8155,
      "India": 8156,
      "downs": 8157,
      "equal": 8158,
      "panic": 8159,
      "Ġtalking": 8160,
      "Ġaromatherapy": 8161,
      "Ġsacr": 8162,
      "Ġsacred": 8163,
      "Ġsweet": 8164,
      "Ġcouples": 8165,
      "Ġphysic": 8166,
      "Ġphysically": 8167,
      "Ġharmful": 8168,
      "Ġrewarding": 8169,
      "Ġlibert": 8170,
      "Ġgirls": 8171,
      "ĠAbout": 8172,
      "ĠApplied": 8173,
      "Ġforgetful": 8174,
      "ĠSolar": 8175,
      "ĠCraig": 8176,
      "Ġstretching": 8177,
      "Ġprofit": 8178,
      "ĠMartin": 8179,
      "ĠMultiple": 8180,
      "Ġalternate": 8181,
      "ĠRemember": 8182,
      "ĠGrey": 8183,
      "ĠDelaware": 8184,
      "ĠDelhi": 8185,
      "ĠListen": 8186,
      "ĠInfarction": 8187,
      "ĠUpdate": 8188,
      "Ġpreceded": 8189,
      "hydric": 8190,
      "Ġtraumatic": 8191,
      "Ġregistered": 8192,
      "Ġregistration": 8193,
      "Ġparaffin": 8194,
      "Ġdistributors": 8195,
      "Ġgradual": 8196,
      "ĠAdams": 8197,
      "clusions": 8198,
      "Ġmixture": 8199,
      "Ġmixtures": 8200,
      "Ġviolence": 8201,
      "Ġgenetically": 8202,
      "ĠQuarterly": 8203,
      "Ġcustomers": 8204,
      "Ġnavigate": 8205,
      "People": 8206,
      "Researchers": 8207,
      "ronegativity": 8208,
      "Ġsinks": 8209,
      "Ġsulfur": 8210,
      "Ġfitness": 8211,
      "Ġfemales": 8212,
      "ourier": 8213,
      "Ġinvas": 8214,
      "Ġmobility": 8215,
      "studymode": 8216,
      "Ġgathering": 8217,
      "ĠTesla": 8218,
      "ĠTopics": 8219,
      "ĠAvoid": 8220,
      "ĠChemistry": 8221,
      "ulsions": 8222,
      "ĠMetropolitan": 8223,
      "ĠProprietors": 8224,
      "ĠFalcon": 8225,
      "ĠRamabai": 8226,
      "ĠGreece": 8227,
      "ĠDracula": 8228,
      "ĠLinux": 8229,
      "ĠJewish": 8230,
      "Ġadapt": 8231,
      "Ġadministrative": 8232,
      "Ġresolve": 8233,
      "Ġpreparing": 8234,
      "ĠVolume": 8235,
      "ĠVirgin": 8236,
      "Ġforecast": 8237,
      "Ġconfiguration": 8238,
      "Ġsufficiently": 8239,
      "Ġnegoti": 8240,
      "Explore": 8241,
      "Ġdegradation": 8242,
      "Ġterritories": 8243,
      "ĠPeriodic": 8244,
      "Ġdynamic": 8245,
      "Ġmandazi": 8246,
      "Ġasphalthene": 8247,
      "Appendix": 8248,
      "Homeopathy": 8249,
      "Ionization": 8250,
      "lastname": 8251,
      "simple": 8252,
      "Ġerythropoietin": 8253,
      "Ġtetrac": 8254,
      "Ġaquarium": 8255,
      "heptane": 8256,
      "Ġsections": 8257,
      "Ġscriptures": 8258,
      "Ġpunishment": 8259,
      "Ġpapers": 8260,
      "Ġpronounced": 8261,
      "Ġanchor": 8262,
      "Ġfabric": 8263,
      "oulomb": 8264,
      "Ġdiplom": 8265,
      "robj": 8266,
      "Ġlaser": 8267,
      "Ġgroove": 8268,
      "ĠCallow": 8269,
      "ĠCategory": 8270,
      "ĠMemorial": 8271,
      "ĠMovement": 8272,
      "ĠMoves": 8273,
      "Ġconsequences": 8274,
      "Ġconcentration": 8275,
      "Ġconvenient": 8276,
      "ĠBermuda": 8277,
      "ĠPainting": 8278,
      "ĠPractice": 8279,
      "ĠPolicy": 8280,
      "Ġexcessive": 8281,
      "Ġhazard": 8282,
      "ĠFASEB": 8283,
      "ĠFuller": 8284,
      "Ġratio": 8285,
      "ĠGMT": 8286,
      "ĠGabrieli": 8287,
      "ĠDemocratic": 8288,
      "Ġsecede": 8289,
      "ĠLouisiana": 8290,
      "ĠJackson": 8291,
      "Ġcomplain": 8292,
      "Ġimpairments": 8293,
      "Ġmanufacture": 8294,
      "Ġreconciliation": 8295,
      "ĠStonecrop": 8296,
      "Ġqueen": 8297,
      "Ġobesity": 8298,
      "Ġsurrounding": 8299,
      "Ġemperor": 8300,
      "Ġintersect": 8301,
      "Ġtransmission": 8302,
      "Ġelevated": 8303,
      "Ġstringent": 8304,
      "ĠScopolamine": 8305,
      "Ġdeposits": 8306,
      "ĠCorbett": 8307,
      "Ġsatisf": 8308,
      "ĠUSSR": 8309,
      "ĠStudyMode": 8310,
      "ĠXIII": 8311,
      "ĠMarxist": 8312,
      "ĠBloomberg": 8313,
      "ecutive": 8314,
      "Ġsynthesized": 8315,
      "Ġfrustrated": 8316,
      "Ġancestors": 8317,
      "itzvot": 8318,
      "Ġepisodes": 8319,
      "Ġevolutionary": 8320,
      "Ġhusband": 8321,
      "rombolytic": 8322,
      "Ġincorporated": 8323,
      "Ġhorizontal": 8324,
      "Activity": 8325,
      "Because": 8326,
      "Cleopatra": 8327,
      "Constantinople": 8328,
      "Metallic": 8329,
      "Memory": 8330,
      "Originally": 8331,
      "Phot": 8332,
      "authored": 8333,
      "flyovers": 8334,
      "protected": 8335,
      "uetooth": 8336,
      "zawad": 8337,
      "Ġaugment": 8338,
      "Ġafraid": 8339,
      "internet": 8340,
      "Ġotherobj": 8341,
      "atabase": 8342,
      "Ġsutures": 8343,
      "Ġsulphur": 8344,
      "Ġsession": 8345,
      "Ġsedums": 8346,
      "Ġcassava": 8347,
      "Ġcubic": 8348,
      "Ġwalking": 8349,
      "Ġwireless": 8350,
      "Ġphenomen": 8351,
      "itamin": 8352,
      "ednesday": 8353,
      "Ġbaby": 8354,
      "Ġfirm": 8355,
      "Ġfifth": 8356,
      "Ġfibrils": 8357,
      "Ġmillions": 8358,
      "Ġmasonry": 8359,
      "Ġtomentose": 8360,
      "Ġdioxide": 8361,
      "Ġbeautiful": 8362,
      "Ġgathered": 8363,
      "ĠTags": 8364,
      "ĠTobey": 8365,
      "ĠTurkey": 8366,
      "ĠTanzania": 8367,
      "ĠAmazon": 8368,
      "ĠSchofield": 8369,
      "ĠChesapeake": 8370,
      "Ġstruck": 8371,
      "Ġstewards": 8372,
      "Ġprominent": 8373,
      "ĠMountains": 8374,
      "ĠMumbai": 8375,
      "Ġconventional": 8376,
      "Ġcongestion": 8377,
      "Ġcongenital": 8378,
      "ĠBuddist": 8379,
      "ĠByzantine": 8380,
      "Ġsudden": 8381,
      "Ġexclusively": 8382,
      "Ġathletic": 8383,
      "Ġvittata": 8384,
      "ĠRichmond": 8385,
      "ĠRenaissance": 8386,
      "ĠGassmann": 8387,
      "ĠJoseph": 8388,
      "ĠUssr": 8389,
      "ĠUruguay": 8390,
      "Ġenvironments": 8391,
      "ĠChancellor": 8392,
      "Ġattributes": 8393,
      "Ġsubobj": 8394,
      "ĠVariation": 8395,
      "Ġparasha": 8396,
      "Ġsimultaneously": 8397,
      "gyratory": 8398,
      "Ġinterferometry": 8399,
      "ĠFrancafrique": 8400,
      "ĠAdvanced": 8401,
      "ĠPharmacology": 8402,
      "ĠFlorida": 8403,
      "Ġantidiscrimination": 8404,
      "participant": 8405,
      "Ġtetracaine": 8406,
      "!\"": 8407,
      "!)": 8408,
      "!âĢĿ": 8409,
      "\"?": 8410,
      "\"),": 8411,
      "\"âĢĶ": 8412,
      "\"...": 8413,
      "%.": 8414,
      "',": 8415,
      "((": 8416,
      "(-": 8417,
      "):": 8418,
      ".:": 8419,
      ".âĢĶ": 8420,
      "01": 8421,
      "08": 8422,
      "24": 8423,
      "230": 8424,
      "266": 8425,
      "33": 8426,
      "345": 8427,
      "68": 8428,
      "6103": 8429,
      "70": 8430,
      "73": 8431,
      "76": 8432,
      "79": 8433,
      "735": 8434,
      "98": 8435,
      "AC": 8436,
      "AG": 8437,
      "AM": 8438,
      "Ar": 8439,
      "Ari": 8440,
      "Ant": 8441,
      "Aug": 8442,
      "Ass": 8443,
      "Alex": 8444,
      "Agar": 8445,
      "AIDS": 8446,
      "ADDM": 8447,
      "BO": 8448,
      "BW": 8449,
      "Bi": 8450,
      "Bay": 8451,
      "Brazil": 8452,
      "Bledsoe": 8453,
      "BOBJ": 8454,
      "Bursitis": 8455,
      "Boe": 8456,
      "CE": 8457,
      "CP": 8458,
      "Ca": 8459,
      "Co": 8460,
      "Cs": 8461,
      "Cent": 8462,
      "Crit": 8463,
      "Cont": 8464,
      "Cardio": 8465,
      "CDC": 8466,
      "Cola": 8467,
      "CMS": 8468,
      "Click": 8469,
      "Coulomb": 8470,
      "Don": 8471,
      "Did": 8472,
      "DPI": 8473,
      "Dengue": 8474,
      "Denis": 8475,
      "EL": 8476,
      "ER": 8477,
      "ET": 8478,
      "Ed": 8479,
      "Em": 8480,
      "En": 8481,
      "Every": 8482,
      "Ext": 8483,
      "Europe": 8484,
      "EPO": 8485,
      "FS": 8486,
      "Fu": 8487,
      "Fac": 8488,
      "Further": 8489,
      "Forest": 8490,
      "Ge": 8491,
      "Gal": 8492,
      "General": 8493,
      "Hy": 8494,
      "Have": 8495,
      "Head": 8496,
      "History": 8497,
      "HID": 8498,
      "Hanukkah": 8499,
      "IL": 8500,
      "IM": 8501,
      "Im": 8502,
      "IEV": 8503,
      "JF": 8504,
      "Jan": 8505,
      "June": 8506,
      "JPL": 8507,
      "Ki": 8508,
      "King": 8509,
      "LL": 8510,
      "La": 8511,
      "Lat": 8512,
      "Let": 8513,
      "Last": 8514,
      "Latin": 8515,
      "London": 8516,
      "MM": 8517,
      "MY": 8518,
      "Mond": 8519,
      "Moses": 8520,
      "Motor": 8521,
      "No": 8522,
      "Non": 8523,
      "Nature": 8524,
      "National": 8525,
      "Normal": 8526,
      "Narrow": 8527,
      "NASA": 8528,
      "Number": 8529,
      "Oct": 8530,
      "Our": 8531,
      "Open": 8532,
      "Po": 8533,
      "Pr": 8534,
      "Pre": 8535,
      "Phys": 8536,
      "Published": 8537,
      "QL": 8538,
      "RO": 8539,
      "RT": 8540,
      "Ron": 8541,
      "Red": 8542,
      "Rad": 8543,
      "Rep": 8544,
      "Russell": 8545,
      "ROBJ": 8546,
      "Riestenberg": 8547,
      "SF": 8548,
      "SW": 8549,
      "Sw": 8550,
      "San": 8551,
      "System": 8552,
      "Sss": 8553,
      "Sulf": 8554,
      "Spring": 8555,
      "Several": 8556,
      "TS": 8557,
      "TX": 8558,
      "Te": 8559,
      "Tra": 8560,
      "Tri": 8561,
      "Try": 8562,
      "Table": 8563,
      "Take": 8564,
      "Taking": 8565,
      "Today": 8566,
      "US": 8567,
      "Up": 8568,
      "VP": 8569,
      "Vol": 8570,
      "Various": 8571,
      "VIL": 8572,
      "WE": 8573,
      "Writ": 8574,
      "World": 8575,
      "WHID": 8576,
      "WJF": 8577,
      "Yet": 8578,
      "Zacharias": 8579,
      "ao": 8580,
      "ais": 8581,
      "aur": 8582,
      "aum": 8583,
      "avery": 8584,
      "aob": 8585,
      "author": 8586,
      "aiting": 8587,
      "bre": 8588,
      "bet": 8589,
      "bac": 8590,
      "bour": 8591,
      "bast": 8592,
      "bable": 8593,
      "bian": 8594,
      "bish": 8595,
      "bling": 8596,
      "both": 8597,
      "ca": 8598,
      "cd": 8599,
      "cat": 8600,
      "cor": 8601,
      "cut": 8602,
      "cot": 8603,
      "city": 8604,
      "cip": 8605,
      "cations": 8606,
      "count": 8607,
      "cord": 8608,
      "cific": 8609,
      "cible": 8610,
      "comm": 8611,
      "cury": 8612,
      "citizens": 8613,
      "circus": 8614,
      "conscious": 8615,
      "carn": 8616,
      "called": 8617,
      "den": 8618,
      "ding": 8619,
      "dem": 8620,
      "doc": 8621,
      "dard": 8622,
      "def": 8623,
      "dimens": 8624,
      "ev": 8625,
      "eent": 8626,
      "eres": 8627,
      "eav": 8628,
      "eco": 8629,
      "egg": 8630,
      "eier": 8631,
      "fur": 8632,
      "fts": 8633,
      "fers": 8634,
      "fast": 8635,
      "file": 8636,
      "fram": 8637,
      "give": 8638,
      "gum": 8639,
      "gun": 8640,
      "gage": 8641,
      "gie": 8642,
      "ggy": 8643,
      "grown": 8644,
      "gender": 8645,
      "grad": 8646,
      "green": 8647,
      "ginal": 8648,
      "gali": 8649,
      "guration": 8650,
      "his": 8651,
      "hor": 8652,
      "hill": 8653,
      "hist": 8654,
      "hine": 8655,
      "hag": 8656,
      "home": 8657,
      "hub": 8658,
      "hio": 8659,
      "hund": 8660,
      "hae": 8661,
      "hunting": 8662,
      "ien": 8663,
      "iol": 8664,
      "iitis": 8665,
      "iences": 8666,
      "iosity": 8667,
      "ienna": 8668,
      "junction": 8669,
      "kg": 8670,
      "kind": 8671,
      "kish": 8672,
      "kword": 8673,
      "ls": 8674,
      "lay": 8675,
      "lies": 8676,
      "lings": 8677,
      "look": 8678,
      "lights": 8679,
      "law": 8680,
      "lined": 8681,
      "lived": 8682,
      "labs": 8683,
      "lisher": 8684,
      "md": 8685,
      "mm": 8686,
      "mp": 8687,
      "men": 8688,
      "mic": 8689,
      "mid": 8690,
      "mall": 8691,
      "mag": 8692,
      "mature": 8693,
      "mix": 8694,
      "mouth": 8695,
      "male": 8696,
      "nest": 8697,
      "nected": 8698,
      "nicity": 8699,
      "oin": 8700,
      "oen": 8701,
      "ole": 8702,
      "oke": 8703,
      "oirs": 8704,
      "pes": 8705,
      "pres": 8706,
      "press": 8707,
      "pron": 8708,
      "pise": 8709,
      "pected": 8710,
      "paper": 8711,
      "positive": 8712,
      "paka": 8713,
      "rin": 8714,
      "ras": 8715,
      "rical": 8716,
      "rations": 8717,
      "rating": 8718,
      "rates": 8719,
      "rash": 8720,
      "rina": 8721,
      "rison": 8722,
      "rarium": 8723,
      "riger": 8724,
      "sv": 8725,
      "sle": 8726,
      "sip": 8727,
      "some": 8728,
      "sang": 8729,
      "shed": 8730,
      "school": 8731,
      "slides": 8732,
      "small": 8733,
      "tp": 8734,
      "tar": 8735,
      "tra": 8736,
      "tts": 8737,
      "tail": 8738,
      "tual": 8739,
      "tles": 8740,
      "tise": 8741,
      "ticle": 8742,
      "text": 8743,
      "uh": 8744,
      "uz": 8745,
      "uing": 8746,
      "uce": 8747,
      "uel": 8748,
      "uke": 8749,
      "uest": 8750,
      "uating": 8751,
      "uitive": 8752,
      "upert": 8753,
      "vir": 8754,
      "vage": 8755,
      "vail": 8756,
      "vier": 8757,
      "viate": 8758,
      "wen": 8759,
      "war": 8760,
      "were": 8761,
      "wood": 8762,
      "worth": 8763,
      "washing": 8764,
      "western": 8765,
      "while": 8766,
      "whel": 8767,
      "xfs": 8768,
      "yt": 8769,
      "yer": 8770,
      "yes": 8771,
      "ying": 8772,
      "yles": 8773,
      "ygen": 8774,
      "zy": 8775,
      "zym": 8776,
      "zene": 8777,
      "³n": 8778,
      "Â°": 8779,
      "Ã¶": 8780,
      "ÃĹ": 8781,
      "×ķ": 8782,
      "×Ļ": 8783,
      "Ġ:": 8784,
      "Ġ>": 8785,
      "Ġ@": 8786,
      "Ġ×": 8787,
      "Ġia": 8788,
      "Ġiron": 8789,
      "ĠÃĹ": 8790,
      "ĸ×Ķ": 8791,
      "Ġts": 8792,
      "Ġtit": 8793,
      "Ġtid": 8794,
      "Ġtut": 8795,
      "Ġtill": 8796,
      "Ġtun": 8797,
      "Ġtight": 8798,
      "Ġtang": 8799,
      "Ġtone": 8800,
      "Ġtenn": 8801,
      "Ġturning": 8802,
      "Ġtints": 8803,
      "Ġtank": 8804,
      "Ġtacc": 8805,
      "Ġtears": 8806,
      "Ġtangle": 8807,
      "Ġtaste": 8808,
      "Ġaro": 8809,
      "Ġaur": 8810,
      "Ġaver": 8811,
      "Ġape": 8812,
      "Ġapost": 8813,
      "Ġauthors": 8814,
      "het": 8815,
      "hew": 8816,
      "hets": 8817,
      "heart": 8818,
      "inn": 8819,
      "inet": 8820,
      "inem": 8821,
      "iners": 8822,
      "inth": 8823,
      "inance": 8824,
      "inous": 8825,
      "inations": 8826,
      "inces": 8827,
      "inned": 8828,
      "inett": 8829,
      "infl": 8830,
      "inois": 8831,
      "inburgh": 8832,
      "rest": 8833,
      "reut": 8834,
      "reet": 8835,
      "reight": 8836,
      "rends": 8837,
      "Ġol": 8838,
      "Ġole": 8839,
      "Ġoint": 8840,
      "Ġtheater": 8841,
      "Ġtherap": 8842,
      "Ġtheoretical": 8843,
      "erk": 8844,
      "eries": 8845,
      "eros": 8846,
      "ervers": 8847,
      "erious": 8848,
      "erals": 8849,
      "erie": 8850,
      "erick": 8851,
      "erries": 8852,
      "ergic": 8853,
      "atri": 8854,
      "atient": 8855,
      "atories": 8856,
      "atched": 8857,
      "attered": 8858,
      "aturally": 8859,
      "Ġsn": 8860,
      "Ġsen": 8861,
      "Ġsor": 8862,
      "Ġsem": 8863,
      "Ġsel": 8864,
      "Ġsort": 8865,
      "Ġsand": 8866,
      "Ġsout": 8867,
      "Ġsong": 8868,
      "Ġsway": 8869,
      "Ġsorts": 8870,
      "Ġsample": 8871,
      "Ġsoph": 8872,
      "oni": 8873,
      "onic": 8874,
      "onent": 8875,
      "onate": 8876,
      "onds": 8877,
      "onistic": 8878,
      "onkers": 8879,
      "enge": 8880,
      "environment": 8881,
      "enzene": 8882,
      "isone": 8883,
      "isdom": 8884,
      "Ġce": 8885,
      "Ġcul": 8886,
      "Ġcres": 8887,
      "Ġcum": 8888,
      "Ġcure": 8889,
      "Ġcations": 8890,
      "Ġcord": 8891,
      "Ġcars": 8892,
      "Ġcave": 8893,
      "Ġcork": 8894,
      "Ġcyl": 8895,
      "Ġcoup": 8896,
      "Ġcovered": 8897,
      "Ġcraft": 8898,
      "Ġcider": 8899,
      "Ġcitizen": 8900,
      "Ġcrack": 8901,
      "Ġcured": 8902,
      "Ġcouncil": 8903,
      "Ġcourage": 8904,
      "Ġwil": 8905,
      "Ġwet": 8906,
      "Ġwand": 8907,
      "Ġward": 8908,
      "Ġwars": 8909,
      "Ġwax": 8910,
      "Ġwelf": 8911,
      "Ġwires": 8912,
      "Ġwalk": 8913,
      "Ġwoes": 8914,
      "Ġwishes": 8915,
      "Ġwaiting": 8916,
      "Ġwisdom": 8917,
      "ester": 8918,
      "esign": 8919,
      "especially": 8920,
      "esbian": 8921,
      "anas": 8922,
      "anent": 8923,
      "anad": 8924,
      "anne": 8925,
      "ancer": 8926,
      "anks": 8927,
      "anbul": 8928,
      "Ġpp": 8929,
      "Ġpu": 8930,
      "Ġpin": 8931,
      "Ġpen": 8932,
      "Ġpil": 8933,
      "Ġpul": 8934,
      "Ġpad": 8935,
      "Ġpist": 8936,
      "Ġpest": 8937,
      "Ġpour": 8938,
      "Ġpine": 8939,
      "Ġpose": 8940,
      "Ġpup": 8941,
      "Ġpyr": 8942,
      "Ġpush": 8943,
      "Ġpending": 8944,
      "Ġpores": 8945,
      "Ġpray": 8946,
      "Ġpaid": 8947,
      "Ġpleas": 8948,
      "oron": 8949,
      "oral": 8950,
      "orter": 8951,
      "orate": 8952,
      "orance": 8953,
      "orities": 8954,
      "orient": 8955,
      "orrow": 8956,
      "orters": 8957,
      "itur": 8958,
      "itts": 8959,
      "itate": 8960,
      "itance": 8961,
      "itons": 8962,
      "itating": 8963,
      "itational": 8964,
      "itche": 8965,
      "eden": 8966,
      "Ġanions": 8967,
      "Ġanne": 8968,
      "Ġanoint": 8969,
      "Ġbud": 8970,
      "Ġbun": 8971,
      "Ġbare": 8972,
      "Ġbite": 8973,
      "Ġbone": 8974,
      "Ġbans": 8975,
      "Ġbark": 8976,
      "Ġbob": 8977,
      "Ġbath": 8978,
      "Ġbowing": 8979,
      "Ġbask": 8980,
      "Ġbills": 8981,
      "Ġbarb": 8982,
      "Ġbrows": 8983,
      "Ġbumps": 8984,
      "Ġbusting": 8985,
      "Ġbiceps": 8986,
      "Ġbismuth": 8987,
      "Ġberries": 8988,
      "ald": 8989,
      "alag": 8990,
      "alance": 8991,
      "alyst": 8992,
      "Ġfr": 8993,
      "Ġfres": 8994,
      "Ġfear": 8995,
      "Ġfled": 8996,
      "Ġfaint": 8997,
      "Ġfits": 8998,
      "Ġfins": 8999,
      "Ġfiel": 9000,
      "Ġflying": 9001,
      "Ġfring": 9002,
      "Ġfasc": 9003,
      "Ġfaith": 9004,
      "Ġfolks": 9005,
      "ingle": 9006,
      "ingly": 9007,
      "ingian": 9008,
      "oured": 9009,
      "Ġinqu": 9010,
      "Ġinau": 9011,
      "Ġinhab": 9012,
      "Ġinequal": 9013,
      "Ġinev": 9014,
      "Ġinlined": 9015,
      "Ġmit": 9016,
      "Ġmig": 9017,
      "Ġmour": 9018,
      "Ġmood": 9019,
      "Ġmild": 9020,
      "Ġmath": 9021,
      "Ġmowing": 9022,
      "Ġmamm": 9023,
      "Ġmitzvot": 9024,
      "icits": 9025,
      "iculation": 9026,
      "icacy": 9027,
      "Ġtoy": 9028,
      "Ġtomat": 9029,
      "Ġtoshi": 9030,
      "Ġtobac": 9031,
      "aro": 9032,
      "arations": 9033,
      "arian": 9034,
      "arning": 9035,
      "Ġda": 9036,
      "Ġdow": 9037,
      "Ġdate": 9038,
      "Ġdiv": 9039,
      "Ġdog": 9040,
      "Ġdress": 9041,
      "Ġdual": 9042,
      "Ġdivers": 9043,
      "Ġdict": 9044,
      "Ġdoses": 9045,
      "Ġdraining": 9046,
      "Ġdimens": 9047,
      "Ġdancing": 9048,
      "Ġdinner": 9049,
      "Ġdementia": 9050,
      "Ġdatabase": 9051,
      "ionals": 9052,
      "lements": 9053,
      "lecul": 9054,
      "roph": 9055,
      "rooted": 9056,
      "asts": 9057,
      "asure": 9058,
      "asons": 9059,
      "ashed": 9060,
      "asuring": 9061,
      "asters": 9062,
      "Ġthrown": 9063,
      "Ġthrone": 9064,
      "Ġthickness": 9065,
      "Ġham": 9066,
      "Ġhorm": 9067,
      "Ġhire": 9068,
      "Ġhang": 9069,
      "Ġhier": 9070,
      "Ġhunt": 9071,
      "Ġhonse": 9072,
      "Ġhips": 9073,
      "Ġhiring": 9074,
      "Ġhopes": 9075,
      "Ġhurt": 9076,
      "Ġhouses": 9077,
      "Ġharsh": 9078,
      "Ġhatched": 9079,
      "ctic": 9080,
      "cturn": 9081,
      "enty": 9082,
      "entional": 9083,
      "Ġech": 9084,
      "Ġeigh": 9085,
      "Ġelic": 9086,
      "Ġeager": 9087,
      "Ġerected": 9088,
      "ĠeBay": 9089,
      "ĠeOpen": 9090,
      "Ġreject": 9091,
      "Ġreven": 9092,
      "Ġrendered": 9093,
      "Ġreelection": 9094,
      "ilis": 9095,
      "ilan": 9096,
      "ille": 9097,
      "ilater": 9098,
      "ilize": 9099,
      "ilty": 9100,
      "ilica": 9101,
      "sts": 9102,
      "stre": 9103,
      "state": 9104,
      "stage": 9105,
      "stances": 9106,
      "structure": 9107,
      "stanbul": 9108,
      "Ġli": 9109,
      "Ġlies": 9110,
      "Ġlists": 9111,
      "Ġload": 9112,
      "Ġlift": 9113,
      "Ġloud": 9114,
      "Ġlux": 9115,
      "Ġlung": 9116,
      "Ġlitter": 9117,
      "Ġlibraries": 9118,
      "Ġlesbian": 9119,
      "oma": 9120,
      "omer": 9121,
      "omit": 9122,
      "oming": 9123,
      "ompre": 9124,
      "Ġnu": 9125,
      "Ġnor": 9126,
      "Ġnur": 9127,
      "Ġnet": 9128,
      "Ġnour": 9129,
      "Ġnost": 9130,
      "Ġnond": 9131,
      "Ġnurs": 9132,
      "Ġnah": 9133,
      "Ġnoun": 9134,
      "Ġnausea": 9135,
      "Ġnisei": 9136,
      "Ġnaturally": 9137,
      "lymer": 9138,
      "lymp": 9139,
      "Ġissei": 9140,
      "sets": 9141,
      "seven": 9142,
      "sevier": 9143,
      "cel": 9144,
      "ceased": 9145,
      "Ġgent": 9146,
      "Ġgam": 9147,
      "Ġgod": 9148,
      "Ġgame": 9149,
      "Ġgable": 9150,
      "Ġgays": 9151,
      "Ġgym": 9152,
      "Ġgeriatric": 9153,
      "Ġgrams": 9154,
      "imp": 9155,
      "iminated": 9156,
      "iminal": 9157,
      "owan": 9158,
      "owed": 9159,
      "owel": 9160,
      "ĠTS": 9161,
      "ĠTom": 9162,
      "ĠTel": 9163,
      "ĠTib": 9164,
      "ĠTry": 9165,
      "ĠTable": 9166,
[...]
